<unk>	0
<s>	0
</s>	0
▁the	-2.98093
,	-3.21175
▁of	-3.62832
▁and	-3.73647
▁to	-3.7937
▁"	-3.92479
."	-3.98249
.	-4.09034
▁in	-4.10432
▁a	-4.20832
s	-4.38335
▁is	-4.43693
▁that	-4.69218
▁for	-4.75329
▁on	-5.0299
-	-5.05172
▁	-5.10633
▁with	-5.13801
▁be	-5.1788
▁are	-5.20125
▁this	-5.34276
▁as	-5.37381
▁it	-5.45384
▁I	-5.46465
▁we	-5.4715
▁by	-5.51207
▁have	-5.51917
▁not	-5.54732
▁you	-5.5831
▁which	-5.66015
▁will	-5.66672
'	-5.71346
▁from	-5.72715
▁The	-5.74102
▁at	-5.81059
▁or	-5.83085
▁has	-5.83834
▁an	-5.86872
▁(	-5.98424
▁can	-5.98782
The	-6.0045
▁our	-6.04221
▁European	-6.04467
▁all	-6.04878
▁was	-6.04913
▁also	-6.16273
:	-6.23482
▁-	-6.24288
▁your	-6.29292
)	-6.32047
▁but	-6.3751
▁its	-6.39681
▁would	-6.41066
▁their	-6.42867
▁more	-6.42948
▁been	-6.45944
▁one	-6.50542
ing	-6.52767
▁should	-6.54389
’	-6.54518
▁Commission	-6.62185
▁must	-6.64857
In	-6.66347
▁very	-6.70118
▁other	-6.70141
▁there	-6.70518
▁new	-6.70569
▁they	-6.71338
▁do	-6.7162
I	-6.73271
▁only	-6.74672
▁like	-6.74989
▁President	-6.75572
▁time	-6.75695
▁about	-6.77401
ed	-6.81454
▁so	-6.83401
▁these	-6.86166
▁who	-6.87536
▁Mr	-6.87805
▁We	-6.89115
▁up	-6.92171
▁Union	-6.93144
▁us	-6.93871
▁if	-6.93981
e	-6.95804
▁no	-6.96666
▁any	-6.97167
▁""	-6.97323
t	-6.98062
▁people	-6.99259
▁into	-7.00693
▁Parliament	-7.01618
▁out	-7.02255
▁Europe	-7.02329
▁were	-7.04395
▁well	-7.05814
▁such	-7.05962
▁report	-7.065
▁States	-7.06551
▁what	-7.06724
▁need	-7.0931
▁Member	-7.09697
▁countries	-7.0973
▁It	-7.10683
▁than	-7.11248
;	-7.11791
▁his	-7.12144
▁This	-7.13031
▁when	-7.1306
▁my	-7.1376
d	-7.13955
▁use	-7.13978
""	-7.14076
▁Council	-7.143
▁first	-7.15417
▁some	-7.15778
▁most	-7.15838
We	-7.16351
▁make	-7.16622
▁–	-7.17913
▁A	-7.18217
▁work	-7.18293
▁now	-7.18872
▁important	-7.19392
▁many	-7.19806
▁between	-7.20323
▁EU	-7.20344
▁them	-7.21218
/	-7.21893
▁because	-7.23429
▁take	-7.23754
?	-7.25525
This	-7.27738
It	-7.28606
▁information	-7.30878
▁over	-7.31509
▁hotel	-7.31977
▁support	-7.32429
▁two	-7.32616
▁he	-7.33072
▁made	-7.3398
▁years	-7.34373
▁way	-7.34821
er	-7.35645
▁those	-7.36079
▁world	-7.36265
▁just	-7.36351
▁had	-7.36737
ly	-7.39224
▁where	-7.39889
▁policy	-7.40713
a	-7.41776
▁being	-7.432
▁may	-7.45538
▁system	-7.4573
A	-7.45799
▁even	-7.47375
▁am	-7.48718
▁right	-7.49064
▁de	-7.49164
▁,	-7.49922
▁part	-7.51075
▁order	-7.51414
▁area	-7.52269
▁good	-7.52904
▁year	-7.54467
If	-7.54826
▁market	-7.55849
▁here	-7.56048
▁place	-7.57418
▁through	-7.57504
▁possible	-7.57963
▁same	-7.58526
n	-7.58921
▁own	-7.59821
▁after	-7.59832
in	-7.60314
y	-7.60766
▁political	-7.60919
▁development	-7.61591
▁want	-7.62075
▁economic	-7.63645
▁could	-7.64079
▁see	-7.64114
▁under	-7.64173
▁within	-7.6447
▁rights	-7.65098
▁against	-7.65538
▁both	-7.65826
▁find	-7.6601
▁therefore	-7.6676
o	-7.67334
▁much	-7.67811
Mr	-7.67883
▁used	-7.67887
▁how	-7.68385
▁then	-7.6883
▁does	-7.69998
m	-7.70494
▁high	-7.7068
▁country	-7.70829
▁public	-7.71257
▁number	-7.72358
▁In	-7.72515
▁'	-7.72763
!	-7.72807
▁without	-7.73204
▁“	-7.73316
▁me	-7.74157
▁international	-7.74617
▁point	-7.74755
th	-7.74758
As	-7.74761
▁fact	-7.75942
▁services	-7.76919
▁social	-7.77041
▁still	-7.77363
▁know	-7.7749
▁great	-7.77704
▁say	-7.77984
▁long	-7.78184
▁available	-7.78863
▁different	-7.79392
▁believe	-7.80486
▁future	-7.81219
▁view	-7.81737
▁already	-7.81955
▁free	-7.82347
▁last	-7.82706
▁before	-7.83628
▁course	-7.84023
▁today	-7.84826
▁.	-7.85173
▁2	-7.86175
▁able	-7.86782
▁think	-7.86834
▁products	-7.86898
▁process	-7.87222
▁data	-7.87662
▁cannot	-7.88274
▁service	-7.88443
▁Hotel	-7.88525
▁human	-7.88568
en	-7.88592
▁case	-7.88706
▁set	-7.89649
▁too	-7.89827
i	-7.90244
S	-7.91531
▁get	-7.91651
es	-7.91661
▁S	-7.91892
▁level	-7.9256
▁end	-7.93461
▁offers	-7.9359
▁issue	-7.94316
▁room	-7.94795
▁national	-7.95041
▁during	-7.95175
▁proposal	-7.95183
▁1	-7.9527
For	-7.95436
▁financial	-7.955
▁best	-7.95613
▁question	-7.95636
▁example	-7.95823
▁said	-7.95907
r	-7.96743
▁means	-7.96814
),	-7.97255
▁debate	-7.97344
▁Commissioner	-7.97642
▁You	-7.97888
▁situation	-7.97896
▁small	-7.97917
▁help	-7.9798
▁city	-7.97999
▁every	-7.98609
▁day	-7.98693
▁quality	-7.98987
▁since	-7.99047
▁3	-7.99917
”	-8.0043
?"	-8.00778
▁particular	-8.01257
▁clear	-8.02306
▁each	-8.02339
▁Committee	-8.02684
▁business	-8.02819
▁offer	-8.02979
▁including	-8.03189
▁access	-8.03318
▁s	-8.0468
▁give	-8.05239
▁measures	-8.05417
▁common	-8.05507
▁three	-8.05534
▁provide	-8.06768
▁next	-8.07378
▁agreement	-8.07427
▁few	-8.07758
▁energy	-8.07873
▁rooms	-8.07901
▁areas	-8.08101
▁citizens	-8.08121
However	-8.08166
▁large	-8.08484
▁problem	-8.08568
▁taken	-8.08578
▁far	-8.09367
re	-8.09372
▁put	-8.09474
▁ensure	-8.09936
▁come	-8.10876
al	-8.1163
▁further	-8.11831
▁again	-8.11957
▁back	-8.12729
▁necessary	-8.14034
▁company	-8.14694
▁change	-8.14746
▁problems	-8.14934
▁shall	-8.15102
▁given	-8.15492
▁security	-8.15549
▁go	-8.15799
▁why	-8.1623
▁cooperation	-8.16483
▁however	-8.1652
)."	-8.17121
▁while	-8.17601
▁position	-8.18415
▁group	-8.18686
▁hope	-8.18941
▁real	-8.19038
▁e	-8.19248
▁her	-8.19315
▁life	-8.19592
▁vote	-8.19739
▁law	-8.20017
▁always	-8.20408
g	-8.21579
▁action	-8.21827
▁stay	-8.22265
▁Group	-8.2249
▁located	-8.2259
▁form	-8.22753
or	-8.23132
▁better	-8.23552
▁There	-8.23591
▁protection	-8.23723
▁needs	-8.23751
▁main	-8.24078
▁United	-8.24216
▁present	-8.24263
▁full	-8.24874
▁special	-8.2515
▁using	-8.25562
▁re	-8.25582
!"	-8.25675
▁current	-8.26058
▁based	-8.26342
▁production	-8.26684
▁become	-8.26692
▁working	-8.2681
▁open	-8.27612
▁legal	-8.27648
▁power	-8.27943
▁state	-8.27971
▁terms	-8.28023
▁around	-8.28042
▁whether	-8.28146
▁trade	-8.2816
▁5	-8.28293
▁result	-8.284
▁down	-8.28685
▁particularly	-8.28761
▁did	-8.28938
to	-8.2918
▁Community	-8.29186
▁House	-8.29217
▁together	-8.29238
▁another	-8.30417
▁second	-8.30908
▁4	-8.31093
▁children	-8.31515
▁local	-8.32289
▁."	-8.32515
▁centre	-8.33005
▁role	-8.33241
▁conditions	-8.33441
▁issues	-8.33793
▁certain	-8.33925
▁per	-8.34144
▁C	-8.34817
▁whole	-8.35079
▁various	-8.35116
▁experience	-8.3546
▁women	-8.35616
▁B	-8.35696
▁companies	-8.3596
▁industry	-8.3624
▁basis	-8.36289
B	-8.36472
▁control	-8.36482
▁matter	-8.36579
▁health	-8.37028
▁respect	-8.37133
▁budget	-8.3761
▁account	-8.37649
▁sector	-8.37666
▁systems	-8.37875
▁Mrs	-8.37887
▁research	-8.37894
▁water	-8.38476
▁That	-8.3856
▁E	-8.38869
▁non	-8.39704
▁done	-8.39725
▁especially	-8.39735
▁third	-8.40273
▁create	-8.40377
▁government	-8.40493
There	-8.40584
On	-8.40593
To	-8.40612
▁region	-8.40965
▁really	-8.41491
2	-8.41609
▁look	-8.41695
▁hand	-8.42116
▁close	-8.42229
▁million	-8.42665
▁decision	-8.42851
▁project	-8.43289
▁single	-8.4345
▁specific	-8.43465
com	-8.43917
▁programme	-8.44159
C	-8.44292
▁itself	-8.44531
▁10	-8.44631
▁site	-8.44648
▁continue	-8.44913
ers	-8.44968
▁something	-8.45108
▁major	-8.45127
▁resolution	-8.45229
▁several	-8.4529
▁modern	-8.45745
D	-8.45879
▁German	-8.46197
▁general	-8.46297
▁page	-8.46432
▁All	-8.46564
▁regard	-8.46757
▁gentlemen	-8.47076
▁wish	-8.4721
▁less	-8.47248
...	-8.47613
▁subject	-8.47692
▁directive	-8.47715
▁making	-8.4774
on	-8.47838
▁transport	-8.4801
▁following	-8.48363
▁rapporteur	-8.48393
▁least	-8.48462
).	-8.48517
With	-8.48639
▁start	-8.48992
▁name	-8.49077
▁going	-8.49298
▁old	-8.49337
▁often	-8.49571
▁management	-8.49767
▁crisis	-8.49857
▁rules	-8.49944
▁environment	-8.49963
At	-8.50221
▁global	-8.50346
▁ask	-8.50617
▁range	-8.51231
▁Germany	-8.51328
▁individual	-8.5138
▁towards	-8.51471
▁away	-8.51634
▁welcome	-8.51751
▁family	-8.51891
▁once	-8.52135
▁thank	-8.52712
▁product	-8.52797
▁institutions	-8.53033
▁found	-8.53209
▁price	-8.53455
▁money	-8.54071
▁software	-8.5408
▁excellent	-8.54122
▁until	-8.54167
▁increase	-8.54168
▁things	-8.54192
▁forward	-8.54405
▁food	-8.54587
▁Treaty	-8.54689
▁short	-8.54777
▁aid	-8.54903
▁location	-8.55184
▁personal	-8.55432
▁him	-8.55454
▁&	-8.55531
▁No	-8.55554
▁customers	-8.55798
▁little	-8.55912
▁call	-8.56292
▁opportunity	-8.56322
l	-8.56381
▁growth	-8.56656
▁staff	-8.57202
▁rather	-8.57238
▁activities	-8.57323
▁line	-8.57651
the	-8.57765
▁Our	-8.57831
▁air	-8.57898
▁agree	-8.5794
▁days	-8.5836
▁period	-8.58395
▁US	-8.5853
▁resources	-8.58839
▁private	-8.58896
▁approach	-8.58938
▁behalf	-8.59208
▁home	-8.59258
▁un	-8.59286
▁framework	-8.59948
▁provided	-8.60118
▁quite	-8.60123
ll	-8.60197
▁interest	-8.60337
▁include	-8.60492
▁But	-8.60667
▁fully	-8.60754
▁list	-8.61018
But	-8.61102
▁field	-8.61688
▁ladies	-8.61691
▁yet	-8.62069
▁off	-8.62229
▁might	-8.62414
▁20	-8.62424
▁technology	-8.62737
▁having	-8.6279
▁solution	-8.62995
▁amendments	-8.63152
You	-8.63372
▁"(	-8.63393
▁progress	-8.63456
▁favour	-8.63546
▁State	-8.63656
▁among	-8.63736
▁value	-8.63943
▁la	-8.6395
▁reason	-8.64026
▁6	-8.64188
▁safety	-8.642
▁members	-8.6439
▁allow	-8.64574
▁play	-8.64627
▁economy	-8.64657
▁proposals	-8.64665
▁above	-8.64782
▁left	-8.64818
▁adopted	-8.64877
▁en	-8.65225
▁opinion	-8.65484
▁town	-8.65489
k	-8.65514
▁taking	-8.65709
▁costs	-8.65778
▁enjoy	-8.66589
▁legislation	-8.66658
▁design	-8.67056
▁T	-8.67181
▁G	-8.67232
▁key	-8.67288
▁15	-8.67514
▁addition	-8.67611
▁application	-8.67655
▁P	-8.67686
▁Members	-8.67694
▁called	-8.68389
▁18	-8.68405
▁sea	-8.68505
▁content	-8.68698
▁D	-8.68993
▁website	-8.69141
▁difficult	-8.6917
▁...	-8.69201
▁policies	-8.69292
▁[[	-8.69338
c	-8.6942
able	-8.69438
▁due	-8.69511
▁attention	-8.69563
▁contact	-8.69564
▁For	-8.69656
▁concerned	-8.69725
h	-8.70058
▁responsibility	-8.70164
▁easy	-8.70325
▁show	-8.70405
▁He	-8.70542
▁results	-8.70869
▁projects	-8.709
▁simply	-8.70924
▁minutes	-8.70933
▁building	-8.71028
▁China	-8.71162
▁importance	-8.71413
▁she	-8.72103
▁And	-8.722
▁text	-8.72228
▁provides	-8.72297
▁effective	-8.72334
▁car	-8.7246
▁society	-8.72478
te	-8.72502
▁complete	-8.72629
▁What	-8.72658
▁points	-8.72726
▁principle	-8.72772
▁makes	-8.72821
de	-8.72926
▁greater	-8.73253
▁environmental	-8.73366
▁strategy	-8.73441
▁known	-8.73794
That	-8.73874
▁groups	-8.74133
▁beautiful	-8.74489
▁questions	-8.74691
▁others	-8.7482
▁training	-8.75086
▁version	-8.75121
st	-8.75346
▁heart	-8.7555
▁natural	-8.75647
▁standards	-8.76077
▁achieve	-8.7608
▁times	-8.76303
▁along	-8.76909
▁words	-8.77011
▁required	-8.77131
▁kind	-8.77229
▁meeting	-8.77277
▁past	-8.77408
▁They	-8.77503
▁authorities	-8.77531
▁clearly	-8.77579
▁deal	-8.78007
▁recent	-8.78535
▁World	-8.78571
When	-8.78781
▁essential	-8.78894
▁light	-8.79077
▁7	-8.79212
▁step	-8.79326
▁bring	-8.79741
▁risk	-8.79776
▁technical	-8.79823
an	-8.79926
▁Internet	-8.79972
▁side	-8.80021
▁address	-8.80414
x	-8.80568
▁internal	-8.80734
▁serious	-8.80937
▁employment	-8.81098
▁feel	-8.81141
▁longer	-8.81213
▁four	-8.81243
▁12	-8.81253
▁proposed	-8.81412
▁responsible	-8.81523
▁directly	-8.81562
▁months	-8.81872
▁|	-8.81925
▁nature	-8.821
▁M	-8.82224
▁visit	-8.82318
▁person	-8.82329
▁user	-8.82332
▁cost	-8.82569
▁currently	-8.83052
▁m	-8.83068
▁requirements	-8.83075
▁cultural	-8.83099
z	-8.831
▁pages	-8.83178
▁history	-8.83382
Our	-8.83406
▁solutions	-8.83519
▁interests	-8.83657
▁enough	-8.83761
▁implementation	-8.83852
▁involved	-8.83852
▁competition	-8.83955
▁themselves	-8.83972
▁/	-8.84167
no	-8.84334
▁freedom	-8.84449
▁parties	-8.84485
▁network	-8.84658
▁peace	-8.8479
▁central	-8.8482
▁young	-8.85027
▁voted	-8.85162
▁regions	-8.85226
▁events	-8.85363
▁democracy	-8.8537
E	-8.85499
▁8	-8.85618
▁sure	-8.85638
▁guests	-8.85769
u	-8.85993
▁let	-8.86064
▁near	-8.86188
▁ago	-8.8641
▁efforts	-8.86513
▁century	-8.86836
▁upon	-8.86841
▁needed	-8.86872
▁event	-8.86903
▁war	-8.86938
▁regulation	-8.87013
▁never	-8.87037
]]	-8.87209
▁online	-8.87283
▁please	-8.87401
▁EUR	-8.87541
▁extremely	-8.87751
▁keep	-8.8781
▁positive	-8.8787
▁O	-8.87886
▁pay	-8.8801
▁facilities	-8.88072
le	-8.88101
▁developed	-8.88241
▁force	-8.88845
▁fundamental	-8.88944
▁language	-8.89024
▁total	-8.89094
▁negotiations	-8.89226
▁These	-8.895
▁top	-8.89717
▁changes	-8.89942
p	-8.90234
▁live	-8.90322
▁K	-8.90489
▁request	-8.90502
▁V	-8.90552
▁developing	-8.90816
▁capital	-8.91015
▁team	-8.91029
▁improve	-8.91153
▁either	-8.91162
▁consider	-8.91189
▁effect	-8.91238
▁foreign	-8.91507
f	-8.91512
▁2009	-8.91519
▁30	-8.91572
▁strong	-8.91684
▁Presidency	-8.92032
b	-8.9222
▁Russia	-8.92235
▁meet	-8.92487
▁created	-8.92555
▁music	-8.92589
▁share	-8.92762
▁i	-8.9282
▁cases	-8.92851
▁additional	-8.92915
▁via	-8.92928
▁success	-8.92998
▁though	-8.93075
▁education	-8.93079
▁lot	-8.93088
▁comes	-8.93089
▁breakfast	-8.93335
▁etc	-8.93343
..."	-8.93353
▁regional	-8.93367
▁according	-8.93422
▁views	-8.93485
▁accept	-8.93519
▁climate	-8.93536
▁house	-8.93587
▁true	-8.9362
▁democratic	-8.93742
▁situated	-8.94045
▁idea	-8.94077
▁thus	-8.94122
▁appropriate	-8.9417
▁receive	-8.9417
ve	-8.94327
▁unique	-8.94342
ar	-8.94439
▁care	-8.94531
▁final	-8.94634
▁New	-8.9466
▁So	-8.94738
▁everything	-8.94754
▁states	-8.9478
▁markets	-8.9484
▁International	-8.94876
▁almost	-8.9492
ity	-8.95093
▁wide	-8.95108
▁actually	-8.95177
▁direct	-8.95258
▁standard	-8.9545
▁understand	-8.95514
▁procedure	-8.95567
▁seen	-8.95605
▁prices	-8.95628
▁type	-8.95638
▁living	-8.95757
up	-8.9578
▁lead	-8.95838
▁soon	-8.95908
us	-8.95924
▁later	-8.96025
▁ideal	-8.9633
▁plan	-8.96336
▁French	-8.96384
ation	-8.96397
▁F	-8.96422
▁context	-8.96424
▁included	-8.96506
▁sub	-8.96704
▁funds	-8.96737
▁night	-8.96868
▁held	-8.96902
▁program	-8.97116
T	-8.97226
▁beach	-8.97323
▁reform	-8.97396
▁restaurant	-8.97534
3	-8.97695
K	-8.97699
▁thing	-8.98133
▁outside	-8.98143
▁file	-8.98168
▁workers	-8.98171
▁knowledge	-8.98232
▁add	-8.98459
▁majority	-8.985
▁guarantee	-8.98667
▁communication	-8.98842
After	-8.98909
▁road	-8.99011
▁art	-8.99084
▁bar	-8.99414
▁customer	-8.99514
▁turn	-8.99584
▁France	-8.99628
▁station	-8.99652
▁reach	-8.99677
▁rate	-8.99996
▁run	-9.00172
▁throughout	-9.00178
▁designed	-9.00239
▁space	-9.00256
▁famous	-9.0041
▁tax	-9.00582
▁p	-9.00665
▁five	-9.00789
And	-9.00795
▁comfortable	-9.01077
it	-9.01084
▁features	-9.01174
_	-9.01334
▁investment	-9.01577
▁week	-9.01579
▁certainly	-9.01598
▁low	-9.01922
▁‘	-9.02091
▁hard	-9.02178
▁date	-9.02203
▁early	-9.02237
▁across	-9.02499
▁doing	-9.02568
▁looking	-9.02664
▁moment	-9.02809
▁Government	-9.02945
▁La	-9.03182
▁check	-9.03197
▁existing	-9.03336
▁model	-9.03338
▁relations	-9.03349
▁writing	-9.03381
▁d	-9.03486
▁impact	-9.03594
ness	-9.03616
▁hours	-9.03708
▁traditional	-9.03804
ch	-9.04048
▁connection	-9.04117
ist	-9.04186
▁concerns	-9.04271
▁Re	-9.04297
▁ever	-9.04363
▁took	-9.04819
▁significant	-9.04866
▁To	-9.04867
▁concerning	-9.04877
▁mentioned	-9.04933
▁users	-9.05046
P	-9.0513
▁apply	-9.05262
▁9	-9.05393
▁basic	-9.05409
▁web	-9.05497
▁programmes	-9.05768
▁big	-9.05798
▁committee	-9.05926
G	-9.05978
▁professional	-9.06015
▁km	-9.06051
▁try	-9.0622
▁aware	-9.06346
▁member	-9.06491
▁media	-9.06615
▁population	-9.06631
▁completely	-9.06681
▁amount	-9.06759
▁leading	-9.06866
▁remain	-9.06874
▁develop	-9.06898
▁although	-9.06921
▁U	-9.06938
▁If	-9.06966
▁Turkey	-9.07008
term	-9.07108
man	-9.0715
▁related	-9.07159
▁practice	-9.07295
▁reasons	-9.07374
▁perfect	-9.07473
1	-9.07483
▁community	-9.07484
na	-9.07532
▁material	-9.07543
▁built	-9.07556
▁game	-9.07591
▁nothing	-9.07705
They	-9.07841
▁culture	-9.07877
▁military	-9.07923
▁decisions	-9.07954
▁parts	-9.08103
▁America	-9.08121
All	-9.08196
▁di	-9.08432
▁holiday	-9.08502
▁Court	-9.08524
▁original	-9.08589
▁takes	-9.08661
▁walk	-9.08961
F	-9.09069
is	-9.09214
▁American	-9.09405
▁send	-9.09678
▁term	-9.09787
▁equipment	-9.09886
▁fight	-9.09888
▁body	-9.10015
▁pool	-9.10083
▁objectives	-9.1019
▁move	-9.10231
▁euro	-9.10379
as	-9.10497
▁concern	-9.10746
▁read	-9.10757
These	-9.10798
▁established	-9.10916
▁received	-9.10952
▁works	-9.10972
▁choice	-9.11001
▁agreements	-9.11041
▁objective	-9.11225
▁allows	-9.11348
▁package	-9.1136
▁jobs	-9.11362
▁aim	-9.11367
▁includes	-9.11519
▁partners	-9.11708
▁book	-9.11742
▁performance	-9.1175
▁demand	-9.11834
▁L	-9.11882
▁entire	-9.11915
▁sense	-9.12001
▁agricultural	-9.12079
▁co	-9.1212
▁values	-9.12123
▁regarding	-9.12139
▁Lisbon	-9.12223
▁pre	-9.12367
He	-9.12526
▁image	-9.12708
▁Please	-9.12822
▁benefit	-9.12935
▁mind	-9.13123
▁face	-9.13381
▁quickly	-9.13434
▁dialogue	-9.1387
▁16	-9.14052
▁prevent	-9.14066
▁TV	-9.14089
▁Affairs	-9.14127
▁half	-9.14178
▁beginning	-9.14244
▁act	-9.14264
▁initiative	-9.14377
▁treatment	-9.14432
▁applications	-9.14477
▁self	-9.14563
So	-9.14602
▁17	-9.14614
▁May	-9.14657
▁return	-9.14666
▁simple	-9.14703
and	-9.14738
▁potential	-9.14791
▁function	-9.14874
▁achieved	-9.15083
▁party	-9.15121
ic	-9.15196
▁computer	-9.15237
▁mean	-9.15351
▁below	-9.1552
▁indeed	-9.15629
▁11	-9.15661
▁guest	-9.15702
▁focus	-9.15745
▁H	-9.15891
▁South	-9.15903
M	-9.1594
(	-9.1599
O	-9.16053
▁R	-9.16166
▁job	-9.16475
▁seems	-9.16626
▁English	-9.16635
▁center	-9.16769
▁contains	-9.16776
▁answer	-9.1708
▁choose	-9.17149
▁recently	-9.17334
Madam	-9.17458
ism	-9.17515
at	-9.1755
ne	-9.17628
▁und	-9.17743
▁successful	-9.17773
▁lack	-9.17977
▁follow	-9.17984
▁integration	-9.18134
▁internet	-9.18169
▁keyword	-9.18202
▁card	-9.18269
▁stop	-9.18324
▁highly	-9.18618
H	-9.18815
▁presented	-9.18866
▁An	-9.18901
▁everyone	-9.18965
▁series	-9.19091
▁front	-9.19117
▁increased	-9.19159
▁stage	-9.19175
▁carried	-9.19244
▁amendment	-9.19256
▁huge	-9.19493
▁joint	-9.19565
▁whose	-9.1957
ta	-9.19613
▁goods	-9.19629
▁rest	-9.19685
▁active	-9.19984
▁files	-9.19996
▁commitment	-9.2001
▁promote	-9.20114
▁agreed	-9.2038
▁equipped	-9.20458
▁creation	-9.20555
▁consumers	-9.20555
▁2010	-9.20612
▁sound	-9.2062
▁June	-9.20675
▁governments	-9.20696
▁complex	-9.20842
▁higher	-9.21038
▁double	-9.21082
▁office	-9.21306
▁14	-9.21557
What	-9.21668
▁principles	-9.21809
▁N	-9.21963
▁exchange	-9.21977
▁St	-9.2199
Finally	-9.22069
▁perhaps	-9.22122
▁reviews	-9.22255
▁direction	-9.22312
▁enable	-9.22393
▁men	-9.22672
▁nuclear	-9.22677
▁levels	-9.22689
▁man	-9.22881
▁travel	-9.22937
▁shown	-9.23026
▁asked	-9.23186
▁reports	-9.23479
▁aspects	-9.23534
▁came	-9.23627
▁2008	-9.23908
▁At	-9.24099
▁opportunities	-9.24129
▁East	-9.24204
▁oil	-9.24241
▁possibility	-9.24303
▁reduce	-9.24521
▁friendly	-9.24645
▁speak	-9.24689
▁50	-9.24788
▁shows	-9.24816
▁pressure	-9.24944
▁Berlin	-9.24957
▁response	-9.25064
▁One	-9.25074
el	-9.25086
▁latest	-9.2509
ion	-9.25119
®	-9.25138
▁matters	-9.25175
▁considered	-9.25321
▁behind	-9.25399
▁previous	-9.25447
▁added	-9.25448
▁external	-9.2558
ia	-9.25591
▁reached	-9.25613
▁25	-9.25682
▁setting	-9.25693
▁rates	-9.25854
▁fair	-9.25894
▁enlargement	-9.25941
▁effects	-9.25995
▁floor	-9.26199
▁providing	-9.26223
▁thanks	-9.26372
▁test	-9.26407
▁industrial	-9.26436
os	-9.26474
▁prepared	-9.26485
▁sustainable	-9.26491
▁Madam	-9.26654
▁:	-9.26659
▁Article	-9.26681
▁When	-9.26768
ra	-9.26913
▁land	-9.27001
▁"""	-9.27138
▁commercial	-9.27152
▁protect	-9.27184
▁materials	-9.27184
▁decided	-9.27193
▁popular	-9.27241
▁summer	-9.27252
▁note	-9.27291
▁easily	-9.27425
▁capacity	-9.27427
▁atmosphere	-9.27687
▁submitted	-9.27691
▁civil	-9.27722
▁search	-9.27724
▁increasing	-9.27962
▁cause	-9.28152
▁video	-9.28154
co	-9.28246
▁construction	-9.2843
▁Spain	-9.28435
▁accommodation	-9.28443
▁table	-9.28469
▁How	-9.28601
▁balance	-9.28604
▁Convention	-9.28709
▁coming	-9.28712
▁billion	-9.28867
▁supply	-9.29025
▁priority	-9.29031
▁leave	-9.29043
W	-9.29103
▁don	-9.29182
▁consumer	-9.29262
▁UN	-9.29401
▁style	-9.29515
▁movement	-9.29788
▁funding	-9.30085
▁remains	-9.30131
▁Bank	-9.30207
R	-9.30289
▁details	-9.3029
▁island	-9.30378
▁post	-9.30507
▁property	-9.30741
▁13	-9.30793
▁assistance	-9.30937
▁closed	-9.31006
ment	-9.3116
▁Central	-9.31224
▁rule	-9.3124
▁Italy	-9.31349
▁actions	-9.31436
▁December	-9.31493
▁similar	-9.31673
▁limited	-9.31928
▁purpose	-9.31935
▁age	-9.31977
о	-9.32009
▁100	-9.32046
▁As	-9.32128
▁September	-9.32266
▁independent	-9.32384
▁brought	-9.32454
▁document	-9.32526
▁charge	-9.32534
▁cross	-9.32576
▁former	-9.32666
▁Do	-9.32767
▁supported	-9.32789
▁size	-9.3279
4	-9.328
From	-9.32821
▁Africa	-9.32827
|	-9.33016
By	-9.33037
V	-9.33114
▁gives	-9.33114
▁creating	-9.33185
▁discussion	-9.33193
▁March	-9.33316
v	-9.33358
▁24	-9.3338
▁Italian	-9.33543
▁pleased	-9.33876
▁Republic	-9.34003
▁credit	-9.34011
▁W	-9.34049
▁regulations	-9.34093
▁message	-9.34131
▁relevant	-9.34146
▁clean	-9.3429
me	-9.34504
▁De	-9.34587
▁produced	-9.34824
▁sites	-9.34844
▁became	-9.34961
▁item	-9.3526
▁forms	-9.35293
▁largest	-9.35399
▁variety	-9.35402
▁conference	-9.35446
▁bus	-9.3547
▁stability	-9.35501
▁six	-9.35502
▁nice	-9.35505
▁relation	-9.35651
▁instead	-9.35686
▁produce	-9.35959
Since	-9.36174
▁On	-9.36205
▁press	-9.36224
▁compromise	-9.3638
▁concept	-9.36469
▁task	-9.36588
▁tell	-9.36592
▁contribution	-9.36684
▁school	-9.3675
▁con	-9.36767
▁source	-9.36802
▁fishing	-9.36948
▁anti	-9.37027
▁damage	-9.37063
▁effort	-9.3708
▁January	-9.37083
▁draft	-9.37119
ca	-9.37183
▁interesting	-9.37203
▁activity	-9.37301
▁)	-9.37398
DE	-9.37444
▁partner	-9.37497
▁medium	-9.37517
▁safe	-9.37537
▁..."	-9.37579
▁allowed	-9.37583
▁started	-9.37723
▁study	-9.37816
▁der	-9.38013
la	-9.38028
▁places	-9.38046
w	-9.38088
▁die	-9.38181
▁labour	-9.38186
▁2007	-9.38339
▁distribution	-9.38401
▁status	-9.38427
ry	-9.38564
▁procedures	-9.38611
▁avoid	-9.38632
▁regards	-9.387
j	-9.38724
▁tool	-9.38768
▁October	-9.38771
L	-9.38773
▁provisions	-9.38922
▁wine	-9.38966
▁hotels	-9.39037
▁Minister	-9.39183
▁code	-9.3932
▁British	-9.3934
▁equal	-9.39359
▁statement	-9.39363
▁criteria	-9.39431
▁ourselves	-9.39763
▁express	-9.39856
▁agenda	-9.39866
▁b	-9.39886
▁click	-9.3991
▁instruments	-9.39976
▁steps	-9.39987
▁word	-9.40003
▁giving	-9.40252
▁apartment	-9.4054
▁violence	-9.40648
▁written	-9.40651
rs	-9.40684
▁structure	-9.40701
▁nor	-9.40772
▁North	-9.40823
▁Bar	-9.40871
▁village	-9.41096
▁del	-9.41115
▁option	-9.41129
▁require	-9.41133
▁reading	-9.41242
▁ten	-9.413
▁link	-9.41549
▁finally	-9.41568
▁extra	-9.41822
▁ground	-9.41887
▁National	-9.4207
▁San	-9.42136
▁historical	-9.42224
▁documents	-9.42237
▁draw	-9.4227
▁Service	-9.42278
land	-9.42387
&	-9.42528
▁transparency	-9.4271
▁airport	-9.42711
▁stand	-9.42714
mail	-9.42735
▁Rights	-9.42772
▁Spanish	-9.42796
ro	-9.42854
da	-9.43011
▁benefits	-9.43052
▁restaurants	-9.4306
▁efficient	-9.43188
▁immediately	-9.43292
▁section	-9.43476
▁distance	-9.43486
▁highest	-9.43527
▁base	-9.43541
▁build	-9.43646
▁death	-9.43847
▁employees	-9.43946
▁integrated	-9.43999
▁19	-9.44044
▁elements	-9.44126
▁numerous	-9.44226
▁applied	-9.4441
▁operation	-9.44504
▁review	-9.44669
▁poverty	-9.44711
▁gas	-9.44723
▁elections	-9.44835
▁reality	-9.44866
▁payment	-9.44871
▁Le	-9.44893
▁July	-9.44924
▁drive	-9.44933
▁conflict	-9.45035
▁types	-9.45141
ce	-9.45273
▁solidarity	-9.45359
▁processes	-9.45361
▁saying	-9.4542
▁challenges	-9.45478
▁consequences	-9.45481
▁X	-9.45558
▁download	-9.45563
▁quiet	-9.45677
▁legislative	-9.4571
▁Party	-9.45788
▁talk	-9.45788
▁digital	-9.45852
▁Directive	-9.45924
ni	-9.45973
▁film	-9.45978
▁transfer	-9.46256
Therefore	-9.46499
▁led	-9.46506
ma	-9.46533
▁waste	-9.46555
▁daily	-9.46565
▁beyond	-9.46624
ge	-9.46634
▁enter	-9.46785
▁board	-9.46791
▁analysis	-9.46804
▁2000	-9.47051
▁ways	-9.47061
▁carry	-9.47362
▁official	-9.47434
▁colleagues	-9.47436
▁offering	-9.47445
▁reference	-9.47516
▁November	-9.47588
▁practical	-9.47599
▁congratulate	-9.47692
▁useful	-9.47785
▁bed	-9.47886
▁tools	-9.4808
▁mountain	-9.48173
▁c	-9.48185
▁goes	-9.48242
▁J	-9.48243
▁expect	-9.48306
ten	-9.4838
▁friends	-9.48535
▁paid	-9.48708
▁Mediterranean	-9.48723
▁mobile	-9.48887
▁late	-9.48978
▁speed	-9.49122
]	-9.49166
▁tomorrow	-9.49213
X	-9.49233
▁crucial	-9.49345
▁park	-9.49389
▁sent	-9.4947
▁requires	-9.49545
▁instrument	-9.49581
▁offered	-9.49597
ka	-9.49684
be	-9.49698
▁apartments	-9.49756
▁implemented	-9.49798
▁persons	-9.49913
▁happy	-9.49916
▁organisations	-9.49957
se	-9.49994
▁000	-9.50004
▁implement	-9.50048
▁learn	-9.50107
▁relating	-9.50235
▁reduction	-9.50326
▁minimum	-9.50347
▁begin	-9.50417
5	-9.50518
▁Park	-9.50697
▁machine	-9.50697
▁ideas	-9.50756
Office	-9.50806
▁Development	-9.50854
based	-9.50854
▁forces	-9.50905
▁monitoring	-9.51112
ling	-9.51137
▁comprehensive	-9.51206
▁head	-9.51326
▁efficiency	-9.51579
▁published	-9.51583
do	-9.51586
▁method	-9.51597
▁21	-9.5166
▁caused	-9.51668
▁adopt	-9.51729
▁growing	-9.51759
▁starting	-9.51807
▁operating	-9.51821
▁historic	-9.51842
▁accordance	-9.51902
▁Windows	-9.51941
▁establish	-9.51985
▁thought	-9.52064
▁train	-9.52093
▁weeks	-9.52289
▁challenge	-9.5234
▁links	-9.52372
One	-9.52493
▁April	-9.52684
▁My	-9.52774
▁join	-9.52788
▁mention	-9.52793
▁sales	-9.52945
▁extent	-9.52988
li	-9.5304
▁pass	-9.53043
▁maximum	-9.5314
N	-9.53399
▁morning	-9.53491
▁Web	-9.53492
▁server	-9.53582
▁rich	-9.53582
▁selection	-9.53604
▁terrorism	-9.5368
▁clients	-9.53745
▁lives	-9.53759
▁farmers	-9.53863
▁technologies	-9.53905
▁poor	-9.53922
▁sometimes	-9.53964
▁child	-9.54046
▁secure	-9.54183
▁ready	-9.54191
▁anything	-9.54408
▁lower	-9.54409
▁doubt	-9.54453
▁voting	-9.54476
▁lines	-9.54599
▁worldwide	-9.54646
age	-9.54926
▁probably	-9.55094
▁Euro	-9.55114
▁chance	-9.55176
▁advantage	-9.55244
▁innovative	-9.55429
▁parking	-9.55432
▁War	-9.55542
▁scientific	-9.55544
ir	-9.55563
▁[	-9.55673
▁options	-9.55674
▁With	-9.55678
▁got	-9.557
▁garden	-9.55713
▁interested	-9.5574
▁Fund	-9.55755
▁Amendment	-9.55778
Y	-9.55881
▁influence	-9.55976
▁players	-9.55997
▁methods	-9.55998
▁fine	-9.56017
е	-9.56067
▁round	-9.56106
ian	-9.56158
▁cut	-9.56337
▁release	-9.56482
▁businesses	-9.56659
▁Western	-9.56806
▁accepted	-9.57268
▁green	-9.57296
▁%	-9.57385
▁contract	-9.57473
▁bathroom	-9.57559
▁Israel	-9.5763
▁despite	-9.57694
Although	-9.57714
▁raised	-9.57827
▁shopping	-9.57884
▁Be	-9.57903
per	-9.58019
▁sports	-9.58085
▁hold	-9.58142
▁languages	-9.5822
et	-9.58233
▁photo	-9.58289
▁fast	-9.58309
▁swimming	-9.58346
▁2006	-9.58395
less	-9.58411
▁bit	-9.58433
▁street	-9.58518
Furthermore	-9.588
▁visitors	-9.58833
▁love	-9.58848
▁sectors	-9.58874
▁se	-9.58958
▁absolutely	-9.59047
▁wanted	-9.59148
▁comfort	-9.59155
▁trying	-9.59186
▁innovation	-9.59258
Secondly	-9.59349
▁lost	-9.59382
▁namely	-9.59415
▁y	-9.596
▁correct	-9.59675
▁maintain	-9.59689
▁Conference	-9.59717
▁Austria	-9.59741
▁strategic	-9.59759
▁email	-9.59783
▁border	-9.59853
lo	-9.59969
▁West	-9.60125
"",	-9.60201
▁accession	-9.60274
▁borders	-9.60369
▁Paris	-9.60423
▁Co	-9.60531
▁leaders	-9.60581
▁relationship	-9.60605
ur	-9.6079
▁demands	-9.60871
▁overall	-9.60871
▁Ireland	-9.60936
▁alternative	-9.60987
one	-9.61001
▁illegal	-9.61043
▁annual	-9.61103
▁Chinese	-9.61197
▁representatives	-9.6124
▁powers	-9.61343
time	-9.6148
Of	-9.61513
▁class	-9.61626
▁40	-9.61786
▁expressed	-9.61788
▁changed	-9.6182
▁menu	-9.61949
▁intended	-9.62066
▁images	-9.62073
ant	-9.62087
um	-9.62144
▁opening	-9.62242
а	-9.62373
▁Z	-9.6239
▁regime	-9.6241
▁target	-9.62417
▁yourself	-9.62506
▁cover	-9.6251
▁Let	-9.62521
7	-9.62535
▁games	-9.62594
▁committed	-9.62616
▁processing	-9.62744
▁initiatives	-9.62794
▁heard	-9.62879
▁goal	-9.62958
▁proper	-9.63029
▁stress	-9.63155
▁pro	-9.63242
▁Centre	-9.6325
▁fields	-9.63348
▁traffic	-9.6336
▁cities	-9.63424
▁vital	-9.63464
▁Russian	-9.63655
star	-9.63713
▁met	-9.63721
▁terrace	-9.63793
▁month	-9.6381
▁banks	-9.6384
▁City	-9.63892
▁talking	-9.63992
▁worked	-9.64031
ter	-9.64066
▁conclusion	-9.6407
un	-9.64087
▁cohesion	-9.64125
▁ability	-9.64289
▁separate	-9.64305
of	-9.64394
▁decide	-9.6447
▁alone	-9.6455
▁player	-9.64562
▁mainly	-9.64656
▁fish	-9.64658
▁structural	-9.6479
▁justice	-9.64799
▁tourist	-9.64935
▁calls	-9.6496
am	-9.65003
▁0	-9.65004
out	-9.65032
▁approved	-9.65116
▁path	-9.65257
▁increasingly	-9.65388
▁feature	-9.65407
▁improved	-9.65416
▁plans	-9.65417
▁families	-9.65479
▁planning	-9.65498
▁whom	-9.65586
▁running	-9.65601
▁affected	-9.65641
▁circumstances	-9.65704
▁phone	-9.65723
▁evening	-9.65794
▁sign	-9.65833
▁placed	-9.65864
▁rise	-9.65935
▁currency	-9.65948
▁contribute	-9.6595
▁Sea	-9.66025
▁administration	-9.66138
▁fun	-9.66315
▁des	-9.66405
▁ski	-9.66427
▁infrastructure	-9.66481
▁University	-9.66482
▁walking	-9.66528
▁priorities	-9.66553
▁police	-9.66651
▁Agreement	-9.66837
Z	-9.66885
▁reduced	-9.66886
ized	-9.66949
▁GmbH	-9.67017
▁unemployment	-9.67035
▁confidence	-9.67092
▁automatically	-9.67134
Moreover	-9.67154
▁manner	-9.67165
▁encourage	-9.67279
▁comments	-9.67284
▁fall	-9.67306
While	-9.67311
▁collection	-9.67322
▁reforms	-9.67334
▁south	-9.67364
▁suitable	-9.67392
▁delivery	-9.67471
▁scope	-9.67472
▁began	-9.67483
go	-9.67486
▁sun	-9.67498
▁sitting	-9.67513
▁ensuring	-9.67741
▁participation	-9.67918
▁exist	-9.67918
▁electronic	-9.67978
▁crime	-9.67987
▁fellow	-9.68081
▁powerful	-9.68111
ton	-9.68299
▁emissions	-9.6833
▁London	-9.68354
▁Iraq	-9.68429
▁Nations	-9.68576
▁victims	-9.68716
é	-9.68745
ization	-9.68809
▁specifically	-9.68965
▁extensive	-9.69159
▁wrong	-9.69209
▁white	-9.69217
▁que	-9.6922
▁tabled	-9.694
ise	-9.69434
▁students	-9.69569
▁agriculture	-9.69643
▁appear	-9.69646
▁competitive	-9.69731
▁23	-9.69842
▁multi	-9.7002
▁limit	-9.70035
▁played	-9.70038
▁else	-9.70138
▁introduced	-9.70205
8	-9.70209
▁Public	-9.70435
▁General	-9.70473
ary	-9.70521
▁discuss	-9.70557
▁effectively	-9.7057
▁port	-9.70586
▁August	-9.70592
▁motion	-9.70621
▁helpful	-9.70636
▁aimed	-9.70779
isation	-9.70787
called	-9.70857
▁partnership	-9.70986
▁spend	-9.71024
▁referred	-9.71063
Re	-9.71064
▁detailed	-9.71081
▁installation	-9.71145
▁God	-9.71323
▁record	-9.71337
▁larger	-9.71362
▁El	-9.71501
▁news	-9.7154
▁serve	-9.7155
▁o	-9.71684
ke	-9.71726
▁usually	-9.71857
▁precisely	-9.71946
▁purposes	-9.72078
An	-9.72112
▁represent	-9.72239
▁animals	-9.72242
▁rural	-9.72271
▁bank	-9.7231
▁budgetary	-9.72487
▁becoming	-9.72538
▁telephone	-9.72694
▁protected	-9.72773
▁kitchen	-9.72783
▁exactly	-9.72795
▁sources	-9.72852
▁discussed	-9.72971
▁served	-9.72979
▁measure	-9.73024
▁stated	-9.73052
▁regular	-9.7307
ie	-9.73088
nd	-9.73098
ber	-9.73314
▁camera	-9.73322
▁getting	-9.73343
▁client	-9.73542
▁2005	-9.73583
▁II	-9.73588
▁assessment	-9.7359
ty	-9.73646
▁select	-9.73758
▁won	-9.73789
▁broad	-9.73801
▁otherwise	-9.73825
▁l	-9.73859
ner	-9.73866
▁represents	-9.73968
categories	-9.74002
▁lies	-9.74082
▁plant	-9.74184
▁introduction	-9.74327
▁UK	-9.74349
▁administrative	-9.74359
im	-9.74378
▁hear	-9.74435
line	-9.74502
▁functions	-9.74503
▁Security	-9.74537
▁strengthen	-9.7454
▁refer	-9.74879
▁likely	-9.74885
6	-9.7489
▁managed	-9.75004
▁AG	-9.75007
▁loss	-9.75052
▁remember	-9.75089
▁risks	-9.75094
▁thousands	-9.75097
▁warm	-9.75117
▁guidelines	-9.75123
▁critical	-9.75191
▁medical	-9.75355
▁closely	-9.7537
▁covered	-9.75409
▁buy	-9.75454
▁discussions	-9.75461
▁followed	-9.75462
▁happen	-9.75505
▁provision	-9.75515
▁laws	-9.75548
Today	-9.75551
▁earlier	-9.75576
▁fresh	-9.75612
▁save	-9.75767
est	-9.7578
▁22	-9.75825
▁wonderful	-9.75888
▁entry	-9.75929
▁Here	-9.76021
▁worth	-9.76096
Indeed	-9.76147
▁selected	-9.76154
▁winter	-9.76155
▁enterprises	-9.76241
▁season	-9.76245
▁€	-9.763
▁Middle	-9.7648
My	-9.76507
▁Japan	-9.76582
▁listed	-9.76607
ti	-9.7674
▁spirit	-9.76855
▁improving	-9.76961
▁2004	-9.76983
▁Asia	-9.77051
▁prior	-9.77129
▁Mar	-9.77133
European	-9.77211
▁immigration	-9.7723
▁says	-9.77261
▁understanding	-9.77365
▁linked	-9.7737
▁character	-9.77407
▁degree	-9.77426
▁metres	-9.77543
▁actual	-9.77603
▁Your	-9.77678
▁combat	-9.77681
▁track	-9.77704
▁speech	-9.77732
▁expected	-9.77792
и	-9.77813
▁1999	-9.77816
▁institutional	-9.7787
▁India	-9.77965
ci	-9.77966
▁Policy	-9.78023
▁considerable	-9.78107
by	-9.7811
▁February	-9.78121
▁programs	-9.78142
▁el	-9.78303
▁inside	-9.78428
▁sufficient	-9.78527
▁tour	-9.78846
▁Czech	-9.78874
▁supporting	-9.78922
▁presence	-9.78953
▁Pro	-9.78992
▁exclusive	-9.79038
▁bad	-9.79043
▁trust	-9.79123
▁tourism	-9.79142
▁paper	-9.79235
▁opened	-9.79249
▁operations	-9.79326
ad	-9.79359
sa	-9.79431
mo	-9.7945
Dur	-9.7955
▁purchase	-9.79617
▁200	-9.79638
▁fisheries	-9.79654
▁criminal	-9.79706
▁animal	-9.79711
▁suggest	-9.79716
▁networks	-9.79775
▁Some	-9.79853
▁seem	-9.79964
▁normal	-9.80028
▁coordination	-9.80193
ate	-9.80218
▁inform	-9.80272
▁debt	-9.80303
▁Free	-9.80354
▁summit	-9.80399
▁map	-9.80476
▁hot	-9.80486
▁components	-9.80501
▁Greece	-9.80529
▁properly	-9.80542
▁dealing	-9.80678
▁relate	-9.80735
▁competitiveness	-9.80803
▁presidency	-9.80803
▁entirely	-9.80841
▁duty	-9.80899
▁Al	-9.809
▁buildings	-9.80924
▁founded	-9.80962
▁authority	-9.8098
▁origin	-9.81066
▁People	-9.81074
▁average	-9.81115
▁gave	-9.81164
▁difficulties	-9.81238
▁experts	-9.81272
First	-9.81488
▁brand	-9.81651
▁organisation	-9.81707
▁supports	-9.81916
▁typical	-9.82046
▁27	-9.82067
▁domestic	-9.82165
▁Can	-9.82229
▁went	-9.82273
▁generally	-9.82274
▁marketing	-9.82391
▁consideration	-9.82449
No	-9.82521
▁north	-9.82582
▁playing	-9.82591
il	-9.82642
▁Iran	-9.82816
▁Barcelona	-9.82856
▁Switzerland	-9.82901
▁income	-9.82952
▁Social	-9.82954
▁plants	-9.83197
ive	-9.83275
ine	-9.8338
▁detail	-9.83408
▁defence	-9.83431
▁estate	-9.8345
▁picture	-9.83451
Even	-9.83551
▁developments	-9.83585
▁pleasant	-9.83613
▁applies	-9.83617
▁red	-9.83637
▁attempt	-9.8365
▁items	-9.83698
▁facing	-9.83717
▁wants	-9.83808
▁stock	-9.83819
▁vehicles	-9.84162
▁spacious	-9.84193
▁tradition	-9.84262
di	-9.84289
▁dis	-9.84319
▁From	-9.84322
▁resort	-9.84336
▁display	-9.84371
▁Economic	-9.84389
▁architecture	-9.8441
▁modified	-9.84472
á	-9.84598
▁forget	-9.84612
for	-9.84622
▁aspect	-9.84793
▁thinking	-9.84799
ak	-9.84891
▁flexibility	-9.8493
▁firm	-9.84947
▁peaceful	-9.84956
▁bodies	-9.84959
sized	-9.85001
▁Brussels	-9.85048
▁voice	-9.85145
day	-9.85174
▁establishment	-9.85184
30	-9.8521
▁speaking	-9.85293
U	-9.85413
▁al	-9.85423
▁district	-9.85494
▁Swiss	-9.85505
▁le	-9.85517
▁fund	-9.85524
▁machines	-9.85565
▁Poland	-9.85575
▁fixed	-9.85646
▁Human	-9.85769
▁evidence	-9.85835
▁failure	-9.85855
making	-9.85856
▁himself	-9.85999
▁reception	-9.86064
▁du	-9.86139
▁sport	-9.8622
▁flexible	-9.86246
▁spa	-9.86391
▁defined	-9.86452
▁promoting	-9.86519
▁Airport	-9.86533
▁High	-9.86573
▁black	-9.86612
▁adoption	-9.86635
▁financing	-9.86668
▁et	-9.86668
▁parliamentary	-9.8668
▁cuisine	-9.86704
ri	-9.86776
Here	-9.86805
▁easier	-9.86881
▁participate	-9.86893
▁politics	-9.86899
▁threat	-9.86899
▁myself	-9.87011
▁campaign	-9.87105
▁hour	-9.87141
▁seriously	-9.87384
▁signed	-9.87561
▁advanced	-9.8757
▁opposition	-9.87595
▁break	-9.87617
▁database	-9.8762
▁informed	-9.87668
▁instance	-9.87674
▁color	-9.87682
▁meetings	-9.87696
den	-9.87835
▁star	-9.87866
▁concrete	-9.87909
▁60	-9.87955
▁Dr	-9.87975
▁aims	-9.87999
▁propose	-9.88018
▁respond	-9.88082
gen	-9.88094
Now	-9.88125
▁Amsterdam	-9.8813
▁obtain	-9.88168
ally	-9.88211
▁practices	-9.88234
▁dangerous	-9.88246
▁translation	-9.88282
▁difference	-9.88339
▁ancient	-9.88356
▁experienced	-9.88492
▁middle	-9.8851
▁Green	-9.88624
▁told	-9.88688
▁shops	-9.8875
▁beds	-9.88769
▁associated	-9.88859
free	-9.88977
▁humanitarian	-9.89061
▁implementing	-9.8913
▁combination	-9.8925
▁television	-9.8928
▁Kingdom	-9.89281
▁element	-9.89301
▁relax	-9.89318
▁connected	-9.89329
▁comment	-9.89395
▁differences	-9.89407
▁happened	-9.89418
▁York	-9.89477
▁exhibition	-9.89567
▁inter	-9.89626
▁After	-9.89658
▁hands	-9.89728
year	-9.89812
▁trip	-9.89843
▁initial	-9.90012
▁carefully	-9.90036
▁reducing	-9.90072
▁arrival	-9.90103
ies	-9.90135
▁becomes	-9.90142
▁anyone	-9.90168
▁studies	-9.90195
▁screen	-9.90209
ek	-9.90262
▁fear	-9.9035
▁attractive	-9.90399
▁structures	-9.90409
▁agencies	-9.90409
io	-9.90526
▁article	-9.90581
▁appears	-9.90628
▁producers	-9.90635
▁recognition	-9.90647
▁leader	-9.90686
▁Con	-9.90744
▁bear	-9.90753
10	-9.90798
J	-9.90809
▁seek	-9.90891
▁genuine	-9.90918
ous	-9.90935
▁shower	-9.91008
▁scale	-9.91051
▁Car	-9.91126
▁Or	-9.9113
▁impossible	-9.91149
▁immediate	-9.91273
▁Board	-9.91276
▁African	-9.913
▁negative	-9.91348
▁discrimination	-9.91365
▁improvement	-9.91397
▁stable	-9.91436
▁truly	-9.91477
▁format	-9.91516
▁calling	-9.91567
▁beaches	-9.91634
▁described	-9.91649
▁coffee	-9.91654
▁coast	-9.91731
ja	-9.91907
▁statements	-9.91931
ga	-9.91971
▁monetary	-9.91998
▁announced	-9.92043
▁spent	-9.92051
▁advance	-9.9207
▁CD	-9.92161
▁territory	-9.9219
net	-9.92264
▁desire	-9.92287
▁possibilities	-9.92503
▁USA	-9.92505
20	-9.92519
▁models	-9.92533
▁Museum	-9.92547
end	-9.92559
▁introduce	-9.92564
▁membership	-9.92606
▁2003	-9.9261
men	-9.9263
▁Justice	-9.92645
▁wishes	-9.92679
je	-9.92747
▁consumption	-9.92763
▁signal	-9.92965
▁unacceptable	-9.92974
▁ahead	-9.92994
Some	-9.93041
▁houses	-9.93071
▁shared	-9.93091
▁raise	-9.93098
▁availability	-9.93146
IT	-9.93218
▁released	-9.93356
▁generation	-9.93483
▁500	-9.93485
▁guarantees	-9.93701
▁reasonable	-9.93762
▁continued	-9.93782
▁Greek	-9.93861
▁ban	-9.93896
▁Debian	-9.94205
we	-9.94299
▁Click	-9.94306
▁elegant	-9.94372
▁box	-9.94372
▁weight	-9.94403
▁Go	-9.94416
▁Democrats	-9.94422
▁sort	-9.94429
▁greatest	-9.94547
▁river	-9.94651
▁figures	-9.9468
▁trading	-9.94693
▁unfortunately	-9.94696
▁contain	-9.94753
▁strongly	-9.94779
▁combined	-9.94793
▁surface	-9.94859
▁entitled	-9.9487
▁surrounding	-9.94894
▁Mo	-9.94919
▁charged	-9.9493
▁insurance	-9.94993
see	-9.95156
▁deep	-9.95183
▁manage	-9.95261
▁allowing	-9.95317
▁economies	-9.95364
▁positions	-9.95366
▁exercise	-9.95426
▁numbers	-9.95436
▁recommend	-9.95481
▁religious	-9.95485
▁mass	-9.95527
▁completed	-9.9555
▁IT	-9.9575
▁unless	-9.95811
▁Sa	-9.95832
Let	-9.9588
ting	-9.96039
▁court	-9.96066
em	-9.9607
▁Rooms	-9.96076
▁skills	-9.96079
▁tasks	-9.9609
ance	-9.96201
▁perspective	-9.96238
▁mission	-9.96241
▁union	-9.96294
▁closer	-9.96387
ated	-9.96387
▁devices	-9.96434
▁asylum	-9.96515
▁Irish	-9.96578
he	-9.96601
▁pictures	-9.96682
▁foot	-9.96783
▁enormous	-9.96879
▁beauty	-9.96908
▁Me	-9.97008
▁expenditure	-9.97055
▁sale	-9.97056
▁export	-9.97068
der	-9.97089
▁Now	-9.97105
▁square	-9.97136
▁counter	-9.97143
▁booking	-9.97285
▁Turkish	-9.97371
▁permanent	-9.97382
▁born	-9.97399
▁nearby	-9.97516
▁dedicated	-9.97605
▁registered	-9.97645
▁gain	-9.97746
▁enables	-9.97766
▁cards	-9.97782
▁ones	-9.97881
▁unto	-9.97927
▁button	-9.97948
▁establishing	-9.9819
9	-9.9823
▁uses	-9.98257
▁shop	-9.98318
▁meters	-9.98329
▁reliable	-9.98492
▁urgent	-9.98504
▁race	-9.98528
▁convinced	-9.98536
bar	-9.98612
▁advertising	-9.98625
▁platform	-9.98646
nt	-9.98659
▁fire	-9.98664
▁forced	-9.98706
▁object	-9.98746
les	-9.98831
▁Regulation	-9.98848
▁packages	-9.98899
▁relaxing	-9.98934
▁door	-9.98975
▁totally	-9.98995
▁railway	-9.99016
▁''	-9.9904
▁installed	-9.99129
▁Research	-9.99135
▁valid	-9.99142
▁core	-9.99143
▁granted	-9.99144
▁da	-9.99151
▁disease	-9.99177
▁Kosovo	-9.9921
▁advice	-9.99211
▁device	-9.99218
▁continues	-9.99276
▁claims	-9.99292
▁condition	-9.99309
▁storage	-9.99311
▁WTO	-9.99413
▁institution	-9.99416
▁unit	-9.99508
▁failed	-9.99514
▁names	-9.99522
▁remind	-9.99576
▁discover	-9.99622
▁deliver	-9.99708
▁spending	-9.99772
▁cars	-9.99857
Firstly	-9.99947
▁finance	-9.99959
▁session	-9.99965
ex	-9.99985
▁extended	-9.99985
▁reservation	-9.99999
▁contrary	-10.001
va	-10.0014
▁kept	-10.0015
▁attack	-10.0017
▁passed	-10.0019
▁compared	-10.002
ung	-10.003
▁Health	-10.0035
▁science	-10.0037
Unfortunately	-10.0042
▁bath	-10.0042
▁Guest	-10.0048
▁candidate	-10.0053
▁biggest	-10.0056
▁Services	-10.0057
con	-10.0057
▁claim	-10.0076
▁unable	-10.0077
▁corporate	-10.0085
ba	-10.0085
▁window	-10.0093
▁saw	-10.0094
▁conclusions	-10.01
▁expression	-10.0102
▁holidays	-10.0103
▁outcome	-10.0104
ul	-10.0104
▁g	-10.0106
▁drawn	-10.0109
▁learning	-10.011
▁memory	-10.0119
▁PC	-10.0125
▁attractions	-10.013
▁church	-10.0134
▁moving	-10.0136
▁Netherlands	-10.014
▁story	-10.0142
▁Prime	-10.0149
▁intervention	-10.0152
▁weapons	-10.0152
▁Ukraine	-10.0153
▁factors	-10.0171
▁stands	-10.0174
▁laid	-10.0176
▁courses	-10.0177
▁honourable	-10.0185
▁Room	-10.0204
TM	-10.0215
▁promotion	-10.0215
▁neither	-10.0215
po	-10.0226
▁chosen	-10.0227
▁colleague	-10.023
tic	-10.0231
▁maintenance	-10.0231
▁Lake	-10.0234
▁achieving	-10.0238
▁fiscal	-10.0239
▁Constitution	-10.024
▁notice	-10.024
▁definition	-10.0242
▁background	-10.0245
▁von	-10.0245
▁rightly	-10.025
▁election	-10.0255
▁paragraph	-10.0258
▁Trade	-10.0261
▁tried	-10.0262
▁interface	-10.0268
▁ambitious	-10.0272
▁radio	-10.0279
▁www	-10.0283
▁transparent	-10.0288
▁Red	-10.0292
▁pleasure	-10.0295
▁sensitive	-10.0296
art	-10.0299
▁votes	-10.0304
▁perfectly	-10.0305
▁guide	-10.0306
▁Art	-10.0315
▁300	-10.0317
▁install	-10.0335
▁sides	-10.0336
▁individuals	-10.0343
▁Austrian	-10.0346
▁vehicle	-10.0352
▁artists	-10.0355
▁obligations	-10.0359
▁remove	-10.0362
▁route	-10.0364
▁obviously	-10.0367
ina	-10.0368
▁She	-10.0372
▁agency	-10.0372
▁Man	-10.0386
▁Na	-10.0389
▁constantly	-10.0389
▁buffet	-10.0395
▁Eastern	-10.04
ver	-10.0401
▁continuing	-10.0402
▁Association	-10.0405
▁commitments	-10.0405
▁+	-10.0415
▁wood	-10.042
▁elected	-10.0421
▁mountains	-10.0422
▁Why	-10.0428
▁equality	-10.0428
▁n	-10.043
Booking	-10.0431
▁organised	-10.0431
According	-10.0445
▁yesterday	-10.0446
▁luxury	-10.0447
▁Foreign	-10.0455
▁organization	-10.0461
▁extend	-10.0461
▁update	-10.0469
▁outstanding	-10.0473
▁host	-10.0474
▁Portugal	-10.0474
▁aircraft	-10.0474
▁Vienna	-10.0475
rd	-10.0489
▁conduct	-10.0514
FR	-10.0515
▁Many	-10.0521
▁Wi	-10.0528
▁successfully	-10.0535
▁Center	-10.0536
▁engine	-10.0538
▁Star	-10.0543
▁monitor	-10.055
▁registration	-10.0561
▁flight	-10.0565
▁Palestinian	-10.0568
ster	-10.0571
▁limits	-10.0578
ent	-10.0582
▁independence	-10.0588
son	-10.0596
ted	-10.0598
so	-10.0609
▁urge	-10.0609
▁Business	-10.0621
▁THE	-10.0622
▁title	-10.0622
▁balanced	-10.0627
▁merely	-10.063
▁factor	-10.0633
▁System	-10.0634
▁landscape	-10.0635
▁mechanism	-10.0636
▁asking	-10.064
▁prepare	-10.0641
▁surrounded	-10.0641
▁payments	-10.0642
▁ship	-10.0643
▁Management	-10.0644
▁touch	-10.0645
▁rapid	-10.0645
▁controls	-10.0652
▁physical	-10.0654
▁species	-10.0655
í	-10.0674
▁dimension	-10.0676
▁Rome	-10.0682
▁meaning	-10.0684
▁recommendations	-10.0685
▁disposal	-10.0691
▁someone	-10.0694
tra	-10.0698
▁lake	-10.0699
▁seven	-10.0702
▁dynamic	-10.0714
▁obvious	-10.0723
▁regret	-10.0723
▁glass	-10.0727
▁prevention	-10.0735
▁contained	-10.0736
▁communities	-10.074
▁fuel	-10.074
▁skin	-10.0755
▁goals	-10.076
▁golf	-10.0762
▁accessible	-10.0769
ana	-10.077
▁changing	-10.077
▁Summit	-10.0774
▁rail	-10.0777
▁category	-10.0779
▁2002	-10.078
▁com	-10.0782
▁conclude	-10.0783
▁operate	-10.0789
▁consists	-10.0793
▁approximately	-10.0799
▁putting	-10.0811
▁vision	-10.0811
mer	-10.0814
▁phase	-10.0816
quality	-10.083
▁targets	-10.0838
responsibilities	-10.0842
▁spread	-10.0847
EC	-10.0848
...""	-10.085
▁Club	-10.0853
▁store	-10.0856
▁participants	-10.0862
▁bringing	-10.0865
▁steel	-10.0866
▁Latin	-10.0875
▁strengthening	-10.0879
“	-10.0879
▁planned	-10.0881
▁Grand	-10.0886
▁guaranteed	-10.0889
▁explain	-10.0898
▁Villa	-10.0909
▁pointed	-10.0911
▁waiting	-10.0911
▁Office	-10.0918
▁capable	-10.0924
▁substantial	-10.0931
▁resulting	-10.0935
▁minute	-10.0935
▁mid	-10.0941
▁smaller	-10.0946
''	-10.095
▁representative	-10.0951
▁28	-10.0959
▁Agency	-10.0962
Nevertheless	-10.0963
▁acts	-10.0977
ised	-10.0982
ful	-10.0983
▁acceptable	-10.0988
Once	-10.0994
▁association	-10.1008
▁club	-10.1009
tro	-10.1016
▁fruit	-10.1016
▁seeking	-10.1029
ler	-10.103
▁contents	-10.103
▁manufacturing	-10.1032
▁command	-10.1036
▁write	-10.1046
▁letter	-10.1048
▁contemporary	-10.1048
▁satellite	-10.1054
▁multiple	-10.1061
▁identity	-10.1061
Fi	-10.1064
▁te	-10.1065
▁Federal	-10.1067
led	-10.1067
ck	-10.1081
▁delay	-10.1089
ko	-10.1096
▁31	-10.1097
ze	-10.1097
ating	-10.1097
▁consensus	-10.1106
▁furnished	-10.1121
si	-10.1126
▁Market	-10.113
▁grounds	-10.115
▁affect	-10.1152
▁recovery	-10.1152
▁More	-10.1152
▁decades	-10.1156
▁nearly	-10.1165
▁Rules	-10.1166
▁thereby	-10.1167
▁zone	-10.1179
▁photos	-10.1179
▁causes	-10.118
▁southern	-10.1188
▁discussing	-10.1198
▁26	-10.1203
▁liability	-10.1205
▁truth	-10.1218
▁leads	-10.1223
▁2001	-10.1235
▁1997	-10.1239
▁Ar	-10.1243
▁addressed	-10.1245
▁den	-10.1245
▁adequate	-10.1248
id	-10.1257
▁industries	-10.126
her	-10.1262
mm	-10.1263
▁nations	-10.1266
▁primary	-10.1266
border	-10.1267
▁Only	-10.1276
▁governance	-10.1283
▁Lo	-10.1285
▁Environment	-10.129
▁$	-10.1295
▁primarily	-10.1297
▁driving	-10.1299
▁*	-10.1299
▁evaluation	-10.13
▁Linux	-10.1302
▁patients	-10.1307
▁attacks	-10.1307
ES	-10.1316
▁previously	-10.1317
▁""...	-10.1339
ities	-10.134
▁80	-10.1349
▁wait	-10.1366
▁forest	-10.1372
▁burden	-10.1382
▁win	-10.1388
ha	-10.1395
▁Sweden	-10.1398
bo	-10.1405
▁requested	-10.1413
ize	-10.1415
La	-10.142
▁mutual	-10.1426
▁determined	-10.1445
▁Chamber	-10.145
50	-10.1453
▁brings	-10.1455
▁copy	-10.1463
house	-10.1463
▁dealt	-10.1468
▁Information	-10.1469
▁consultation	-10.1475
40	-10.1475
▁testing	-10.1477
▁shape	-10.1478
▁renewable	-10.1479
▁Q	-10.1481
que	-10.1488
▁highlight	-10.1501
ists	-10.1502
▁opposite	-10.1507
▁reply	-10.151
▁situations	-10.1515
▁eye	-10.1518
▁amongst	-10.1518
▁mandate	-10.1519
▁diversity	-10.1521
▁Romania	-10.1537
▁delivered	-10.1539
▁net	-10.1543
▁default	-10.1544
Despite	-10.1548
▁discharge	-10.1548
▁appreciate	-10.1566
▁para	-10.1578
▁turned	-10.1584
▁named	-10.1588
▁stone	-10.1592
▁blue	-10.1594
▁plus	-10.1601
▁qualified	-10.1604
▁taste	-10.1609
▁watch	-10.1613
▁length	-10.1614
pa	-10.1615
▁technological	-10.1615
▁talks	-10.1617
▁Home	-10.1622
▁binding	-10.1632
▁resolve	-10.1633
Hotel	-10.1634
sch	-10.1635
▁Great	-10.1637
▁mechanisms	-10.1645
▁attitude	-10.165
▁leadership	-10.1651
▁reflect	-10.166
▁van	-10.1661
▁bars	-10.1663
+	-10.1666
▁schools	-10.1671
ure	-10.1686
▁existence	-10.1691
▁audio	-10.1692
▁wind	-10.1698
▁manufacturers	-10.1699
▁competence	-10.1705
▁Minutes	-10.1711
▁spaces	-10.1731
sh	-10.1735
▁register	-10.1738
▁feeling	-10.1738
PL	-10.174
use	-10.1746
▁By	-10.175
▁x	-10.1753
▁obligation	-10.1759
au	-10.1761
▁approval	-10.1761
▁recognise	-10.1765
▁urban	-10.1765
▁Dutch	-10.1771
▁kinds	-10.1774
▁im	-10.1775
▁constant	-10.1775
%	-10.1778
off	-10.1785
▁Programme	-10.1793
▁appeal	-10.1797
▁perform	-10.1797
Because	-10.1802
▁strength	-10.1803
▁significantly	-10.1808
▁Ver	-10.1819
▁compliance	-10.1822
▁compensation	-10.1826
▁residence	-10.1828
▁flat	-10.1832
▁fill	-10.1836
▁sold	-10.1836
▁intention	-10.1842
▁noise	-10.1843
za	-10.1843
▁eight	-10.1848
▁=	-10.1862
▁presentation	-10.1865
▁rejected	-10.1865
▁moved	-10.1869
▁expertise	-10.1883
tel	-10.1884
▁consistent	-10.1885
ts	-10.1887
Many	-10.1888
▁books	-10.1893
President	-10.1894
▁heavy	-10.1898
▁mode	-10.1899
▁solve	-10.1901
▁repeat	-10.1902
mann	-10.1903
▁launched	-10.1903
▁onto	-10.1913
▁t	-10.1916
▁versions	-10.1916
▁improvements	-10.1918
▁investments	-10.1935
▁helping	-10.1937
▁assist	-10.1938
▁sanctions	-10.1944
▁f	-10.1951
▁CO	-10.1957
▁treated	-10.1966
▁destination	-10.1974
▁piece	-10.1981
De	-10.1988
▁valuable	-10.201
▁emphasise	-10.2014
▁comply	-10.2018
▁extension	-10.2019
▁drugs	-10.2019
▁emphasis	-10.2019
ring	-10.202
▁speakers	-10.202
▁expensive	-10.2029
ino	-10.2029
▁author	-10.2031
▁represented	-10.2045
▁expectations	-10.2055
▁print	-10.2066
▁dishes	-10.2067
▁suffering	-10.2075
▁quick	-10.2081
▁delegation	-10.2092
way	-10.2095
▁examples	-10.2097
tal	-10.2098
▁convenient	-10.2119
▁output	-10.2119
istic	-10.2123
▁prefer	-10.2125
▁applicable	-10.2126
5-0	-10.2134
▁Ta	-10.2135
▁contrast	-10.2141
tre	-10.2143
▁figure	-10.2154
▁latter	-10.2155
▁Company	-10.2155
▁29	-10.2158
▁browser	-10.2158
▁charming	-10.2161
▁refugees	-10.2161
▁Ka	-10.2166
▁recommended	-10.217
▁Are	-10.2176
▁lose	-10.2176
▁substances	-10.2176
▁privacy	-10.2179
▁furniture	-10.2183
▁arms	-10.2183
▁danger	-10.2184
▁defend	-10.2186
▁units	-10.2191
▁wealth	-10.2203
▁taxes	-10.2204
▁relatively	-10.2205
▁fail	-10.2209
▁entered	-10.2221
▁disaster	-10.2221
▁affairs	-10.2222
ning	-10.2226
▁Spa	-10.2226
pe	-10.2227
▁operators	-10.2238
▁respective	-10.2239
▁creative	-10.2242
▁Air	-10.2242
▁Roman	-10.2243
▁older	-10.2257
▁Software	-10.2265
▁En	-10.2267
▁runs	-10.227
▁error	-10.2276
▁streets	-10.2277
▁Po	-10.2279
▁Microsoft	-10.228
00	-10.2281
▁micro	-10.2282
▁Se	-10.2289
▁keeping	-10.2292
▁Thank	-10.2294
▁whatever	-10.2296
ol	-10.2297
▁entertainment	-10.2297
▁involving	-10.2299
▁Paper	-10.2301
▁Lord	-10.2306
▁nation	-10.2307
Not	-10.2308
▁exists	-10.2312
▁vacation	-10.2323
▁politicians	-10.2328
25	-10.233
▁fraud	-10.233
qui	-10.233
▁trees	-10.234
▁whilst	-10.2342
▁na	-10.2343
▁intend	-10.2349
▁personally	-10.2353
ac	-10.2354
ence	-10.2355
▁journey	-10.2359
▁sell	-10.2366
▁First	-10.2367
▁felt	-10.2367
▁arrangements	-10.237
▁requests	-10.2371
▁temperature	-10.2376
▁engineering	-10.2377
▁boat	-10.2378
▁exclusively	-10.239
▁naturally	-10.239
▁recognised	-10.2402
mar	-10.2404
▁impressive	-10.2404
old	-10.2413
che	-10.2419
▁sets	-10.2421
▁launch	-10.2421
▁accounts	-10.2422
▁objects	-10.2424
if	-10.2425
▁opposed	-10.243
▁Control	-10.2434
▁advantages	-10.2434
▁marked	-10.2466
▁blood	-10.2472
▁determine	-10.2486
▁mobility	-10.2497
▁His	-10.2504
▁hit	-10.2507
▁happening	-10.2509
▁spring	-10.251
▁band	-10.2518
▁1996	-10.2523
▁cold	-10.2524
▁mail	-10.2532
▁finding	-10.2533
▁meat	-10.2534
▁happens	-10.2534
▁confirmed	-10.2539
▁diseases	-10.254
dy	-10.2542
▁involvement	-10.2545
known	-10.2548
izing	-10.2554
ial	-10.2558
▁classic	-10.2558
▁articles	-10.2559
▁combating	-10.2559
▁museum	-10.2561
▁helped	-10.257
▁rent	-10.2572
▁firstly	-10.2575
▁1990	-10.258
▁Open	-10.2584
Please	-10.2585
▁sauna	-10.2586
ft	-10.2587
Thank	-10.2588
▁colour	-10.2599
▁experiences	-10.2607
▁Institute	-10.2608
▁Charter	-10.2609
▁volume	-10.261
▁obtained	-10.261
▁hair	-10.2613
ut	-10.2614
▁Arab	-10.2617
▁websites	-10.2622
▁listen	-10.2629
car	-10.263
▁faced	-10.2632
▁chain	-10.2637
▁hostels	-10.2654
▁cheap	-10.2656
▁criticism	-10.2657
▁tests	-10.2659
▁bedrooms	-10.2668
▁constructive	-10.2674
▁discovered	-10.2677
▁covers	-10.2677
▁treaty	-10.2682
▁passengers	-10.2688
Also	-10.2689
▁largely	-10.2692
▁Bo	-10.2705
0	-10.2706
▁exceptional	-10.2711
▁protecting	-10.2713
▁collective	-10.2717
ach	-10.2719
▁flow	-10.2721
▁reserve	-10.2724
▁weather	-10.2725
▁occasion	-10.2736
▁Afghanistan	-10.2739
▁soft	-10.2744
vo	-10.2745
▁familiar	-10.2747
▁outdoor	-10.2752
▁ex	-10.2759
▁Swedish	-10.276
▁liberalisation	-10.2763
▁leisure	-10.2767
▁equally	-10.277
Do	-10.2771
▁automatic	-10.2773
▁fantastic	-10.2785
▁temporary	-10.2788
▁extreme	-10.279
▁stations	-10.2793
▁mini	-10.2795
▁strategies	-10.2798
▁removed	-10.2804
▁Strategy	-10.2807
▁preparation	-10.2808
▁requirement	-10.2819
▁Munich	-10.2833
▁1998	-10.2838
▁DVD	-10.2841
▁dinner	-10.2854
▁license	-10.2862
▁trans	-10.2862
▁John	-10.2863
▁leaving	-10.2865
ship	-10.2872
▁River	-10.2875
▁Britain	-10.2876
▁Energy	-10.2877
▁president	-10.2877
▁Each	-10.289
▁Procedure	-10.289
▁Foundation	-10.2906
▁Frankfurt	-10.2914
▁mark	-10.2916
▁prove	-10.292
▁couple	-10.2925
▁vast	-10.2927
24	-10.2928
▁awareness	-10.2928
▁serves	-10.2929
▁wall	-10.2929
▁handling	-10.2931
▁restrictions	-10.2937
▁profit	-10.2941
"")	-10.2941
▁tours	-10.2942
▁except	-10.2944
EL	-10.2945
▁Christian	-10.2946
15	-10.2952
ger	-10.2958
▁remaining	-10.296
▁drink	-10.2962
▁eyes	-10.2971
▁submit	-10.2971
11	-10.2979
▁Li	-10.2979
org	-10.2979
▁fighting	-10.299
▁Ministers	-10.2992
▁healthy	-10.2996
▁ge	-10.3003
▁recommendation	-10.3006
▁officials	-10.3007
▁password	-10.3017
▁fit	-10.3024
▁impression	-10.3026
▁offices	-10.303
▁block	-10.3033
▁characteristics	-10.3043
▁Alliance	-10.3044
▁involve	-10.3049
▁issued	-10.3049
▁organizations	-10.3052
▁abroad	-10.3078
▁massive	-10.3078
▁bedroom	-10.3088
▁identify	-10.3092
▁contributions	-10.3093
▁Saint	-10.3097
▁earth	-10.3097
▁facilitate	-10.3099
▁precise	-10.3103
▁GDP	-10.3107
▁Costa	-10.3108
▁waters	-10.3114
▁grow	-10.3115
▁dream	-10.3117
000	-10.3118
▁Safety	-10.3121
▁Breakfast	-10.3132
▁texts	-10.3136
▁centres	-10.3139
▁glad	-10.314
▁amounts	-10.3142
▁copyright	-10.3152
▁operational	-10.3159
▁contracts	-10.3164
Just	-10.3165
▁Roma	-10.3168
▁solid	-10.3169
▁fee	-10.3172
▁returned	-10.3181
▁heat	-10.3182
ley	-10.3187
ising	-10.32
▁depends	-10.3207
Thus	-10.3207
▁Street	-10.3224
▁confirm	-10.3225
▁drawing	-10.3225
▁define	-10.3231
▁apart	-10.3234
▁knows	-10.3235
▁planet	-10.3236
▁doesn	-10.324
▁maintained	-10.3242
4-0	-10.3242
▁orders	-10.3242
Located	-10.3244
▁Ra	-10.3262
ier	-10.3268
om	-10.3281
hr	-10.3281
▁son	-10.3281
▁gender	-10.3284
PT	-10.3285
▁metal	-10.3288
▁transportation	-10.3293
▁directives	-10.3299
▁communications	-10.3313
mb	-10.3315
▁regularly	-10.3325
▁MEPs	-10.3328
side	-10.3332
▁newly	-10.3334
▁v	-10.3334
▁Croatia	-10.334
▁proud	-10.3344
ki	-10.3345
▁Dur	-10.335
▁fashion	-10.3354
▁Private	-10.3358
▁motor	-10.3358
▁Bulgaria	-10.3366
▁transition	-10.3366
://	-10.3371
▁gone	-10.3371
▁album	-10.3372
▁visa	-10.3372
▁holding	-10.3374
▁career	-10.3379
▁Google	-10.3379
▁lounge	-10.3381
wa	-10.3382
▁conducted	-10.3382
▁customs	-10.3385
▁Per	-10.3386
▁Val	-10.3386
▁millions	-10.3391
▁universal	-10.3393
▁70	-10.3395
▁continent	-10.3404
▁parliaments	-10.3405
12	-10.3407
▁intellectual	-10.3407
ability	-10.3411
▁charges	-10.3415
▁par	-10.3416
▁worse	-10.3417
▁90	-10.3422
class	-10.3423
▁performed	-10.3424
▁NATO	-10.3424
▁properties	-10.3425
▁ticket	-10.3426
over	-10.3431
▁migration	-10.3431
▁depend	-10.3432
▁topic	-10.3434
▁rock	-10.3447
▁reserves	-10.3452
▁collaboration	-10.3456
▁regulatory	-10.3456
▁father	-10.3458
▁northern	-10.3464
▁entrance	-10.3473
▁helps	-10.3477
▁increases	-10.3484
▁afternoon	-10.3485
▁dining	-10.3485
ny	-10.3485
▁friend	-10.349
▁Ca	-10.3495
▁somewhat	-10.3498
▁farm	-10.35
▁hardware	-10.35
▁Monetary	-10.3504
▁conflicts	-10.3504
▁parents	-10.3505
▁Act	-10.3506
▁ought	-10.3507
▁displayed	-10.3507
vi	-10.3509
▁ultimately	-10.3512
fer	-10.3518
room	-10.3519
ig	-10.3519
▁minority	-10.3519
▁hundreds	-10.3522
▁explore	-10.3525
▁surroundings	-10.3526
▁Japanese	-10.353
▁Polish	-10.3531
▁grateful	-10.3533
▁Cyprus	-10.354
▁frequently	-10.3553
▁exit	-10.3557
▁joined	-10.3567
▁Luxembourg	-10.3571
▁absolute	-10.3581
ns	-10.3581
ish	-10.3587
▁award	-10.3604
▁faster	-10.3605
▁expert	-10.3605
”,	-10.3606
▁occur	-10.3608
▁messages	-10.3609
▁emergency	-10.3612
▁walls	-10.3616
▁demanding	-10.3621
▁balcony	-10.3627
▁renovated	-10.363
ron	-10.3632
▁Di	-10.364
▁seat	-10.3641
▁expansion	-10.3642
▁battle	-10.3642
▁Use	-10.3646
▁opinions	-10.3655
▁log	-10.3666
▁invite	-10.367
board	-10.3688
▁Financial	-10.3688
▁secret	-10.37
▁pension	-10.3705
▁electricity	-10.3706
▁declaration	-10.3708
▁Korea	-10.371
▁organized	-10.3711
▁looks	-10.3714
▁divided	-10.3719
▁heritage	-10.3722
▁Square	-10.3722
▁remote	-10.3724
▁constitution	-10.3725
▁rapporteurs	-10.373
▁delighted	-10.3732
▁zu	-10.3734
▁White	-10.3735
▁tackle	-10.3737
▁owner	-10.3737
▁artist	-10.3744
ho	-10.3746
▁valley	-10.3749
berg	-10.375
Q	-10.3755
bi	-10.3756
▁Old	-10.3757
▁resolutions	-10.3759
▁hall	-10.3763
▁mo	-10.3763
▁producing	-10.3766
▁pollution	-10.3766
▁updated	-10.377
▁welfare	-10.3771
▁castle	-10.3779
▁driver	-10.3785
▁proof	-10.3788
▁arrive	-10.3789
▁meant	-10.3792
▁techniques	-10.3792
▁demonstrate	-10.3799
▁reject	-10.3802
▁statistics	-10.3802
ard	-10.3806
▁strict	-10.3809
▁subsidies	-10.3818
▁cutting	-10.3821
▁investors	-10.3827
▁bottom	-10.3833
▁ethnic	-10.3834
▁patent	-10.3842
▁bilateral	-10.3845
ó	-10.385
80	-10.3851
▁symbol	-10.3852
ik	-10.3853
▁Most	-10.386
▁widely	-10.3861
▁inhabitants	-10.3863
▁snow	-10.3863
▁interior	-10.3868
▁visible	-10.3869
▁follows	-10.387
▁relaxation	-10.3872
▁cash	-10.3873
▁sexual	-10.3883
fi	-10.3887
▁cable	-10.3892
▁Ma	-10.3894
▁Station	-10.3901
▁seeing	-10.3903
▁master	-10.3903
▁percent	-10.3907
▁straight	-10.392
▁maintaining	-10.392
ors	-10.3921
▁careful	-10.3925
▁involves	-10.3931
▁creates	-10.3931
▁decorated	-10.3946
▁2020	-10.3948
▁Friday	-10.3951
with	-10.3953
▁demonstrated	-10.3956
▁Y	-10.3958
▁drug	-10.3962
▁indicated	-10.3967
▁deposit	-10.3968
▁understood	-10.3975
▁brief	-10.3982
▁corresponding	-10.3983
▁corner	-10.3983
▁answers	-10.3991
▁competent	-10.4003
▁Enterprise	-10.4004
▁library	-10.4005
▁islands	-10.4008
▁OF	-10.401
▁stored	-10.4011
▁assure	-10.4015
▁feed	-10.4015
▁showing	-10.4024
▁35	-10.4024
▁Ho	-10.4026
▁Su	-10.4027
▁settlement	-10.4028
RO	-10.4029
mi	-10.4031
▁Pact	-10.4032
▁focused	-10.4034
▁Portuguese	-10.4037
▁department	-10.4037
▁Book	-10.4038
▁Data	-10.4045
▁provider	-10.4047
▁Due	-10.4048
▁formal	-10.4048
▁era	-10.4049
▁foundation	-10.4053
▁proved	-10.4055
▁exciting	-10.4064
▁Best	-10.4071
▁invest	-10.4075
▁settings	-10.4079
▁depending	-10.4088
▁behaviour	-10.4089
▁Palace	-10.4089
▁sugar	-10.4092
▁accompanied	-10.4093
▁visited	-10.4101
▁connections	-10.4101
▁Restaurant	-10.4106
mp	-10.4106
▁Day	-10.4117
▁documentation	-10.4122
▁Baltic	-10.4128
▁w	-10.4128
▁concluded	-10.413
▁resistance	-10.4134
▁adapt	-10.4136
▁hostel	-10.4138
▁Then	-10.414
▁slow	-10.4141
▁wines	-10.4144
▁à	-10.4149
▁cycle	-10.4149
▁examine	-10.4152
▁stylish	-10.4153
▁effectiveness	-10.4154
▁citizen	-10.4155
▁comparison	-10.4158
▁ver	-10.416
▁overcome	-10.4166
min	-10.4169
▁channels	-10.4169
pro	-10.4176
▁Church	-10.4176
tor	-10.4184
Parliament	-10.4188
▁deals	-10.4188
▁passenger	-10.4195
▁spoken	-10.4196
▁flights	-10.4201
▁ongoing	-10.4201
▁tourists	-10.4207
▁Israeli	-10.4213
▁assume	-10.4219
▁es	-10.4224
▁debates	-10.4225
▁spot	-10.4226
▁150	-10.4228
ov	-10.423
▁Canada	-10.4233
▁minorities	-10.4233
▁drivers	-10.4239
▁finished	-10.4243
▁trafficking	-10.4256
▁youth	-10.4258
▁categories	-10.4258
▁raw	-10.4259
▁controlled	-10.4262
▁terrorist	-10.4267
▁Site	-10.4272
▁replace	-10.4276
▁corruption	-10.4277
▁consent	-10.4279
▁carbon	-10.4282
▁speaker	-10.4283
▁printing	-10.4284
▁constitutional	-10.4287
▁super	-10.429
▁match	-10.4294
▁Pa	-10.4295
▁signs	-10.4299
▁blog	-10.4303
▁immigrants	-10.4308
▁mostly	-10.4311
▁scheme	-10.4313
▁SMEs	-10.4319
lin	-10.4321
jo	-10.4322
▁profile	-10.4325
▁east	-10.4332
▁visiting	-10.4338
▁replaced	-10.4344
▁lovely	-10.4345
▁gold	-10.4345
▁Pre	-10.4347
▁Ha	-10.4348
▁moral	-10.4354
▁configuration	-10.4358
▁bound	-10.4365
▁Time	-10.4366
▁rapidly	-10.4371
▁educational	-10.4376
▁manufacturer	-10.4379
▁k	-10.4382
und	-10.4386
▁imposed	-10.4386
–	-10.4391
▁adopting	-10.4393
lu	-10.4396
▁Law	-10.4396
▁awarded	-10.44
▁fitness	-10.4405
site	-10.441
related	-10.4412
▁owners	-10.4413
▁Hungarian	-10.4414
▁recorded	-10.4416
▁destruction	-10.4418
▁chemical	-10.4421
▁dates	-10.4421
▁Schengen	-10.4424
▁spectacular	-10.4425
▁mother	-10.4433
▁Copenhagen	-10.4436
▁facility	-10.4444
ah	-10.4452
▁pursue	-10.4454
ology	-10.4455
▁assets	-10.4455
▁desired	-10.4462
▁subsidiarity	-10.4462
▁cosy	-10.4463
▁occasions	-10.4465
tu	-10.4466
▁!	-10.447
Given	-10.4473
▁Am	-10.4481
▁heating	-10.4483
zi	-10.4484
▁Soviet	-10.4485
▁compatible	-10.4486
▁respected	-10.4487
ix	-10.4493
▁Ge	-10.4497
▁credibility	-10.4499
▁Protection	-10.4499
ang	-10.45
▁milk	-10.4504
▁suite	-10.4504
bit	-10.4508
▁judicial	-10.4511
▁centuries	-10.4515
60	-10.4517
ada	-10.4521
▁Special	-10.4525
▁succeed	-10.453
▁firms	-10.4534
▁Just	-10.4536
▁See	-10.4538
▁sand	-10.4541
▁Question	-10.4542
▁Nice	-10.4544
▁oral	-10.4547
▁Any	-10.4549
▁contacts	-10.4552
scale	-10.4555
▁stronger	-10.4555
▁grant	-10.4557
▁possibly	-10.4573
▁suites	-10.4574
▁crimes	-10.4578
▁transactions	-10.4578
▁containing	-10.4584
▁sending	-10.4586
▁functioning	-10.4586
chi	-10.4587
▁correctly	-10.4588
op	-10.459
▁Prague	-10.4592
▁departure	-10.4595
▁willing	-10.46
▁declared	-10.4605
▁personnel	-10.4605
era	-10.4611
▁argument	-10.4612
ations	-10.4616
▁magnificent	-10.4622
]],	-10.4622
ible	-10.4624
▁wonder	-10.4624
▁reported	-10.4625
▁woman	-10.4628
minute	-10.4637
▁emerging	-10.4638
▁Ne	-10.4641
▁mm	-10.4652
▁committees	-10.4656
▁plenty	-10.4656
▁taxation	-10.4657
▁Funds	-10.4658
▁gardens	-10.4669
▁Belarus	-10.4672
cu	-10.4675
▁partly	-10.4681
▁su	-10.4684
▁hundred	-10.4687
▁quarter	-10.469
▁tickets	-10.4691
▁revision	-10.4693
▁usual	-10.4693
▁decisive	-10.4695
▁inclusion	-10.4697
▁satisfied	-10.4699
▁cooperate	-10.47
▁Media	-10.4701
sen	-10.4704
ries	-10.4705
▁division	-10.4708
▁dance	-10.4711
ud	-10.4715
rate	-10.4717
▁encouraging	-10.4727
▁Santa	-10.4729
▁routes	-10.4737
▁enhance	-10.4737
▁gets	-10.4739
▁windows	-10.474
▁artistic	-10.4742
▁exception	-10.4751
▁globalisation	-10.4753
▁Design	-10.4755
▁Brazil	-10.4755
▁identified	-10.4765
▁addresses	-10.4766
▁King	-10.4771
▁preparing	-10.4776
ria	-10.4776
▁cast	-10.4781
▁plenary	-10.4781
▁treat	-10.4787
▁eastern	-10.479
▁films	-10.4793
▁Structural	-10.4796
▁Hall	-10.4798
▁suffer	-10.4799
▁starts	-10.48
▁Action	-10.4803
▁narrow	-10.4806
▁endorse	-10.481
ä	-10.4813
wide	-10.4813
▁died	-10.4816
▁appointed	-10.482
▁thousand	-10.4823
▁School	-10.4825
how	-10.4825
▁substance	-10.4826
▁locations	-10.4827
▁However	-10.4829
▁spoke	-10.4831
▁rental	-10.4833
ite	-10.4838
▁abuse	-10.4843
▁army	-10.4844
ren	-10.485
▁Bush	-10.4857
▁extraordinary	-10.4858
▁Un	-10.4863
▁4-	-10.4865
▁suppliers	-10.4873
▁Ja	-10.4875
▁definitely	-10.4876
▁resolved	-10.4877
▁pick	-10.4878
▁pieces	-10.4881
Thanks	-10.4882
▁Belgium	-10.4883
Con	-10.4884
▁Black	-10.4886
Thirdly	-10.4887
▁;	-10.4902
▁Non	-10.4907
Europe	-10.4927
▁trend	-10.4932
▁distributed	-10.4933
▁deficit	-10.4934
▁component	-10.4935
▁duties	-10.4941
▁considering	-10.4941
▁channel	-10.4941
▁Hungary	-10.4947
▁noted	-10.4947
▁für	-10.4948
▁absence	-10.4951
▁courts	-10.4951
▁Ro	-10.4954
▁proven	-10.4954
▁ISO	-10.4957
▁proceed	-10.4957
▁actively	-10.4963
▁slightly	-10.4965
▁legitimate	-10.4965
▁proposes	-10.4986
▁dark	-10.499
▁housing	-10.499
Instead	-10.4991
▁towns	-10.4991
▁proposing	-10.4993
▁Madrid	-10.4993
▁virtual	-10.4994
▁Mac	-10.4995
▁weekend	-10.4996
▁tobacco	-10.501
▁providers	-10.5012
like	-10.5014
▁Town	-10.5016
▁solely	-10.502
▁formed	-10.5027
▁appeared	-10.5031
▁eventually	-10.5034
▁domain	-10.5035
▁400	-10.5036
▁Report	-10.5037
▁diverse	-10.5043
▁interpretation	-10.5045
▁vulnerable	-10.5046
▁impose	-10.5048
▁elsewhere	-10.5049
▁Not	-10.5052
More	-10.5054
▁los	-10.5063
tion	-10.5065
let	-10.5067
▁miles	-10.5068
▁maritime	-10.5068
▁presents	-10.5077
▁nevertheless	-10.5077
ado	-10.5086
▁Of	-10.5098
date	-10.5101
▁Thursday	-10.5104
▁drop	-10.5112
▁everyday	-10.5117
▁Check	-10.5121
▁packaging	-10.5122
▁adults	-10.5135
▁Bay	-10.5138
ap	-10.5138
▁applying	-10.5142
▁http	-10.5142
▁musical	-10.5147
q	-10.5148
▁carrying	-10.5149
▁supplies	-10.5153
▁western	-10.5155
▁label	-10.5156
▁professionals	-10.5157
▁Congress	-10.5159
▁Since	-10.5168
▁scene	-10.5172
▁representation	-10.5173
▁shares	-10.518
▁forum	-10.5181
▁Pi	-10.5182
▁excessive	-10.5184
▁Northern	-10.5187
ical	-10.5188
▁Nos	-10.5191
▁Hu	-10.5194
▁fourth	-10.5197
▁voluntary	-10.5198
▁luxurious	-10.5204
19	-10.5205
▁Pe	-10.5213
▁Today	-10.5213
▁lo	-10.5216
▁Te	-10.5219
▁lie	-10.5219
▁inflation	-10.5221
▁Mexico	-10.5227
▁Plan	-10.5233
▁ye	-10.5234
▁Her	-10.5235
▁conditioning	-10.5236
▁ice	-10.5255
▁Festival	-10.5259
▁Lu	-10.526
▁Pakistan	-10.5267
▁Will	-10.5268
▁gained	-10.5274
▁tea	-10.5278
▁Mon	-10.5278
▁supplier	-10.528
level	-10.5283
▁shadow	-10.5287
▁west	-10.5291
▁Assembly	-10.5295
▁university	-10.5295
▁VAT	-10.5299
▁Code	-10.5306
▁shipping	-10.5307
ative	-10.5307
▁bridge	-10.5308
She	-10.5309
▁si	-10.531
Each	-10.5312
▁countryside	-10.5312
ö	-10.5312
▁Framework	-10.5313
▁wrote	-10.5313
ju	-10.5317
▁Vice	-10.5318
ven	-10.5324
▁count	-10.5324
▁Island	-10.5324
▁trial	-10.5329
▁generated	-10.5332
▁satisfaction	-10.5336
▁edge	-10.5336
▁arrived	-10.534
▁suggestions	-10.5343
▁philosophy	-10.5347
▁ships	-10.5349
back	-10.5353
▁upper	-10.5354
▁traditions	-10.5358
His	-10.5358
Le	-10.5359
ding	-10.5366
▁Rule	-10.5369
▁Jo	-10.5369
▁updates	-10.5372
▁lessons	-10.5383
▁greatly	-10.5385
▁description	-10.5388
▁theory	-10.5393
▁receiving	-10.5393
▁Du	-10.5395
▁mit	-10.54
▁England	-10.5408
gu	-10.5416
▁concepts	-10.5417
▁difficulty	-10.5424
▁realise	-10.543
▁Transport	-10.5431
▁constitute	-10.5432
▁regarded	-10.5438
▁Monday	-10.544
www	-10.5445
▁Take	-10.5448
▁roads	-10.5448
▁resource	-10.5449
▁suggested	-10.5451
▁input	-10.5457
▁invited	-10.5458
ini	-10.5459
▁lunch	-10.5465
style	-10.5474
▁transmission	-10.5478
Or	-10.5478
▁banking	-10.5488
▁sum	-10.5489
Find	-10.5489
ker	-10.549
▁exports	-10.5494
▁Technology	-10.5495
▁confirmation	-10.5501
*	-10.5506
▁prime	-10.5508
▁Inn	-10.5509
ab	-10.5509
▁finish	-10.551
▁2009,	-10.5512
▁Don	-10.552
ins	-10.5521
▁permitted	-10.5525
▁import	-10.5529
▁enabling	-10.553
▁standing	-10.5531
▁religion	-10.5532
Ladies	-10.5532
ator	-10.5534
▁Page	-10.5534
▁32	-10.5538
How	-10.5538
▁destroyed	-10.5539
▁specified	-10.5542
▁camp	-10.5543
not	-10.5547
Applause	-10.5553
▁dependent	-10.5557
ya	-10.556
▁savings	-10.556
▁acting	-10.556
▁Desk	-10.5565
▁Paul	-10.557
port	-10.5572
▁Royal	-10.5576
run	-10.5581
▁disabled	-10.5591
16	-10.5591
Then	-10.5592
▁ACP	-10.5594
▁realistic	-10.5596
▁module	-10.5596
▁topics	-10.5598
▁cancer	-10.56
▁fulfil	-10.5604
▁obliged	-10.5606
▁female	-10.5616
ken	-10.5616
▁handle	-10.5617
US	-10.562
all	-10.5622
▁crew	-10.5625
▁farming	-10.5627
▁rising	-10.5628
▁Hamburg	-10.5628
▁Legal	-10.5629
▁sought	-10.5634
▁prosperity	-10.564
▁patient	-10.5641
▁cool	-10.5643
▁significance	-10.5646
Under	-10.5657
▁Van	-10.566
▁twenty	-10.566
▁exclusion	-10.5663
▁Both	-10.5665
▁forests	-10.567
Only	-10.5677
▁arguments	-10.568
▁drinks	-10.5681
▁overview	-10.5685
ski	-10.5686
ER	-10.5689
▁plays	-10.5693
▁Earth	-10.5694
▁Amendments	-10.5694
▁enjoyed	-10.5699
▁attempts	-10.57
▁rare	-10.5701
wing	-10.5702
▁harmonisation	-10.5702
▁bright	-10.5705
Commissioner	-10.5706
▁Sunday	-10.5706
▁Trek	-10.5707
▁societies	-10.5711
▁colours	-10.5714
▁pure	-10.572
▁killed	-10.572
▁Beach	-10.5725
▁referendum	-10.5727
▁bio	-10.5735
▁electric	-10.5738
▁villages	-10.5738
▁delicious	-10.5738
▁publication	-10.5755
ituated	-10.5759
▁reservations	-10.576
form	-10.576
▁2011	-10.5764
▁Saturday	-10.5765
13	-10.5765
▁approve	-10.5766
sk	-10.5767
97	-10.5771
▁specialist	-10.5773
▁justified	-10.5773
▁Agriculture	-10.5777
▁radical	-10.578
Most	-10.5781
▁roof	-10.5783
▁nine	-10.5791
▁portfolio	-10.5792
Yet	-10.5797
▁negotiating	-10.5801
▁appearance	-10.5801
▁lift	-10.5803
21	-10.5805
▁lots	-10.5808
▁Socialist	-10.5809
▁fleet	-10.5814
▁disk	-10.5817
▁wild	-10.5817
▁olive	-10.5823
▁EC	-10.5823
▁Inter	-10.5824
▁renowned	-10.5825
▁politically	-10.5826
▁calm	-10.5827
▁unforgettable	-10.5828
▁Auditors	-10.5838
▁football	-10.5838
▁continuous	-10.5839
red	-10.5841
ware	-10.5843
▁Egypt	-10.5847
▁legally	-10.5847
▁proceedings	-10.585
▁imports	-10.5852
▁suffered	-10.5855
▁Sch	-10.5857
▁sleep	-10.5861
▁safeguard	-10.5864
▁PHP	-10.5865
▁supervision	-10.5865
▁Get	-10.5867
▁skiing	-10.5868
km	-10.5869
▁Also	-10.5869
zo	-10.5876
▁refers	-10.588
▁desk	-10.5888
▁ports	-10.5889
90	-10.5893
18	-10.5893
▁Peter	-10.5895
▁peoples	-10.5896
45	-10.5897
▁romantic	-10.5898
▁faith	-10.5905
par	-10.5906
▁festival	-10.5908
▁welcomed	-10.5908
▁remained	-10.5911
▁Every	-10.5914
Over	-10.5915
à	-10.5916
▁enterprise	-10.5923
vis	-10.5924
▁parallel	-10.5929
▁contributed	-10.593
▁Another	-10.5933
▁preventing	-10.5935
▁Barroso	-10.5938
▁nights	-10.5943
▁honour	-10.5944
▁paying	-10.5948
▁instructions	-10.5949
▁forthcoming	-10.595
▁theme	-10.5951
▁doors	-10.5957
friendly	-10.5961
▁covering	-10.5964
▁Enjoy	-10.5969
▁1,	-10.597
▁allocated	-10.5974
van	-10.5977
):	-10.598
▁complicated	-10.5982
▁mix	-10.5982
▁surely	-10.5985
▁indicate	-10.5989
▁45	-10.5991
▁directory	-10.5993
▁subjects	-10.5993
▁u	-10.5993
▁everybody	-10.5994
▁MP	-10.5994
▁director	-10.5994
▁lay	-10.6
▁Strasbourg	-10.6005
▁firmly	-10.6006
set	-10.601
▁boost	-10.6012
▁revolution	-10.6014
Be	-10.6021
▁supposed	-10.6029
▁Year	-10.6031
air	-10.6037
▁directed	-10.6043
▁didn	-10.6046
▁parliament	-10.6046
▁teams	-10.6048
▁tennis	-10.6049
▁Ni	-10.6064
▁introducing	-10.6067
▁"“	-10.6072
▁wider	-10.6075
▁hardly	-10.6075
▁Secretary	-10.608
▁collect	-10.6084
▁imagine	-10.6084
▁24-	-10.6085
▁combine	-10.6086
▁tree	-10.6089
▁enabled	-10.6091
▁Such	-10.6105
▁Tour	-10.6121
tes	-10.6124
▁parameters	-10.6134
▁decline	-10.6137
▁eat	-10.6139
ble	-10.614
▁investigation	-10.6141
hi	-10.6142
▁ordinary	-10.6145
▁Consumer	-10.6146
▁programming	-10.6146
▁restore	-10.6148
▁Da	-10.6152
▁barriers	-10.6152
▁preserve	-10.6154
▁functional	-10.6154
▁Ri	-10.6156
ff	-10.6168
▁cleaning	-10.6172
▁hearing	-10.6173
▁custom	-10.6176
▁movie	-10.6178
=	-10.618
▁characters	-10.6182
▁missing	-10.6182
▁originally	-10.6184
▁recognized	-10.6185
▁vessels	-10.6186
▁1.	-10.6186
▁ha	-10.6188
▁leaves	-10.6189
▁Finland	-10.6192
▁IN	-10.6195
▁obstacles	-10.6203
▁push	-10.6205
hu	-10.6211
▁Asian	-10.6214
▁remarks	-10.6215
ku	-10.6216
▁Its	-10.6217
▁organic	-10.6221
▁auto	-10.6222
▁explained	-10.6229
▁manager	-10.6231
▁sustainability	-10.6233
▁--	-10.6237
▁productivity	-10.6237
▁struggle	-10.6247
▁smooth	-10.6249
▁Stability	-10.625
▁Federation	-10.625
▁generate	-10.6251
▁collected	-10.6253
▁expand	-10.6259
▁weak	-10.6263
▁ECU	-10.627
▁trips	-10.6274
▁wellness	-10.6278
ero	-10.6281
▁Atlantic	-10.629
▁hospitality	-10.6294
ium	-10.6296
▁freedoms	-10.6298
▁whereas	-10.6298
▁gallery	-10.6305
▁ensures	-10.6307
▁dignity	-10.6309
▁compact	-10.631
▁saved	-10.6312
Yes	-10.6318
made	-10.6318
▁fan	-10.6318
17	-10.6319
smoking	-10.6322
ü	-10.6324
▁Organisation	-10.6325
hotel	-10.6328
ser	-10.6329
▁Ba	-10.6331
▁song	-10.6333
▁reflected	-10.6339
▁functionality	-10.6339
▁gap	-10.6339
▁periods	-10.634
▁severe	-10.6341
01	-10.6344
▁welcoming	-10.6344
▁accurate	-10.6344
▁cells	-10.6346
▁considerably	-10.6348
▁Ko	-10.6348
▁fans	-10.6349
▁sharing	-10.6352
▁accident	-10.6355
▁cuts	-10.6356
val	-10.6357
▁showed	-10.6363
Every	-10.6364
▁Martin	-10.6366
▁restructuring	-10.6366
ile	-10.6367
▁turning	-10.6367
ita	-10.6367
▁assess	-10.637
▁enhanced	-10.6372
▁lists	-10.6374
▁universities	-10.6376
▁bike	-10.6377
▁EADS	-10.6384
▁(19	-10.6385
▁stake	-10.6388
▁birth	-10.6391
▁none	-10.6393
▁protocol	-10.6394
▁decade	-10.6396
▁una	-10.6397
▁Express	-10.6399
09	-10.6399
▁Port	-10.6399
▁penalty	-10.6401
uk	-10.6406
▁clubs	-10.6409
▁concert	-10.6409
▁internationally	-10.6411
▁regardless	-10.6417
▁amazing	-10.6424
▁classes	-10.6425
▁acceptance	-10.6426
▁Music	-10.6429
▁undoubtedly	-10.643
▁exploitation	-10.6431
▁Golf	-10.6432
▁labelling	-10.6434
cha	-10.6435
ons	-10.6441
▁modules	-10.6443
ions	-10.6444
▁sight	-10.6447
▁errors	-10.6448
14	-10.6453
▁sit	-10.646
▁adapted	-10.6463
▁frame	-10.6465
COM	-10.6467
▁violations	-10.6469
▁looked	-10.6472
▁disasters	-10.6475
▁ministers	-10.6483
▁IP	-10.6486
▁excluded	-10.6492
▁Serbia	-10.6496
ano	-10.6496
▁reaction	-10.6496
▁exact	-10.65
Other	-10.6501
▁united	-10.6501
Whether	-10.6509
70	-10.6509
▁studio	-10.6513
▁equivalent	-10.6514
▁cell	-10.6524
▁connect	-10.6525
▁Valley	-10.6529
▁fees	-10.653
▁concentrate	-10.6534
▁Er	-10.6534
▁reaching	-10.6534
▁horse	-10.6536
▁reconstruction	-10.6537
▁charm	-10.6538
▁h	-10.654
}}	-10.654
▁facts	-10.6542
▁movements	-10.6543
▁Global	-10.6544
sis	-10.6544
▁Tri	-10.6544
General	-10.6546
fa	-10.6549
ran	-10.6551
light	-10.6555
▁transferred	-10.6557
▁museums	-10.6559
▁Tourism	-10.656
▁permission	-10.6564
are	-10.6565
▁layer	-10.6567
▁wireless	-10.6571
tz	-10.6572
▁managing	-10.6573
▁uniform	-10.6575
▁ride	-10.6581
▁Islamic	-10.6591
▁subsequent	-10.6592
▁songs	-10.6594
▁losses	-10.6595
▁Food	-10.6595
▁min	-10.6603
▁stocks	-10.6605
▁clause	-10.6607
▁sovereignty	-10.6612
▁Mi	-10.6613
▁Geneva	-10.6622
▁Balkans	-10.6624
lic	-10.6624
▁satisfy	-10.6636
▁repair	-10.6637
▁cent	-10.6641
mon	-10.6641
ide	-10.6645
▁TO	-10.6647
ward	-10.6652
▁undertaken	-10.6655
▁travelling	-10.6661
▁switch	-10.6662
▁arise	-10.6668
▁worst	-10.6671
▁dry	-10.6673
▁PPE	-10.6675
▁dead	-10.6675
▁filled	-10.6676
king	-10.6677
Before	-10.668
▁Those	-10.668
▁courage	-10.6683
ING	-10.6686
▁tested	-10.6691
▁soil	-10.6695
▁consulting	-10.6697
▁Even	-10.6699
ping	-10.6699
▁sounds	-10.67
ru	-10.6701
war	-10.6703
ice	-10.6707
▁generations	-10.6711
▁restored	-10.6715
▁belong	-10.6715
Following	-10.6725
▁alcohol	-10.6726
▁liberal	-10.6728
▁fishermen	-10.6733
▁strengthened	-10.6734
▁Nor	-10.6739
▁amenities	-10.674
▁plastic	-10.674
IN	-10.6742
▁eliminate	-10.6742
▁reliability	-10.6747
ola	-10.6751
▁freely	-10.6752
Well	-10.6762
▁Power	-10.6764
▁trends	-10.6764
▁massage	-10.6765
AL	-10.677
▁thermal	-10.677
▁reflects	-10.6771
▁2008,	-10.6772
▁supplied	-10.678
pi	-10.6786
▁proportion	-10.6787
▁acknowledge	-10.6788
▁USB	-10.6796
▁vi	-10.6796
▁commit	-10.6802
▁coordinated	-10.6802
▁edition	-10.6802
ens	-10.6803
▁po	-10.6803
▁Resort	-10.6807
▁selling	-10.6811
▁reputation	-10.6813
▁100%	-10.6819
▁sections	-10.6824
▁50%	-10.6827
▁OR	-10.6834
fe	-10.6838
ight	-10.6845
gi	-10.6855
▁Casino	-10.6858
▁script	-10.6861
bed	-10.6871
▁Regional	-10.6871
▁je	-10.6872
▁learned	-10.6872
▁Castle	-10.6891
▁User	-10.6899
▁neighbouring	-10.6899
22	-10.69
▁Venice	-10.69
stra	-10.6904
ica	-10.6905
▁panel	-10.6907
▁Michael	-10.691
▁ba	-10.6913
Ro	-10.6918
▁homes	-10.6918
▁Agenda	-10.6921
▁briefly	-10.6922
New	-10.6923
▁20%	-10.6924
▁sole	-10.6928
▁Real	-10.6937
▁Christmas	-10.6938
▁catch	-10.6942
eg	-10.6943
);	-10.6945
▁ECB	-10.6948
▁Islands	-10.695
▁province	-10.6951
▁anywhere	-10.6951
▁Indian	-10.6951
▁attend	-10.6954
▁necessarily	-10.6954
du	-10.6956
▁deeply	-10.6957
▁root	-10.6957
▁Culture	-10.6963
▁Maria	-10.6965
▁Fa	-10.697
▁engage	-10.6978
▁{{	-10.6981
▁1995	-10.6983
▁picturesque	-10.6986
▁Front	-10.6986
Its	-10.6988
▁tables	-10.6989
▁Inc	-10.6991
▁Belgian	-10.6992
▁Australia	-10.6994
▁assembly	-10.6994
▁insist	-10.6996
▁determination	-10.6998
Co	-10.7001
▁est	-10.7002
▁percentage	-10.7007
▁saving	-10.7011
▁panoramic	-10.7012
▁Americans	-10.7019
▁lived	-10.7023
▁index	-10.7033
▁condemn	-10.7042
▁trouble	-10.7045
ET	-10.7053
lan	-10.7059
▁hiking	-10.706
▁varied	-10.7062
▁visual	-10.7064
Consequently	-10.7077
▁anniversary	-10.7077
▁les	-10.708
▁targeted	-10.7081
▁listings	-10.7084
▁appropriations	-10.7084
▁minister	-10.7084
▁checks	-10.7084
▁manufacture	-10.7086
▁metro	-10.7093
del	-10.7094
dis	-10.7098
▁prize	-10.7102
▁CAP	-10.7104
▁welcomes	-10.7114
▁arising	-10.7115
ps	-10.7118
▁sensible	-10.7118
ow	-10.7123
▁lobby	-10.7131
log	-10.7133
▁Deutsche	-10.7133
▁Two	-10.7133
▁engaged	-10.7136
()	-10.7138
▁promise	-10.714
▁1980	-10.714
▁Women	-10.715
-1	-10.7151
country	-10.7155
▁teaching	-10.7156
▁Vi	-10.7157
▁everywhere	-10.7157
▁Post	-10.716
▁Vo	-10.7161
▁Executive	-10.7162
▁ne	-10.7164
avi	-10.7173
▁pretty	-10.7191
▁individually	-10.7194
▁organise	-10.7194
▁student	-10.7198
▁PDF	-10.7202
▁phenomenon	-10.7212
▁kernel	-10.7214
▁por	-10.7215
▁sex	-10.7219
▁liked	-10.7219
▁pilot	-10.7219
▁AND	-10.722
▁Ti	-10.7223
▁processed	-10.7223
▁factory	-10.7224
▁Protocol	-10.7225
▁referring	-10.7226
▁diplomatic	-10.7229
▁native	-10.723
▁stars	-10.7237
▁execution	-10.724
my	-10.7248
▁Director	-10.7248
▁stages	-10.7251
▁Online	-10.7254
▁labor	-10.7254
ez	-10.7264
▁damages	-10.7265
▁jurisdiction	-10.7267
▁Civil	-10.7268
▁sights	-10.7271
▁presenting	-10.7272
▁executive	-10.7273
▁videos	-10.7275
▁computers	-10.7278
▁usage	-10.7283
table	-10.7285
cher	-10.7288
our	-10.7292
▁mistake	-10.7298
▁profits	-10.7302
▁consequence	-10.7303
▁pain	-10.7304
▁NGOs	-10.7312
▁entering	-10.7315
▁urgently	-10.7319
ok	-10.732
▁Therefore	-10.7329
▁Hotels	-10.733
▁liable	-10.7332
▁afford	-10.7332
▁communicate	-10.7333
right	-10.7335
▁fairly	-10.7336
han	-10.7336
iz	-10.7339
phrase	-10.7344
▁stuff	-10.7351
▁indoor	-10.7353
tur	-10.7356
▁Note	-10.7357
▁till	-10.7358
nic	-10.7359
▁load	-10.7361
▁holds	-10.7362
▁geographical	-10.7364
Ma	-10.7364
ification	-10.7367
wi	-10.7367
▁Ombudsman	-10.7369
list	-10.7369
▁cancellation	-10.7369
35	-10.7373
▁occurred	-10.7373
▁Project	-10.7374
▁recording	-10.7375
▁Budgets	-10.7375
▁normally	-10.7378
"	-10.7382
▁intends	-10.7385
▁prospects	-10.7387
▁III	-10.7387
Lastly	-10.7391
▁3-	-10.7398
▁promised	-10.7398
▁villa	-10.7399
▁ordered	-10.7404
▁underground	-10.7406
▁efficiently	-10.7406
tter	-10.7414
ari	-10.7417
▁mis	-10.742
▁Denmark	-10.7421
▁succeeded	-10.7422
▁Bi	-10.7423
▁Welcome	-10.7423
▁ad	-10.743
▁strictly	-10.7431
▁stunning	-10.7433
▁euros	-10.7436
ON	-10.7439
▁relative	-10.744
EN	-10.744
▁Ben	-10.744
▁magazine	-10.7443
▁2007,	-10.7443
▁superior	-10.7446
▁cultures	-10.7447
▁ecological	-10.7448
▁sphere	-10.7457
▁incorporated	-10.7459
▁Georgia	-10.746
▁coherent	-10.7461
▁overlooking	-10.7462
ves	-10.7465
▁threats	-10.7466
Like	-10.7466
Having	-10.7469
▁highlights	-10.7469
▁10%	-10.7469
▁highlighted	-10.747
▁lasting	-10.7473
▁Die	-10.7476
▁twice	-10.7479
▁essentially	-10.7483
▁Life	-10.7484
▁newsletter	-10.7486
▁medicine	-10.7488
▁scientists	-10.7489
▁printed	-10.7494
▁intelligent	-10.7496
cho	-10.7497
▁kilometres	-10.7501
which	-10.7501
▁reserved	-10.7502
▁Card	-10.7504
▁belief	-10.7507
▁destroy	-10.7511
▁boot	-10.7513
zen	-10.7517
▁acquired	-10.7518
▁toward	-10.7522
▁permit	-10.7527
ou	-10.7527
▁tracks	-10.7533
▁adventure	-10.7535
Your	-10.7535
▁Manager	-10.7535
Such	-10.7535
,”	-10.7541
▁shift	-10.7546
▁heading	-10.7547
▁resulted	-10.7555
▁oldest	-10.7556
▁gradually	-10.7558
▁Wa	-10.7562
▁formats	-10.7563
▁er	-10.7564
▁Exchange	-10.7569
▁surprise	-10.7572
▁layout	-10.7574
res	-10.7575
▁revenue	-10.7576
▁territorial	-10.7577
▁operator	-10.7584
▁Good	-10.7585
▁treatments	-10.7585
▁feet	-10.7587
Room	-10.759
▁causing	-10.759
kin	-10.7597
▁widespread	-10.7601
▁Obama	-10.7605
▁explanation	-10.7605
▁pillar	-10.7616
▁troops	-10.7618
ip	-10.7621
▁engines	-10.7621
tech	-10.7627
▁relates	-10.7629
▁Education	-10.7637
▁mouse	-10.7638
▁ended	-10.7639
▁winning	-10.7639
▁producer	-10.7642
▁meal	-10.7644
▁sophisticated	-10.7645
▁prisoners	-10.765
hand	-10.7654
▁Other	-10.7658
▁ID	-10.766
▁blind	-10.7663
▁adult	-10.7672
▁combines	-10.7675
las	-10.7676
ara	-10.7678
▁virtually	-10.7678
▁floors	-10.7681
▁encouraged	-10.7682
▁conventional	-10.7685
▁suit	-10.7687
▁achievement	-10.7689
▁environmentally	-10.7692
▁Chi	-10.7693
ey	-10.7694
▁Treaties	-10.7696
▁shuttle	-10.7696
▁occupation	-10.7701
▁Ad	-10.7701
▁seats	-10.7705
▁Land	-10.7708
▁thorough	-10.7715
▁warning	-10.7717
▁manual	-10.7718
▁begins	-10.772
▁aviation	-10.7721
▁clarify	-10.7721
▁candidates	-10.7724
▁participating	-10.7725
▁Water	-10.7727
▁specialists	-10.7736
ji	-10.7739
▁Award	-10.7739
Last	-10.7743
▁observe	-10.7746
▁quote	-10.7754
▁ease	-10.7757
▁sample	-10.7757
▁affects	-10.7759
▁agents	-10.7764
▁Constitutional	-10.7768
▁intensive	-10.777
▁2006,	-10.7774
low	-10.7776
▁recognize	-10.7779
Another	-10.7779
▁calendar	-10.778
▁alongside	-10.7782
gan	-10.7784
▁harmful	-10.7787
▁superb	-10.7788
ement	-10.7789
▁prison	-10.7793
▁dispute	-10.7793
▁compete	-10.7801
▁restricted	-10.7803
▁utmost	-10.7806
▁attached	-10.781
ben	-10.7818
lar	-10.782
▁designs	-10.7822
▁contextual	-10.7823
▁solar	-10.7823
▁fax	-10.7825
pre	-10.7826
ray	-10.7827
▁Com	-10.7831
▁miss	-10.7837
▁observed	-10.7839
▁notes	-10.784
▁Customer	-10.7844
26	-10.7846
▁Forum	-10.7848
▁Systems	-10.7848
▁JavaScript	-10.785
Without	-10.7852
▁adds	-10.7852
▁convergence	-10.7854
▁associations	-10.7855
▁spite	-10.7858
gar	-10.7858
Tip	-10.786
▁retain	-10.7861
▁armed	-10.7869
▁Bre	-10.7871
▁Via	-10.7871
▁accidents	-10.7873
▁convention	-10.7877
▁purely	-10.788
▁principal	-10.7881
Besides	-10.7886
▁produces	-10.7886
▁pa	-10.789
▁Ex	-10.7891
▁NI	-10.7893
▁surprised	-10.7902
▁grown	-10.7903
nes	-10.7904
▁unfair	-10.7904
▁quotas	-10.7913
▁Anti	-10.7914
ese	-10.7918
▁survey	-10.7918
”"	-10.7922
▁stick	-10.7925
▁George	-10.793
▁composition	-10.7933
▁Cor	-10.7935
▁Danish	-10.7936
ments	-10.794
▁Hi	-10.7945
▁recall	-10.7945
▁integrate	-10.7948
▁auf	-10.795
▁teachers	-10.7956
▁serving	-10.7957
▁capabilities	-10.7958
Within	-10.7959
▁Rotary	-10.7965
▁Very	-10.797
▁seeks	-10.7971
ot	-10.7972
▁casino	-10.7975
▁),	-10.7976
▁hidden	-10.7977
▁Who	-10.798
▁ball	-10.7984
ong	-10.7998
▁Gold	-10.8002
▁height	-10.8002
▁Prodi	-10.8002
64	-10.8003
▁rely	-10.8006
▁wooden	-10.8007
▁specialized	-10.8016
▁upgrade	-10.8017
▁records	-10.8018
▁king	-10.8018
▁adding	-10.8021
▁thumbnail	-10.8022
▁ca	-10.8023
500	-10.8025
▁secondly	-10.8027
▁tra	-10.8027
▁Ga	-10.8029
▁Representative	-10.8044
32	-10.8046
▁protest	-10.8049
▁airports	-10.8056
▁graphics	-10.8058
can	-10.806
▁electrical	-10.8063
ED	-10.8066
SE	-10.8069
▁chair	-10.8069
▁expense	-10.807
▁oppose	-10.8074
▁Gu	-10.8076
ato	-10.8078
▁wear	-10.8078
▁il	-10.808
▁marks	-10.8081
▁passing	-10.8081
▁Industry	-10.8082
▁estimated	-10.8082
06	-10.8085
down	-10.8089
▁Dublin	-10.809
▁Server	-10.8091
▁ho	-10.8098
CS	-10.8098
è	-10.81
▁raising	-10.8103
▁Notes	-10.8112
95	-10.8113
▁extending	-10.8121
▁inspired	-10.8128
▁audience	-10.8132
ther	-10.8134
oriented	-10.8142
▁harm	-10.8145
▁meals	-10.8145
23	-10.8147
▁minor	-10.815
▁inadequate	-10.8154
▁airlines	-10.8155
▁ratification	-10.8162
▁filter	-10.8162
▁discount	-10.8168
▁Sun	-10.8168
▁View	-10.8169
▁stories	-10.817
▁sufficiently	-10.8172
▁tend	-10.8172
▁violation	-10.8174
tri	-10.8176
▁Fundamental	-10.8177
▁hills	-10.8178
▁implications	-10.818
▁initially	-10.8181
state	-10.8185
ST	-10.8192
▁victory	-10.8193
▁ein	-10.8195
▁dialog	-10.8197
▁negotiation	-10.8201
▁flows	-10.8211
▁multilateral	-10.8215
ME	-10.8222
ella	-10.8223
▁bathrooms	-10.8225
▁crises	-10.8227
ified	-10.8228
▁dollar	-10.8229
▁ruling	-10.8231
ably	-10.8233
▁assigned	-10.8238
▁bonus	-10.8239
31	-10.8242
▁medieval	-10.8243
▁describe	-10.8245
ade	-10.8249
▁colors	-10.8251
▁classical	-10.8252
▁withdraw	-10.8254
▁servers	-10.8257
▁sweet	-10.8266
tt	-10.8267
ute	-10.8268
▁Slovakia	-10.8268
▁approaches	-10.827
27	-10.8272
▁blocks	-10.8278
▁meets	-10.8279
Mo	-10.8284
▁mu	-10.8286
▁federal	-10.8288
▁advise	-10.8291
▁RE	-10.8294
mark	-10.8294
▁soul	-10.8306
▁gift	-10.8308
▁Family	-10.8309
▁shortly	-10.831
▁considers	-10.8317
▁studied	-10.832
▁promises	-10.8326
▁reflection	-10.8328
▁Terms	-10.8332
▁Garden	-10.8333
▁amended	-10.8334
▁Java	-10.8336
▁meaningfully	-10.8343
chen	-10.8345
NL	-10.8346
▁developers	-10.8348
▁navigation	-10.8349
▁whereby	-10.8357
ec	-10.8359
▁Cup	-10.8359
ien	-10.8362
▁schemes	-10.8363
▁chapter	-10.8365
Pro	-10.8367
▁guided	-10.8369
▁empty	-10.8371
▁informal	-10.8372
▁splendid	-10.8374
▁escape	-10.8375
▁heads	-10.8383
▁00	-10.8386
▁ma	-10.8387
▁Ab	-10.8388
▁Network	-10.8394
▁Ltd	-10.8398
▁poorest	-10.84
▁governing	-10.8401
Me	-10.8406
▁semi	-10.8411
iv	-10.8411
▁repeated	-10.8412
▁concentration	-10.8415
▁iron	-10.8422
▁believed	-10.8423
▁choices	-10.8424
▁Fisheries	-10.8429
▁characteristic	-10.843
▁edited	-10.843
▁1993	-10.8431
▁Kong	-10.8437
▁enforcement	-10.8449
▁timetable	-10.845
tin	-10.845
▁Meeting	-10.8453
AT	-10.8455
▁ingredients	-10.8459
▁admit	-10.846
▁?	-10.8463
▁yes	-10.8463
Member	-10.8464
▁(""	-10.8466
▁taxi	-10.8467
04	-10.8467
▁satisfactory	-10.8469
▁bug	-10.847
▁Guests	-10.8472
▁appointment	-10.8473
ura	-10.8473
grammatically	-10.8477
EU	-10.8477
sta	-10.8479
▁academic	-10.848
▁Team	-10.8485
▁steam	-10.8486
ska	-10.8495
▁medicines	-10.8497
▁plug	-10.8498
▁operates	-10.8504
▁scheduled	-10.8507
▁neighbours	-10.8509
▁fa	-10.8513
▁addressing	-10.8513
100	-10.8513
▁wave	-10.8514
▁contextually	-10.8515
▁constitutes	-10.8516
29	-10.8517
▁Commissioners	-10.8518
▁urgency	-10.852
▁info	-10.8526
▁rubber	-10.8532
▁reporting	-10.8536
market	-10.854
▁gra	-10.854
▁conferences	-10.8546
▁Robert	-10.8547
▁remarkable	-10.8548
eu	-10.8549
MA	-10.8552
ep	-10.8556
▁cancel	-10.8556
▁employed	-10.8561
bra	-10.8569
▁bought	-10.8576
ena	-10.8577
▁strike	-10.8578
Due	-10.8585
▁chairman	-10.8588
nn	-10.8588
▁distinction	-10.8589
▁48	-10.8591
▁compulsory	-10.8592
▁Tu	-10.8595
▁Wall	-10.8597
▁Tor	-10.8598
▁logic	-10.8598
▁Authority	-10.86
▁2005,	-10.86
▁joining	-10.8602
▁certification	-10.8607
▁IMF	-10.8608
▁conciliation	-10.8611
▁technique	-10.8617
ological	-10.8617
▁moreover	-10.8623
▁budgets	-10.8623
▁Box	-10.8625
▁legitimacy	-10.8627
▁Cuba	-10.8628
sion	-10.864
▁incentives	-10.8643
▁desktop	-10.8648
▁Ru	-10.8649
▁ultimate	-10.8649
28	-10.8654
▁alarm	-10.8658
MO	-10.866
▁ratio	-10.8662
ham	-10.8665
▁Jean	-10.8667
▁das	-10.8673
▁relationships	-10.8676
▁stores	-10.8677
▁bearing	-10.8679
water	-10.868
▁completion	-10.8684
ida	-10.8685
▁marine	-10.8685
.”	-10.8685
▁Sol	-10.8686
▁behavior	-10.8692
▁codecision	-10.87
Those	-10.87
Christian	-10.87
▁sheet	-10.8712
ros	-10.8713
▁1994	-10.8714
▁translated	-10.8717
hour	-10.8719
▁debating	-10.872
Star	-10.8724
07	-10.8728
▁800	-10.8729
including	-10.8729
ell	-10.8729
▁mere	-10.8735
▁falls	-10.8737
DS	-10.8738
▁array	-10.8748
▁Main	-10.8751
cal	-10.8752
▁campaigns	-10.8753
▁accounting	-10.8757
▁favourable	-10.8764
point	-10.8764
▁Employment	-10.8764
▁collapse	-10.8769
▁theatre	-10.877
▁portal	-10.8773
▁fascinating	-10.8777
▁Hong	-10.8782
▁Second	-10.8783
▁believes	-10.8783
▁genuinely	-10.8784
▁preferred	-10.8785
FI	-10.8786
▁repeatedly	-10.8791
▁pop	-10.8792
gra	-10.8798
▁Games	-10.88
▁Video	-10.88
▁2010,	-10.8803
▁begun	-10.8806
▁las	-10.8808
▁deserves	-10.8808
▁Cooperation	-10.8809
▁roll	-10.881
▁fewer	-10.8811
▁coastal	-10.8814
▁foremost	-10.8817
PC	-10.8819
▁Kyoto	-10.8825
34	-10.8826
▁ethical	-10.8826
from	-10.8828
med	-10.8831
▁David	-10.8833
▁underlying	-10.8834
▁broken	-10.8836
▁enjoying	-10.8839
well	-10.884
RA	-10.884
▁Program	-10.8841
▁foundations	-10.8842
▁guaranteeing	-10.8844
ants	-10.8861
▁seemed	-10.8862
▁branch	-10.8867
▁subsequently	-10.887
▁unnecessary	-10.8871
▁exposed	-10.8877
▁maybe	-10.8877
▁autumn	-10.8883
sp	-10.889
▁conversion	-10.8891
▁hence	-10.8891
▁Common	-10.8892
▁allocation	-10.8895
▁Har	-10.8898
▁passion	-10.8899
▁mine	-10.89
▁Their	-10.8903
▁journalists	-10.8903
des	-10.8904
▁Wednesday	-10.8906
▁Christ	-10.8908
▁transaction	-10.8909
▁250	-10.891
▁speeches	-10.8911
▁actors	-10.8911
TS	-10.8911
gy	-10.8916
ches	-10.8918
▁boasts	-10.892
▁Support	-10.8923
▁dramatic	-10.8928
▁Yet	-10.8928
▁baby	-10.8929
▁mixed	-10.893
▁pan	-10.894
▁economically	-10.8949
▁Department	-10.8949
▁refused	-10.8956
▁z	-10.8956
▁boats	-10.8957
ple	-10.8962
▁Internal	-10.8963
rt	-10.8966
▁neighbourhood	-10.8969
33	-10.897
mal	-10.8982
▁pour	-10.8982
▁Academy	-10.8982
▁Florence	-10.8982
▁aside	-10.8984
▁frequent	-10.8984
ette	-10.8984
▁examination	-10.8988
▁secondary	-10.899
▁wife	-10.8991
▁DE	-10.8993
▁pace	-10.8999
▁Jewish	-10.9007
▁twin	-10.9014
vers	-10.9016
▁owned	-10.9017
▁Super	-10.9018
hl	-10.9018
▁busy	-10.9022
▁Auto	-10.9026
75	-10.9042
▁favourite	-10.9044
39	-10.9046
lecommunications	-10.9047
▁tragic	-10.9048
▁sovereign	-10.9052
▁Ministry	-10.9053
OR	-10.9053
▁vocational	-10.9053
▁Men	-10.9056
▁instantly	-10.9056
▁residential	-10.9057
▁representing	-10.9058
▁willingness	-10.9059
▁mechanical	-10.9061
▁Bosnia	-10.9064
▁openness	-10.9069
▁bill	-10.907
▁considerations	-10.9076
▁girls	-10.9082
▁expanded	-10.9088
▁productive	-10.9089
▁asset	-10.909
▁sorry	-10.9092
▁che	-10.9093
session	-10.9095
▁operated	-10.9096
▁textile	-10.9096
▁checked	-10.9102
tte	-10.9109
▁removal	-10.9111
ky	-10.9113
▁Trans	-10.9117
▁folder	-10.9117
▁amending	-10.9118
▁arrange	-10.9119
ale	-10.9126
MS	-10.9127
▁logo	-10.9134
ks	-10.9135
▁Alps	-10.9135
ious	-10.9137
terinstitutional	-10.914
▁jointly	-10.9141
▁expenses	-10.9146
▁prospect	-10.9147
}})	-10.9153
AS	-10.9156
▁slopes	-10.9156
▁Za	-10.9171
ili	-10.9173
▁managers	-10.9176
▁salt	-10.9178
▁Plaza	-10.9179
▁Poker	-10.9179
▁600	-10.9189
▁lively	-10.919
▁listening	-10.9191
▁inspection	-10.9192
▁references	-10.9195
▁Muslim	-10.9195
▁devoted	-10.9196
economic	-10.9196
▁optimal	-10.9198
▁apparent	-10.9198
DA	-10.9199
▁intentions	-10.9202
▁Skype	-10.9205
new	-10.9205
▁Heads	-10.9206
▁sa	-10.9208
▁measurement	-10.9208
▁r	-10.9208
▁clarity	-10.9208
▁Area	-10.921
cc	-10.9215
▁ownership	-10.9218
box	-10.922
▁travellers	-10.9221
▁accordingly	-10.9223
▁simultaneously	-10.9223
▁importantly	-10.923
▁string	-10.9236
▁Where	-10.9237
▁tragedy	-10.9238
▁cap	-10.9239
act	-10.924
▁terrible	-10.9242
▁Monte	-10.9245
IP	-10.9248
▁purchased	-10.9249
long	-10.9255
▁sky	-10.9257
▁crystal	-10.9258
▁arranged	-10.9263
▁realize	-10.9265
▁complaints	-10.9267
▁featuring	-10.9268
▁fell	-10.927
ee	-10.9271
ntergovernmental	-10.9272
▁Fair	-10.9274
ris	-10.9275
▁Dis	-10.9284
▁Pan	-10.9284
▁beings	-10.9285
▁USD	-10.9288
▁Holiday	-10.9293
▁Ch	-10.9305
▁hill	-10.9307
TA	-10.9313
▁accessories	-10.9323
▁spectrum	-10.9323
▁sake	-10.9325
▁bigger	-10.9326
speed	-10.9329
▁excursions	-10.9332
▁Mark	-10.9336
▁justify	-10.9337
gel	-10.9338
▁clicking	-10.9339
▁harbour	-10.9345
▁Mu	-10.9346
▁Section	-10.9347
▁2000,	-10.9348
rk	-10.935
▁revised	-10.9352
▁clock	-10.9354
05	-10.9356
cre	-10.9358
▁chat	-10.9358
▁Morocco	-10.9358
▁Budget	-10.936
▁Moscow	-10.9365
▁fi	-10.9365
▁Left	-10.9368
▁External	-10.9375
ging	-10.9375
▁th	-10.9375
ces	-10.9377
illa	-10.9378
▁Jan	-10.9381
▁vary	-10.9381
▁expressly	-10.9382
▁whatsoever	-10.9384
▁ill	-10.9387
▁continuously	-10.9388
CH	-10.9389
▁Read	-10.9391
Through	-10.9392
uring	-10.9393
▁certified	-10.9394
▁forth	-10.9397
▁favorite	-10.9398
▁composed	-10.9398
▁Salzburg	-10.94
▁SA	-10.9405
▁fifth	-10.9407
▁Show	-10.9409
▁affecting	-10.9417
▁catalogue	-10.9418
▁grand	-10.9418
▁refuse	-10.9418
amp	-10.9423
▁false	-10.9424
▁suggests	-10.9424
▁afraid	-10.9427
▁sunny	-10.9428
▁deadline	-10.9431
▁publish	-10.9433
ert	-10.9434
▁1970	-10.9437
▁react	-10.9439
▁promoted	-10.9441
▁archive	-10.9446
▁transit	-10.9447
ue	-10.9448
▁motorway	-10.9449
cent	-10.945
▁manufactured	-10.945
IS	-10.9455
fo	-10.9455
▁Part	-10.9455
▁eurozone	-10.9458
▁cheese	-10.9462
▁Chairman	-10.9465
vent	-10.9467
▁Place	-10.9467
rie	-10.9469
▁OS	-10.9469
▁unity	-10.9472
ius	-10.9473
▁convenience	-10.9479
▁diving	-10.948
▁arrangement	-10.9484
;"	-10.9488
▁declare	-10.9489
▁modify	-10.9491
▁staying	-10.9498
▁regulate	-10.9502
▁electoral	-10.9505
▁driven	-10.9505
▁observation	-10.9506
▁Space	-10.9509
▁examined	-10.951
▁transformation	-10.9517
▁forgotten	-10.9521
▁Product	-10.9522
▁5-	-10.9522
200	-10.9523
▁authentic	-10.9527
▁withdrawal	-10.9536
▁depth	-10.9537
▁Greens	-10.9541
▁earn	-10.9553
▁1991	-10.9554
▁Ke	-10.9555
▁letters	-10.9556
▁MySQL	-10.9558
▁orientation	-10.9558
▁Ci	-10.9561
everal	-10.9562
▁greenhouse	-10.9564
▁sizes	-10.9564
Al	-10.9568
▁destinations	-10.9568
▁honest	-10.9573
▁Gaza	-10.9574
▁Ce	-10.9574
▁basically	-10.9575
Where	-10.9576
▁breach	-10.9577
▁dem	-10.9579
▁2004,	-10.9581
▁Player	-10.9582
▁Blue	-10.9582
AM	-10.9583
▁transitional	-10.9586
▁pharmaceutical	-10.9586
▁violent	-10.9587
▁delete	-10.9591
▁falling	-10.9592
▁cm	-10.9594
▁granting	-10.9595
ney	-10.9596
▁painting	-10.9598
▁120	-10.9599
pp	-10.9602
ido	-10.9603
▁replacement	-10.9606
▁ro	-10.9606
▁bi	-10.9607
▁tower	-10.9608
▁ring	-10.9609
▁frequency	-10.9609
▁integrity	-10.9611
▁riding	-10.9617
▁certificate	-10.9618
▁split	-10.9619
▁deserve	-10.9622
▁losing	-10.9625
▁stopped	-10.9625
being	-10.9626
haus	-10.9631
▁interaction	-10.9632
▁broader	-10.9632
▁focuses	-10.9634
▁nobody	-10.9636
▁Finnish	-10.9637
▁é	-10.9638
▁undertake	-10.9641
▁duration	-10.9642
▁beef	-10.9643
▁enjoys	-10.9645
▁puts	-10.9646
▁beer	-10.9646
▁Prize	-10.9646
card	-10.9647
▁Website	-10.9652
▁specially	-10.9658
▁opens	-10.9659
▁pattern	-10.9666
IA	-10.9668
▁sur	-10.9668
▁knew	-10.9669
▁tab	-10.9669
▁accommodate	-10.9669
▁faces	-10.9673
▁tram	-10.9678
▁interactive	-10.968
▁renewed	-10.9681
▁quantity	-10.9682
▁seconds	-10.9684
PS	-10.9687
work	-10.969
▁formula	-10.9692
▁smart	-10.9695
▁contractual	-10.9696
RE	-10.9698
▁evaluate	-10.97
▁1989	-10.9704
▁Palestinians	-10.9705
az	-10.9706
▁residents	-10.9706
▁accuracy	-10.9707
▁Flash	-10.9711
vin	-10.9713
▁stressed	-10.9714
lle	-10.9717
▁schedule	-10.9717
En	-10.9719
bus	-10.972
lich	-10.9722
▁ceiling	-10.9725
▁acquire	-10.9727
▁inner	-10.9728
▁healthcare	-10.9732
oc	-10.9732
▁2.0	-10.9737
▁territories	-10.974
▁GNU	-10.974
▁Iraqi	-10.974
▁retail	-10.9746
ai	-10.975
02	-10.975
▁sailing	-10.9752
▁senior	-10.9753
▁flash	-10.9753
SA	-10.9754
▁belongs	-10.9763
▁booked	-10.9764
▁soldiers	-10.9766
bu	-10.9767
▁buses	-10.9768
▁Sie	-10.9769
▁Does	-10.9771
▁gross	-10.9781
Very	-10.9781
▁Single	-10.9782
▁authors	-10.9782
▁pools	-10.9783
▁(2	-10.9785
ag	-10.9786
tan	-10.9786
▁moments	-10.9788
▁buying	-10.9793
▁ideally	-10.9795
len	-10.9801
screen	-10.9806
▁logical	-10.9806
▁hesitate	-10.9807
▁newspaper	-10.9816
▁mouth	-10.9819
36	-10.9821
▁loans	-10.9826
▁relief	-10.983
▁explicitly	-10.983
▁beneficial	-10.983
Any	-10.9833
▁regulated	-10.9842
▁identification	-10.9843
▁delays	-10.9847
ala	-10.9851
▁Ku	-10.9857
▁Partnership	-10.9857
▁intervene	-10.9858
▁whenever	-10.986
▁pot	-10.986
▁architectural	-10.9861
ane	-10.9862
▁restrict	-10.9866
▁variable	-10.9871
▁Suite	-10.9874
▁Syria	-10.9877
▁researchers	-10.9878
▁arrest	-10.9878
▁silence	-10.9879
▁recession	-10.988
▁poker	-10.988
▁Los	-10.9887
▁monuments	-10.9888
▁negotiate	-10.9894
▁Sal	-10.9896
▁postal	-10.9899
▁necessity	-10.9902
▁prestigious	-10.9907
Among	-10.9909
▁surveillance	-10.9911
tis	-10.9912
▁hopes	-10.9912
▁capture	-10.9913
▁freight	-10.9913
▁therapy	-10.9914
▁suited	-10.9915
▁spare	-10.9916
▁brain	-10.992
▁civilian	-10.992
▁cancelled	-10.9925
▁constructed	-10.9926
▁judge	-10.9926
Smoking	-10.9929
▁automotive	-10.9929
▁airline	-10.993
▁adjustment	-10.9939
▁ignore	-10.9941
Note	-10.9942
▁evident	-10.9943
▁doubts	-10.9946
▁mental	-10.9947
▁achievements	-10.9948
▁tough	-10.995
▁pensions	-10.9952
bel	-10.9955
▁pressing	-10.9958
▁dimensions	-10.9959
ms	-10.9961
▁Have	-10.9966
▁opt	-10.9969
▁complement	-10.9972
▁male	-10.9972
▁machinery	-10.9974
▁transfers	-10.9976
▁bay	-10.9979
ast	-10.9981
▁segment	-10.9981
▁revealed	-10.9987
via	-10.9988
▁Gran	-10.999
▁paths	-10.9997
▁Storage	-10.9998
▁publishing	-10.9999
▁ends	-11.0002
▁Bad	-11.0003
TE	-11.0007
▁Airbus	-11.0008
▁Opera	-11.0009
▁affordable	-11.0014
▁Marina	-11.0016
▁precious	-11.0017
▁prevented	-11.0021
burg	-11.0022
▁Gra	-11.0027
▁op	-11.0028
▁officially	-11.003
ned	-11.0031
▁mirror	-11.0034
▁employers	-11.0035
▁pe	-11.0037
OS	-11.0038
mes	-11.0038
€	-11.0039
▁focusing	-11.0043
▁suspended	-11.0045
99	-11.0046
▁rain	-11.0047
▁Liberal	-11.005
ste	-11.0053
▁flag	-11.0054
▁installations	-11.0055
▁preparations	-11.0056
▁uncertainty	-11.0058
▁noon	-11.006
▁novel	-11.0061
▁exploit	-11.0062
▁Yugoslavia	-11.0065
tain	-11.0067
▁adjust	-11.0067
▁chose	-11.0067
od	-11.0076
▁conservation	-11.0076
▁Empire	-11.0086
▁Gentoo	-11.0086
Two	-11.0087
▁negotiated	-11.0089
▁exhibitions	-11.0091
SV	-11.0093
▁Si	-11.0095
ph	-11.0104
▁Live	-11.0105
55	-11.0106
▁zero	-11.0106
▁unusual	-11.0107
▁worrying	-11.0108
▁tape	-11.0108
lit	-11.0114
▁compare	-11.0116
▁preserved	-11.0116
▁Communist	-11.0117
▁presidential	-11.0119
▁st	-11.0124
▁Hostel	-11.0124
▁indicators	-11.0128
▁ob	-11.0128
▁laser	-11.0128
▁ratified	-11.0132
▁coal	-11.0132
▁Iranian	-11.0139
▁Download	-11.014
▁fly	-11.0145
cia	-11.0148
▁Pen	-11.0149
▁differ	-11.015
▁taxpayers	-11.0155
▁Maastricht	-11.0155
▁threatened	-11.0157
ng	-11.0158
▁Olympic	-11.0159
▁premium	-11.0161
▁Budapest	-11.0162
ere	-11.0162
▁debated	-11.0164
▁Ve	-11.0167
▁magic	-11.0167
▁Society	-11.0168
▁organize	-11.017
cy	-11.0173
▁Quality	-11.0177
▁fat	-11.0178
▁strive	-11.0179
▁relaxed	-11.0179
▁parks	-11.0182
▁doctor	-11.0182
▁Because	-11.0186
▁Las	-11.0194
av	-11.0198
▁certainty	-11.0201
els	-11.0204
LT	-11.021
CE	-11.0215
▁charter	-11.0215
▁Growth	-11.0216
▁Standard	-11.0218
▁sandy	-11.0225
▁throw	-11.0225
▁cookies	-11.0227
▁rear	-11.0228
nie	-11.0229
TV	-11.0231
▁ocean	-11.0235
▁trained	-11.0235
▁acquisition	-11.0235
▁Hostelsclub	-11.0244
▁supplementary	-11.0245
▁Washington	-11.0248
ei	-11.0248
▁citizenship	-11.025
born	-11.025
▁alternatives	-11.0251
▁literature	-11.0254
▁Milan	-11.0255
zer	-11.0256
▁exposure	-11.0258
▁concerts	-11.026
▁Find	-11.0265
▁cu	-11.027
▁Over	-11.0272
▁tu	-11.0273
top	-11.0276
▁1000	-11.0277
Can	-11.0278
bin	-11.0279
▁attended	-11.0288
▁insufficient	-11.0291
▁grave	-11.0292
▁photographs	-11.0296
▁Deposit	-11.0297
▁convert	-11.0298
service	-11.0298
▁convince	-11.0302
ct	-11.0303
▁argue	-11.0304
▁brands	-11.0304
nal	-11.0305
Hour	-11.0311
serv	-11.0312
▁judgment	-11.0316
▁Les	-11.0316
▁cameras	-11.0317
▁roots	-11.0318
▁36	-11.0323
▁comprises	-11.0325
▁Would	-11.0327
▁unknown	-11.0329
Apart	-11.0329
▁announce	-11.0331
▁hospital	-11.0332
▁winner	-11.0334
▁purchasing	-11.0334
án	-11.0334
▁logistics	-11.0335
ped	-11.0338
LE	-11.034
▁thanking	-11.0342
▁ultra	-11.0348
66	-11.035
ans	-11.0352
$	-11.0353
▁notion	-11.0358
▁Putin	-11.036
▁wage	-11.0362
▁Investment	-11.0364
▁stance	-11.0365
▁coordinate	-11.0366
Both	-11.0367
▁Bio	-11.0369
▁Studio	-11.0372
▁2003,	-11.0374
ID	-11.0375
▁wheel	-11.0375
▁silver	-11.0377
book	-11.0378
▁applicant	-11.0383
▁bureaucracy	-11.0391
▁1992	-11.0394
▁emerged	-11.0398
part	-11.0399
▁strange	-11.0399
▁ranging	-11.0402
▁signing	-11.0406
▁imported	-11.0418
▁Order	-11.0422
▁Zurich	-11.0425
▁claimed	-11.0436
▁blame	-11.0436
▁belonging	-11.0436
▁venture	-11.0436
▁consistently	-11.0439
▁heavily	-11.0444
IL	-11.0445
ming	-11.045
▁Light	-11.0451
▁Bu	-11.0458
▁consult	-11.0464
▁creature	-11.0466
▁privileged	-11.0472
▁feedback	-11.0473
▁Bureau	-11.0478
▁Road	-11.048
▁contributing	-11.0487
▁mandatory	-11.0487
▁dual	-11.0488
ral	-11.0488
▁signals	-11.0489
▁Joint	-11.049
-2	-11.0492
▁placing	-11.0497
Un	-11.0498
▁30%	-11.0506
▁mistakes	-11.0506
▁Cologne	-11.0509
▁BSE	-11.0514
▁tonnes	-11.0518
ür	-11.0523
▁farms	-11.0524
▁victim	-11.0524
ever	-11.0527
▁stayed	-11.0528
▁Access	-11.0528
▁unanimously	-11.053
▁notified	-11.0531
49	-11.0532
▁moderate	-11.0537
▁Europol	-11.0539
▁typically	-11.0542
▁Apartments	-11.0543
▁fails	-11.0544
▁respects	-11.0547
▁genetic	-11.0548
▁generous	-11.0549
▁systematic	-11.0553
▁biological	-11.0555
▁notably	-11.0555
operation	-11.0557
▁turns	-11.0558
▁essence	-11.056
mat	-11.0563
▁specify	-11.0565
▁clothing	-11.0565
▁Va	-11.0565
▁churches	-11.0571
▁publications	-11.0572
▁demonstrates	-11.0572
▁credible	-11.0574
▁pursuan	-11.0574
▁closing	-11.0574
▁keen	-11.0576
▁rational	-11.0584
▁deficits	-11.0585
▁Photo	-11.0591
ick	-11.0591
▁Charles	-11.0592
▁wherever	-11.0596
▁Kar	-11.0603
▁(1	-11.0603
▁Tra	-11.0611
▁Southern	-11.0614
▁apparently	-11.0615
har	-11.0621
▁elderly	-11.0624
specific	-11.0625
▁experiencing	-11.0628
▁Rural	-11.0629
ern	-11.0632
44	-11.0633
▁qualifications	-11.0639
▁patterns	-11.064
▁precision	-11.0644
▁broadcast	-11.0646
▁indicates	-11.0646
▁procurement	-11.0648
▁trains	-11.0651
▁Press	-11.0651
▁ri	-11.0654
.1	-11.0659
▁alike	-11.0664
field	-11.0666
▁sentence	-11.0666
▁measuring	-11.0667
▁financed	-11.0669
win	-11.067
▁imposing	-11.0672
▁Head	-11.0677
▁contest	-11.0677
▁chief	-11.0677
eth	-11.0678
▁hide	-11.0683
▁occurs	-11.0685
▁formation	-11.0685
▁pen	-11.0689
▁Taiwan	-11.069
▁conventions	-11.0691
▁intelligence	-11.0692
▁leather	-11.0692
elle	-11.0692
▁flying	-11.0692
▁proximity	-11.0697
▁downloaded	-11.0697
▁fate	-11.07
▁icon	-11.0705
▁assurance	-11.0705
▁populations	-11.0705
Should	-11.0705
▁sofa	-11.0708
▁patents	-11.0712
▁opera	-11.0714
▁chemicals	-11.0719
ual	-11.072
▁initiated	-11.0721
lig	-11.0731
var	-11.0732
▁sensor	-11.0734
▁Conditions	-11.0734
▁edit	-11.074
Enjoy	-11.074
▁statistical	-11.0741
▁discipline	-11.0747
ona	-11.0749
▁slowly	-11.0758
41	-11.0762
AC	-11.0763
▁humanity	-11.0767
▁visitor	-11.0767
▁drinking	-11.0767
▁intense	-11.077
▁copies	-11.0771
▁Children	-11.0772
▁adaptation	-11.0775
▁integral	-11.0777
heim	-11.0783
▁toilet	-11.0784
▁releases	-11.0788
▁potentially	-11.0788
ball	-11.079
German	-11.0791
post	-11.0794
▁competences	-11.0795
▁robust	-11.0796
▁caught	-11.0796
af	-11.0796
2)	-11.0797
▁creativity	-11.08
▁pi	-11.0803
▁confident	-11.0806
▁Burma	-11.0809
▁pursued	-11.081
▁biodiversity	-11.081
▁receipt	-11.081
▁Socialists	-11.0814
▁Far	-11.0815
▁quest	-11.0817
▁converted	-11.0817
gue	-11.0819
eva	-11.0823
▁lock	-11.0827
tern	-11.0827
86	-11.0828
▁Lithuania	-11.0835
▁premises	-11.0838
PA	-11.0841
ula	-11.0843
▁Make	-11.0852
▁unemployed	-11.0856
▁column	-11.0857
▁dog	-11.0862
▁James	-11.0864
▁murder	-11.0864
▁rose	-11.0865
bre	-11.0866
▁smoking	-11.087
▁Perhaps	-11.0872
▁arbitrary	-11.0875
▁headquarters	-11.088
ties	-11.0886
▁deaths	-11.0887
Ha	-11.0887
▁Mal	-11.0888
▁drives	-11.089
▁suggestion	-11.0892
08	-11.0893
▁cooking	-11.0893
▁progressive	-11.0895
▁answered	-11.0898
▁movies	-11.09
▁warmly	-11.0904
▁ambition	-11.0904
▁Sam	-11.0906
▁Youth	-11.0906
▁College	-11.0906
▁horizontal	-11.0906
▁Edition	-11.0907
▁eco	-11.091
38	-11.0911
sid	-11.0913
▁rating	-11.0916
park	-11.0916
▁Cap	-11.0922
▁paradise	-11.0926
ys	-11.0927
Ra	-11.0929
▁interview	-11.0929
▁2.	-11.093
▁innovations	-11.0932
▁Description	-11.0935
▁demographic	-11.0936
▁garage	-11.0936
▁Malta	-11.0937
▁thin	-11.094
pm	-11.0942
▁amend	-11.0945
▁failing	-11.0945
▁Fi	-11.0947
▁treaties	-11.0947
▁visits	-11.0947
▁Democratic	-11.0948
▁Sp	-11.0952
▁arm	-11.0956
03	-11.0959
▁Pacific	-11.0962
▁disputes	-11.0962
sy	-11.0963
▁centers	-11.0964
▁arts	-11.0967
bb	-11.0967
▁wake	-11.0969
▁divide	-11.0972
▁Mor	-11.0982
▁bread	-11.0983
ture	-11.0985
▁row	-11.0987
ante	-11.0989
▁respectively	-11.0991
non	-11.0994
▁handled	-11.0995
▁notification	-11.0997
37	-11.1
▁spiritual	-11.1006
nia	-11.101
aw	-11.101
kt	-11.1017
▁cinema	-11.1018
▁Bra	-11.1025
▁"1	-11.1026
▁undermine	-11.1026
▁Islam	-11.1029
▁posts	-11.103
▁threshold	-11.1032
▁specialities	-11.1034
▁fix	-11.1035
▁partial	-11.1039
Based	-11.104
▁occupied	-11.1042
Why	-11.1044
El	-11.1046
▁Slovenia	-11.1046
▁stops	-11.1046
▁kill	-11.1047
▁Client	-11.1051
▁viable	-11.1052
”.	-11.1055
▁Subject	-11.1063
▁displays	-11.1064
▁Che	-11.1064
ient	-11.1064
▁virus	-11.1073
▁gear	-11.1073
▁crossing	-11.1077
▁75	-11.1078
▁authorisation	-11.1079
▁Thomas	-11.108
uff	-11.1081
▁phones	-11.1081
▁practically	-11.1083
Similarly	-11.1085
▁decent	-11.1085
▁Pra	-11.1088
▁Play	-11.1091
▁shot	-11.1094
▁designer	-11.1094
▁specifications	-11.1094
▁lowest	-11.1098
ras	-11.1098
▁defining	-11.1098
▁Pu	-11.1102
▁tribute	-11.1103
▁Film	-11.1104
▁licence	-11.1104
▁fitted	-11.1105
▁angle	-11.1106
dia	-11.1107
▁worry	-11.111
▁Gi	-11.111
▁workshop	-11.1111
ello	-11.1114
▁delicate	-11.112
▁reiterate	-11.1121
MP	-11.1125
▁voters	-11.1125
▁editor	-11.1129
GA	-11.1135
▁Personal	-11.1138
▁33	-11.114
▁wording	-11.1142
▁assured	-11.1145
▁terminal	-11.1146
▁expanding	-11.1147
br	-11.1148
▁workshops	-11.1149
▁desirable	-11.115
don	-11.115
vel	-11.1152
▁coverage	-11.1153
su	-11.1154
ians	-11.1155
nu	-11.1161
▁tropical	-11.1165
▁Defence	-11.1165
▁torture	-11.1168
▁li	-11.1168
▁enlarged	-11.1168
▁tolerance	-11.117
▁Sport	-11.1171
▁lighting	-11.1179
▁solved	-11.118
▁sessions	-11.1183
▁dating	-11.1184
▁timely	-11.1186
▁controversial	-11.1196
▁Change	-11.1198
▁piano	-11.1202
▁survive	-11.1204
▁Bed	-11.1206
▁terrorists	-11.1208
▁heated	-11.121
▁Select	-11.121
▁graphic	-11.1211
67	-11.1212
Restaurant	-11.1214
SP	-11.1219
ef	-11.122
▁lovers	-11.1224
▁liquid	-11.1225
▁Game	-11.1231
▁audit	-11.1233
hn	-11.1241
▁Scotland	-11.1243
lon	-11.1243
▁crops	-11.1244
SC	-11.1251
▁Digital	-11.1251
▁stroll	-11.1253
▁zones	-11.1255
43	-11.1255
▁findings	-11.1256
▁stimulate	-11.1256
▁Tuesday	-11.1258
▁consequently	-11.126
▁artificial	-11.1263
▁Cathedral	-11.1264
▁eine	-11.1269
▁comparable	-11.1269
▁plain	-11.1271
▁meantime	-11.1274
▁Series	-11.1274
▁sharp	-11.1275
eo	-11.1278
▁harmony	-11.1279
▁End	-11.1282
▁fault	-11.1283
▁moves	-11.1286
▁Process	-11.1287
▁Stockholm	-11.1295
▁substantially	-11.1296
▁avoided	-11.1299
▁perspectives	-11.13
▁Sony	-11.1301
sky	-11.1302
▁Contact	-11.1303
▁peak	-11.1304
▁nonetheless	-11.1305
▁funded	-11.1307
▁tri	-11.1308
47	-11.1309
▁talked	-11.131
▁emphasised	-11.1316
ug	-11.1317
▁describes	-11.132
▁settled	-11.1322
▁Before	-11.1322
ses	-11.1325
▁choosing	-11.1326
ition	-11.1336
▁Cal	-11.1341
▁preliminary	-11.1342
▁Full	-11.1343
▁FOR	-11.1345
▁dollars	-11.1347
▁paint	-11.1354
▁em	-11.1355
▁thoroughly	-11.1356
Their	-11.1359
dic	-11.1359
▁ta	-11.1365
▁Master	-11.1365
▁signature	-11.1373
ati	-11.1375
▁plot	-11.1381
▁Spring	-11.1384
cul	-11.1387
▁Bel	-11.139
▁recover	-11.1392
▁temperatures	-11.1395
RI	-11.1399
▁breathtaking	-11.14
▁Mag	-11.1401
▁degrees	-11.1402
▁entries	-11.1406
▁confusion	-11.1406
▁za	-11.1407
rat	-11.1408
▁scenery	-11.1417
Out	-11.142
▁undertakings	-11.1422
▁lets	-11.1426
▁Adobe	-11.1427
▁worthy	-11.1428
65	-11.1428
ory	-11.1433
▁controlling	-11.1438
▁appreciated	-11.1442
▁teacher	-11.1442
marquis	-11.1442
cker	-11.145
▁Bus	-11.1451
lt	-11.1451
▁celebrate	-11.1451
▁Argentina	-11.1457
▁Elevator	-11.1464
lay	-11.1464
CO	-11.1466
Perhaps	-11.1467
300	-11.1469
▁disappointed	-11.1476
▁evil	-11.1476
▁expressing	-11.1477
UN	-11.148
▁rejection	-11.1483
▁Lebanon	-11.1485
oli	-11.1485
tta	-11.1486
▁).	-11.1489
▁drafting	-11.149
▁Neu	-11.1491
▁emission	-11.1492
uri	-11.1494
▁lifestyle	-11.1495
▁Science	-11.1498
▁photography	-11.1498
▁BE	-11.1499
▁emerge	-11.15
▁encounter	-11.1503
▁detect	-11.1504
such	-11.1505
▁Organization	-11.1512
▁performing	-11.1514
▁2012	-11.1514
▁bureaucratic	-11.1515
▁viewed	-11.1517
▁Ski	-11.1517
▁executed	-11.1518
▁returns	-11.152
▁supplement	-11.1523
hen	-11.1524
vert	-11.1525
▁Top	-11.1526
▁Sta	-11.1531
▁Parliamentary	-11.1533
▁linguistic	-11.1538
▁keys	-11.1538
▁unions	-11.1541
▁Ban	-11.1543
▁Mini	-11.1546
▁investigate	-11.1547
view	-11.1551
▁pact	-11.1551
mit	-11.1552
▁finest	-11.1554
▁explains	-11.1554
▁incentive	-11.1555
▁sad	-11.156
▁lesson	-11.156
▁auction	-11.1561
▁incredible	-11.1565
▁platforms	-11.1566
98	-11.1568
▁Staff	-11.1571
48	-11.1572
▁downtown	-11.1573
ore	-11.1577
▁prohibited	-11.1577
▁Guide	-11.1578
▁exceed	-11.1579
key	-11.1582
▁socio	-11.1586
ira	-11.1588
▁acknowledged	-11.1599
roll	-11.1606
mel	-11.1607
▁sporting	-11.1607
▁marriage	-11.1608
▁fought	-11.1608
▁2010.	-11.161
▁isolated	-11.161
▁Cu	-11.1612
head	-11.1615
life	-11.1616
Sa	-11.1616
▁optical	-11.1618
ora	-11.162
▁hat	-11.1626
▁ignored	-11.1634
▁tips	-11.1638
▁posted	-11.1639
▁wages	-11.1639
▁indirect	-11.164
uch	-11.164
▁regrettable	-11.1641
▁clarification	-11.1646
▁EN	-11.1655
▁automation	-11.1657
▁Gulf	-11.1657
▁Rio	-11.1658
▁fulfilled	-11.1659
▁characterized	-11.1661
its	-11.1662
▁League	-11.1662
St	-11.1663
EEC	-11.1664
▁Mel	-11.1665
▁Dan	-11.1667
▁Canon	-11.1667
▁Tower	-11.1669
▁shortcomings	-11.167
▁comp	-11.1671
▁damaged	-11.1671
▁giant	-11.1676
pping	-11.1682
hof	-11.1684
▁lakes	-11.1686
▁ju	-11.1694
▁Luggage	-11.1695
▁!"	-11.1696
Mar	-11.1697
sten	-11.1698
▁1960	-11.1702
▁parameter	-11.1703
stein	-11.1704
▁fallen	-11.1705
wood	-11.1708
▁birds	-11.1709
▁Multi	-11.1709
▁reverse	-11.171
▁joy	-11.1711
▁declarations	-11.1711
▁simplification	-11.1711
▁Reform	-11.1715
▁pm	-11.172
▁prompt	-11.1722
▁condemned	-11.1723
▁incorporate	-11.1729
▁Mer	-11.1734
but	-11.1734
▁2009.	-11.1738
▁chocolate	-11.1738
▁fifteen	-11.1738
▁evolution	-11.1738
rich	-11.174
▁Casa	-11.1743
▁37	-11.1744
▁Mont	-11.1745
▁invitation	-11.1748
aries	-11.1749
ibility	-11.175
AR	-11.1752
▁agent	-11.1753
▁outset	-11.1755
▁engineers	-11.1755
▁publicly	-11.1757
ters	-11.1759
▁battery	-11.176
▁challenging	-11.176
▁measured	-11.176
▁defeat	-11.176
ill	-11.1764
68	-11.1765
▁statute	-11.1766
▁pull	-11.1767
▁Au	-11.1767
▁imp	-11.1767
▁PRO	-11.1768
▁Win	-11.1776
ique	-11.1776
51	-11.1776
▁BMW	-11.1777
▁Ki	-11.1777
▁partnerships	-11.1779
▁Fer	-11.1779
▁decrease	-11.178
▁paintings	-11.1781
▁sail	-11.1783
▁Sha	-11.1787
▁Mobile	-11.1789
-19	-11.1791
▁monitored	-11.1793
▁conjunction	-11.1793
▁foster	-11.1796
▁inquiry	-11.1799
▁equity	-11.1799
nik	-11.1802
▁complexity	-11.1802
▁1.5	-11.1802
ob	-11.1803
test	-11.1807
link	-11.181
▁fabric	-11.1811
IC	-11.1811
▁Adriatic	-11.1812
▁neo	-11.1813
▁warming	-11.1817
Nonetheless	-11.1821
▁pedestrian	-11.1821
▁inspiration	-11.1821
▁qui	-11.1823
BA	-11.1825
▁disagree	-11.1825
▁Last	-11.1828
party	-11.1829
▁officer	-11.1833
▁hoped	-11.1836
▁brother	-11.1837
▁raises	-11.1839
▁governed	-11.1839
▁autonomy	-11.1843
▁papers	-11.1845
▁MS	-11.1848
▁guidance	-11.1848
▁Heating	-11.1851
▁ra	-11.1851
▁closure	-11.1851
ets	-11.1852
▁circuit	-11.1852
▁Gar	-11.1852
▁Macedonia	-11.1854
▁Labour	-11.1854
iti	-11.1857
▁Puerto	-11.1857
Description	-11.186
▁California	-11.187
▁modest	-11.1871
▁ab	-11.1871
▁Ocean	-11.1876
▁gym	-11.1876
▁characterised	-11.188
▁unfortunate	-11.1881
▁Declaration	-11.1881
▁undertaking	-11.1884
▁multimedia	-11.1886
▁transatlantic	-11.1887
▁finances	-11.1888
▁tip	-11.1891
yn	-11.1891
▁hire	-11.1891
46	-11.1895
conditioned	-11.1897
▁Apple	-11.1897
▁subsidiary	-11.1898
▁subscription	-11.1898
tergovernmental	-11.19
LA	-11.1903
▁branches	-11.1903
▁prominent	-11.1909
uck	-11.191
▁abandoned	-11.1912
group	-11.1912
▁bag	-11.1914
▁organ	-11.1914
some	-11.1914
tar	-11.1915
▁circle	-11.1916
▁infringement	-11.1917
▁Palestine	-11.1918
ign	-11.1919
▁38	-11.192
▁List	-11.1922
▁downloading	-11.1925
▁Cross	-11.1928
▁Search	-11.1931
▁setup	-11.1936
▁indication	-11.1937
▁realized	-11.1938
▁Bill	-11.1939
▁Supervisor	-11.1943
dra	-11.1944
▁structured	-11.1947
▁tele	-11.195
▁unlike	-11.1951
▁survival	-11.1959
▁dive	-11.1962
▁Beijing	-11.1963
▁simplify	-11.1967
code	-11.1968
▁separately	-11.1971
▁tender	-11.1974
shop	-11.1975
▁penalties	-11.1976
▁reinforce	-11.1983
▁lend	-11.1983
85	-11.1988
▁dust	-11.1989
olo	-11.1991
▁quota	-11.1992
open	-11.1995
▁attract	-11.1996
▁Work	-11.1997
0.00	-11.2003
ene	-11.2003
▁restoration	-11.2004
▁founding	-11.2004
▁lacking	-11.2006
space	-11.2007
row	-11.2007
▁wars	-11.2008
▁login	-11.2014
▁resist	-11.2016
Clearly	-11.2021
▁dial	-11.2022
zu	-11.2026
▁Ser	-11.2027
CA	-11.203
▁tailored	-11.2035
▁racism	-11.2038
▁Add	-11.2038
▁Norway	-11.2039
ava	-11.2039
pu	-11.2039
▁34	-11.2044
▁derived	-11.2047
▁surprising	-11.2049
▁Moldova	-11.2049
5%	-11.2056
▁kids	-11.2058
▁accepting	-11.2059
ric	-11.2063
ika	-11.2065
▁defects	-11.2066
name	-11.2067
▁Par	-11.2068
▁pride	-11.2069
Set	-11.207
▁Albania	-11.2072
ón	-11.2073
bro	-11.2076
ré	-11.2076
▁Ze	-11.2077
ax	-11.2077
▁excuse	-11.2078
Bo	-11.2079
▁extract	-11.2079
▁shareholders	-11.2084
▁watching	-11.2085
▁celebrated	-11.2086
▁flowers	-11.2086
▁um	-11.2088
▁striking	-11.2089
cht	-11.2092
▁gather	-11.2092
sur	-11.2092
▁700	-11.2099
▁keeps	-11.2099
HU	-11.2101
ici	-11.2101
▁Fe	-11.2101
ivity	-11.2105
59	-11.2109
▁Hans	-11.211
Go	-11.2111
▁iPhone	-11.2111
▁Bal	-11.2114
▁identical	-11.2117
ire	-11.212
tas	-11.2121
▁returning	-11.2123
PO	-11.2124
▁42	-11.2125
▁chairs	-11.2134
ld	-11.2134
▁camps	-11.2135
▁Modern	-11.2139
qua	-11.2139
▁taught	-11.214
sha	-11.214
▁CA	-11.2146
▁Hamas	-11.2147
▁vegetables	-11.2147
▁performances	-11.2149
ico	-11.2154
▁directions	-11.2155
you	-11.2157
▁upcoming	-11.2161
▁drafted	-11.2162
▁Sudan	-11.2163
▁Max	-11.2164
▁knowing	-11.2167
▁seminars	-11.2167
▁Louis	-11.2168
▁Radio	-11.2174
▁Pass	-11.2178
ENT	-11.2179
▁2001,	-11.2181
sol	-11.2181
▁centrally	-11.2182
▁continually	-11.2182
▁underline	-11.2185
▁stem	-11.2185
▁Zimbabwe	-11.2188
▁denied	-11.2191
▁participated	-11.2193
xi	-11.2193
eb	-11.2196
▁mixture	-11.2198
▁departments	-11.2199
▁Under	-11.2199
▁Peace	-11.22
lock	-11.2203
▁tension	-11.2204
▁sp	-11.2205
▁maps	-11.2207
▁assumed	-11.2208
▁exceptions	-11.2209
▁reproduction	-11.221
▁minimal	-11.2212
media	-11.2212
los	-11.2215
▁Line	-11.2218
▁automated	-11.2223
▁filling	-11.2226
▁trail	-11.2226
▁pine	-11.2227
ose	-11.2231
▁sustained	-11.2232
▁homepage	-11.2233
▁Account	-11.2233
▁Language	-11.2233
▁exchanges	-11.2235
▁Tyrol	-11.2243
▁consistency	-11.2248
▁2002,	-11.225
▁sheets	-11.2252
▁HD	-11.2254
▁quantities	-11.2254
ub	-11.2258
▁SAP	-11.2259
▁2013	-11.2259
ery	-11.2259
▁stood	-11.226
▁circulation	-11.2263
▁grants	-11.2265
▁badly	-11.2268
▁Travel	-11.2271
▁Es	-11.2274
Above	-11.2277
▁della	-11.2282
▁partition	-11.2285
▁Sky	-11.2286
▁neutral	-11.2286
▁mailing	-11.2287
▁develops	-11.2288
▁alliance	-11.2288
▁defending	-11.2288
cer	-11.2289
Ba	-11.229
▁Rock	-11.2291
tive	-11.2293
▁transformed	-11.2293
▁trails	-11.2294
▁telling	-11.2295
ata	-11.2297
▁hydro	-11.2299
▁requiring	-11.23
matic	-11.23
ima	-11.2302
▁Shop	-11.2308
▁Indonesia	-11.2309
▁Golden	-11.2309
▁defense	-11.2312
▁ve	-11.2313
ige	-11.2314
century	-11.2315
▁weapon	-11.2318
world	-11.2319
....	-11.232
▁searching	-11.2321
more	-11.2321
▁News	-11.2322
wn	-11.2322
▁Gri	-11.2322
▁commission	-11.2325
▁receives	-11.2325
▁officers	-11.2325
▁40%	-11.2325
Bar	-11.2325
▁nicht	-11.2335
▁fears	-11.2337
Welcome	-11.2339
TER	-11.2339
▁guitar	-11.234
▁spots	-11.2344
ole	-11.2344
ani	-11.2345
▁bond	-11.2346
Se	-11.2347
Naturally	-11.2349
▁combining	-11.2352
▁nu	-11.2353
▁Bridge	-11.2353
lf	-11.2355
▁Content	-11.2358
▁demonstration	-11.2358
Ex	-11.2362
▁ensured	-11.2363
▁CE	-11.2365
▁interim	-11.2366
▁exploring	-11.237
▁distribute	-11.2374
▁listened	-11.2376
”)	-11.2377
rum	-11.2378
press	-11.2379
▁editing	-11.2381
city	-11.2381
mmer	-11.2382
▁modes	-11.2384
▁episode	-11.2387
▁recycling	-11.2388
ction	-11.2391
▁preferences	-11.2395
▁concentrated	-11.2395
most	-11.2396
▁enemy	-11.2399
type	-11.2401
▁HTML	-11.2401
2008	-11.2403
lia	-11.2407
mor	-11.2408
▁Vietnam	-11.2409
▁calculated	-11.241
▁conveniently	-11.2416
▁insert	-11.2422
▁cope	-11.2422
▁perception	-11.2423
▁grass	-11.2424
ving	-11.2426
ito	-11.2428
▁pursuing	-11.2428
▁Tibet	-11.2429
▁approx	-11.243
[	-11.2432
▁pays	-11.2434
▁macro	-11.2435
▁golden	-11.2437
▁enthusiasm	-11.244
▁profound	-11.244
▁alter	-11.244
▁Industrial	-11.2441
wer	-11.2442
▁agrees	-11.2442
Take	-11.2443
▁tells	-11.2443
Free	-11.2447
fully	-11.2447
suite	-11.2447
▁workplace	-11.2448
idad	-11.2451
▁banned	-11.2452
pol	-11.2453
IM	-11.2454
▁Catholic	-11.2455
bri	-11.2457
cut	-11.2458
▁64	-11.2461
▁jump	-11.2467
▁IV	-11.247
▁Facilities	-11.2471
▁Nord	-11.2471
▁Cha	-11.2472
▁attach	-11.2476
▁Camp	-11.2477
▁Net	-11.2478
▁deleted	-11.248
gro	-11.248
▁doctors	-11.2482
▁blow	-11.2482
▁seminar	-11.2482
▁accused	-11.2483
54	-11.2483
▁consolidation	-11.2487
▁culinary	-11.2487
▁implies	-11.2487
▁thoughts	-11.2487
▁symbolic	-11.2488
▁Citizens	-11.249
▁consisting	-11.2495
▁vicinity	-11.2499
42	-11.25
▁daughter	-11.25
▁stream	-11.2505
▁width	-11.2507
▁observers	-11.2508
▁Small	-11.2508
SK	-11.2509
bank	-11.2511
▁cargo	-11.2512
Check	-11.2517
▁Libya	-11.2519
▁permanently	-11.252
▁regimes	-11.2521
▁cheaper	-11.2521
▁explicit	-11.2528
▁Anonymous	-11.2528
▁suddenly	-11.2532
cur	-11.2533
TC	-11.2534
▁tackling	-11.2534
ib	-11.2538
▁analyses	-11.2539
▁unprecedented	-11.254
range	-11.2541
▁migrants	-11.2544
cing	-11.2544
▁SP	-11.2547
▁respecting	-11.2548
▁rescue	-11.255
▁Kirk	-11.2554
▁abolition	-11.2558
▁Nordic	-11.2559
▁newspapers	-11.2559
▁specialised	-11.256
Up	-11.2565
▁boxes	-11.2566
▁isolation	-11.2576
lie	-11.2576
dor	-11.2583
▁checking	-11.2584
▁optimum	-11.2587
▁landscapes	-11.2592
▁earthquake	-11.2593
▁terror	-11.2594
NA	-11.2598
makers	-11.2601
▁securities	-11.2605
▁unlimited	-11.2606
▁inclusive	-11.2607
но	-11.2609
▁justification	-11.261
▁fuels	-11.2611
▁Thailand	-11.2612
ich	-11.2619
▁65	-11.2626
▁ending	-11.2633
▁grew	-11.2635
UR	-11.2637
▁tangible	-11.2641
▁refined	-11.2644
▁twelve	-11.2647
▁Ber	-11.2647
▁mi	-11.265
▁furthermore	-11.265
▁discovery	-11.2652
▁translations	-11.2654
77	-11.2655
▁clothes	-11.2655
▁Region	-11.2659
▁coalition	-11.2659
▁passes	-11.2663
▁warranty	-11.2664
Meanwhile	-11.2665
▁trademarks	-11.2666
▁transform	-11.2667
▁announcement	-11.267
she	-11.2679
▁Training	-11.2679
▁carrier	-11.2681
▁Visit	-11.2682
▁mining	-11.2686
▁Pla	-11.2692
▁yellow	-11.2696
▁arrested	-11.2697
ij	-11.2697
ret	-11.2697
▁Professional	-11.27
▁endless	-11.2701
Together	-11.2701
▁obtaining	-11.2705
▁separated	-11.2711
▁cease	-11.2711
▁Ger	-11.2714
▁80%	-11.2714
▁rivers	-11.2716
▁upload	-11.272
▁wise	-11.2727
▁demanded	-11.2727
▁LateRooms	-11.2731
dal	-11.2735
▁missions	-11.2737
▁congratulations	-11.2737
▁endeavour	-11.274
▁cre	-11.2742
▁competitors	-11.2747
▁Next	-11.275
▁connecting	-11.2752
ening	-11.2758
rian	-11.2759
▁optional	-11.276
▁Metro	-11.276
lor	-11.2761
bach	-11.2762
▁booth	-11.2766
ear	-11.2772
▁55	-11.2773
▁Danube	-11.2774
depth	-11.2774
▁guides	-11.2775
▁clearer	-11.2775
▁distinguished	-11.2776
▁Tom	-11.2777
▁consist	-11.2778
▁weekly	-11.2783
-20	-11.2784
RC	-11.2785
▁Korean	-11.2786
▁dominant	-11.2787
▁Stuttgart	-11.2788
▁bo	-11.279
ev	-11.2791
▁absurd	-11.2792
▁unstable	-11.2792
▁reductions	-11.2793
▁engagement	-11.2797
▁Coast	-11.2798
▁excess	-11.28
▁Palma	-11.2804
▁District	-11.2804
ford	-11.2809
▁trademark	-11.2812
wel	-11.2816
▁independently	-11.2817
▁Playa	-11.2823
▁deemed	-11.2825
▁codes	-11.2829
▁actor	-11.2832
▁disappear	-11.2833
▁influenced	-11.2835
▁Up	-11.284
kov	-11.2841
ges	-11.2847
ave	-11.2848
▁adjusted	-11.2849
▁deny	-11.285
American	-11.2851
▁History	-11.2851
▁gathered	-11.2852
▁Test	-11.2852
▁loved	-11.2853
▁steep	-11.2853
▁Start	-11.2854
är	-11.2856
▁Bern	-11.2856
▁alive	-11.2859
mas	-11.2861
▁wire	-11.2861
▁CEO	-11.2861
▁mill	-11.2862
▁suspension	-11.2865
▁commonly	-11.2865
pri	-11.2867
▁Gro	-11.2868
▁strip	-11.287
governmental	-11.2872
▁noticed	-11.2874
ls	-11.2878
▁preventive	-11.2882
enberg	-11.2883
▁vessel	-11.2883
400	-11.2886
▁unlikely	-11.289
FF	-11.2892
wo	-11.2892
▁Prince	-11.2894
▁aggressive	-11.2895
▁capability	-11.2896
▁themes	-11.2896
▁Cam	-11.2898
▁ce	-11.2901
▁ambience	-11.2902
Are	-11.2904
ban	-11.2907
▁Ju	-11.291
▁authorised	-11.2912
▁estimates	-11.2914
▁acquis	-11.2914
▁sightseeing	-11.2914
ente	-11.2914
▁tight	-11.2915
▁reduces	-11.2918
Na	-11.2919
ör	-11.292
▁employee	-11.2921
ography	-11.2924
▁Holy	-11.2926
▁invoice	-11.2932
▁excellence	-11.2932
tag	-11.2936
▁Millennium	-11.2938
▁subscribe	-11.294
▁ambitions	-11.2941
▁Ste	-11.2943
▁bonds	-11.2944
▁venue	-11.2948
▁investigations	-11.2952
▁Pack	-11.2957
▁ideological	-11.2957
pass	-11.2957
▁Romanian	-11.2958
▁cat	-11.2965
yes	-11.2968
▁verify	-11.2968
▁stakeholders	-11.2969
78	-11.2969
▁stringent	-11.297
▁translate	-11.297
▁AS	-11.2971
Using	-11.2972
▁transmitted	-11.2976
▁nowadays	-11.2988
▁removing	-11.2988
▁License	-11.2988
▁score	-11.299
▁Which	-11.2993
▁capacities	-11.2994
▁permits	-11.2995
aire	-11.2995
▁mild	-11.3001
▁Sub	-11.3002
▁dominated	-11.3004
▁unanimous	-11.3007
Until	-11.3009
▁backing	-11.3009
▁appreciation	-11.3013
▁conviction	-11.3015
▁vice	-11.3016
nz	-11.3018
▁kilometers	-11.3018
▁supervisory	-11.302
▁Ref	-11.3021
▁Rental	-11.3021
law	-11.3027
▁accepts	-11.3027
▁ni	-11.303
▁UNESCO	-11.3031
gate	-11.3034
▁separation	-11.3044
▁disc	-11.3045
72	-11.3051
96	-11.3053
ova	-11.3057
ional	-11.306
▁emotional	-11.306
kan	-11.3061
▁imperative	-11.3062
▁laboratory	-11.3063
▁monthly	-11.3063
▁keyboard	-11.3067
▁VI	-11.3067
▁boundaries	-11.3069
▁resorts	-11.307
NET	-11.307
ify	-11.3072
▁hosts	-11.3072
▁responses	-11.3074
▁antique	-11.3076
ama	-11.3086
▁indigenous	-11.3087
▁struck	-11.3088
▁consulted	-11.3089
ude	-11.3089
hor	-11.309
▁railways	-11.3093
▁plane	-11.3093
▁camping	-11.3093
▁presentations	-11.3093
▁Alpine	-11.3093
▁bold	-11.3096
▁acted	-11.31
Lo	-11.3104
get	-11.3107
▁plate	-11.3109
▁differently	-11.311
▁Has	-11.3111
MB	-11.3112
▁Joseph	-11.3118
▁married	-11.3119
▁witness	-11.3121
ele	-11.3124
▁finds	-11.3124
▁missed	-11.3131
▁countless	-11.3133
▁lens	-11.3135
▁embedded	-11.3138
56	-11.3138
pin	-11.3143
▁observations	-11.3144
Rather	-11.3145
▁districts	-11.3146
▁acid	-11.3149
▁Fo	-11.315
▁Richard	-11.3152
▁gains	-11.3153
▁nationals	-11.3156
uc	-11.3164
Po	-11.3166
▁musicians	-11.3169
gli	-11.3174
▁Ya	-11.3174
mu	-11.3175
fish	-11.3176
▁partially	-11.3177
▁afterwards	-11.3178
eur	-11.3181
▁Stra	-11.3181
kon	-11.3182
zy	-11.3183
▁fires	-11.3188
ori	-11.3189
▁scenario	-11.3192
▁Michel	-11.3193
▁ran	-11.3194
▁AD	-11.3195
▁invested	-11.3196
▁dictatorship	-11.3199
▁Caribbean	-11.3201
▁Nu	-11.3204
▁younger	-11.3204
▁bases	-11.3206
Mi	-11.321
▁vineyards	-11.3212
ea	-11.3212
▁cycling	-11.3213
▁honor	-11.3215
▁automobile	-11.322
real	-11.3223
▁Night	-11.3223
▁sat	-11.3224
▁reconciliation	-11.3226
▁tranquil	-11.3231
▁thick	-11.3231
▁sincerely	-11.3231
▁dossier	-11.3232
▁universe	-11.3239
▁radiation	-11.3239
▁EMU	-11.324
▁finishing	-11.3244
▁Decision	-11.3245
▁dangers	-11.3245
rio	-11.3246
rc	-11.3249
▁admission	-11.3252
▁Reserve	-11.3253
▁labels	-11.3253
cor	-11.3254
▁Tunisia	-11.3259
ía	-11.326
▁constraints	-11.3273
word	-11.3276
▁winners	-11.3277
▁roughly	-11.3281
▁commend	-11.3282
▁experiment	-11.3285
▁boards	-11.3287
Nor	-11.3289
▁profession	-11.3289
▁une	-11.329
▁incident	-11.3291
▁favor	-11.3301
▁investing	-11.3307
▁hectares	-11.3307
▁reaches	-11.3309
▁25%	-11.331
▁ja	-11.3311
▁insight	-11.3312
▁lu	-11.3315
▁silent	-11.3315
▁safely	-11.332
▁genetically	-11.3322
▁contributes	-11.3323
▁carte	-11.3324
▁designers	-11.3324
▁diet	-11.3326
cast	-11.3327
Regarding	-11.3328
▁motivated	-11.3333
▁Comp	-11.3334
▁autonomous	-11.3334
▁warrant	-11.3337
▁palace	-11.3347
▁Class	-11.3348
▁Ol	-11.3348
▁cup	-11.3352
▁catering	-11.3353
▁Technical	-11.3353
▁profiles	-11.3353
▁qualities	-11.3354
▁eligible	-11.3354
dan	-11.3356
▁j	-11.3358
▁AC	-11.336
▁PSE	-11.3361
▁motions	-11.3363
▁Well	-11.3366
▁summary	-11.3366
▁household	-11.3369
88	-11.3372
▁Library	-11.3373
▁damaging	-11.3373
▁advocate	-11.3378
power	-11.3379
2,	-11.3379
▁2.5	-11.3379
▁IS	-11.3385
▁Min	-11.3387
▁Arts	-11.3388
Die	-11.3391
▁Jerusalem	-11.3392
▁noble	-11.3393
▁besides	-11.3393
rea	-11.3396
▁globalization	-11.3396
▁Valencia	-11.3399
▁Chief	-11.3399
nom	-11.34
▁revenues	-11.3404
▁utility	-11.3405
▁convey	-11.3409
▁critique	-11.3411
nch	-11.3417
▁tournament	-11.3418
▁girl	-11.3421
▁sich	-11.3423
▁offset	-11.3424
▁Ed	-11.3425
▁Vista	-11.3429
FA	-11.3431
▁tiny	-11.3434
76	-11.3435
▁currencies	-11.3437
▁realised	-11.3438
▁designated	-11.3439
print	-11.3442
▁styles	-11.3442
▁Warcraft	-11.3444
▁await	-11.3445
stone	-11.3446
▁teach	-11.3449
TO	-11.345
▁intent	-11.3452
▁folk	-11.3452
▁mineral	-11.3453
▁Ph	-11.3453
▁laying	-11.3456
ration	-11.3458
▁Ac	-11.3459
▁tro	-11.346
▁grid	-11.3461
Enterprise	-11.3462
▁albeit	-11.3463
▁indispensable	-11.3463
▁deck	-11.3466
▁attempted	-11.3466
▁Jews	-11.3467
▁5%	-11.3469
▁pin	-11.3472
▁smoke	-11.3473
yo	-11.3473
▁Mat	-11.3474
put	-11.3475
une	-11.3476
▁oder	-11.3477
▁minds	-11.3477
▁secured	-11.3478
▁Heritage	-11.3483
▁intimate	-11.3483
▁feelings	-11.3483
Facilities	-11.3488
High	-11.3488
▁inevitable	-11.3489
▁1950	-11.3491
2009	-11.3493
▁delayed	-11.3494
▁Queen	-11.3494
tec	-11.3495
▁CHF	-11.3497
74	-11.3499
Unlike	-11.3499
onic	-11.35
▁impetus	-11.3502
▁luggage	-11.3502
▁Jesus	-11.3502
▁Rhine	-11.3503
html	-11.3509
▁routine	-11.3509
ndo	-11.3509
▁hunger	-11.3511
town	-11.3511
▁Gre	-11.3512
▁workforce	-11.3512
▁seaside	-11.3514
▁Residence	-11.3515
▁bomb	-11.3515
▁coherence	-11.3515
▁eating	-11.3516
▁Natural	-11.3517
▁panels	-11.3518
ego	-11.3518
cle	-11.3519
▁SE	-11.352
▁4.	-11.352
▁admire	-11.3521
place	-11.3525
▁walks	-11.3525
▁vis	-11.3527
▁praise	-11.3528
▁bet	-11.3529
sia	-11.3535
▁entity	-11.3536
▁MB	-11.3537
▁ties	-11.3539
▁Big	-11.354
Second	-11.3541
ates	-11.3542
Car	-11.3543
▁ka	-11.3544
▁substitute	-11.3548
▁punishment	-11.3549
▁Der	-11.3551
▁earned	-11.3551
▁Four	-11.3554
▁accountability	-11.3554
tim	-11.3555
gre	-11.3557
▁controller	-11.3558
▁wedding	-11.3559
▁Forest	-11.356
▁limitations	-11.356
▁lawyers	-11.3561
equipped	-11.3562
▁stays	-11.3564
▁featured	-11.3564
▁Dor	-11.3565
▁avoiding	-11.3566
▁tar	-11.3567
SL	-11.3567
▁dumping	-11.357
AP	-11.3571
▁Village	-11.3574
▁opponents	-11.3576
▁Third	-11.3579
▁assessments	-11.358
▁flower	-11.3581
▁outlined	-11.3582
▁luck	-11.3583
▁climbing	-11.3583
▁EP	-11.3585
▁extends	-11.3587
round	-11.3592
▁USS	-11.3596
▁Karl	-11.3598
▁Estonia	-11.3605
▁existed	-11.3605
read	-11.3606
ungen	-11.3612
▁promising	-11.3614
▁retirement	-11.3614
▁forums	-11.3615
▁systematically	-11.3621
▁Communication	-11.3623
▁cooperative	-11.3627
▁XP	-11.3627
▁Partner	-11.3629
▁villas	-11.3633
▁hairdryer	-11.3634
oni	-11.3636
▁hang	-11.3636
▁explanations	-11.3639
▁talent	-11.364
▁ent	-11.3642
▁cream	-11.3647
▁bears	-11.365
▁delivering	-11.365
▁somewhere	-11.3652
▁Statute	-11.3653
▁gaming	-11.3653
▁databases	-11.3657
▁Gallery	-11.3658
▁Suites	-11.366
▁feels	-11.3662
▁Mountain	-11.3662
▁killing	-11.3669
ways	-11.367
▁capitalism	-11.3672
tten	-11.368
ult	-11.3682
▁hole	-11.3683
mic	-11.3683
▁shoes	-11.3683
▁allies	-11.3685
▁plugin	-11.3685
▁awards	-11.3689
▁inevitably	-11.3693
▁environments	-11.3695
▁spell	-11.3695
▁sequence	-11.3695
ROM	-11.3697
▁socially	-11.3702
▁Mas	-11.3702
▁Sir	-11.3705
building	-11.3707
Obviously	-11.3713
▁inequality	-11.3714
▁loading	-11.3715
2.	-11.3716
▁compatibility	-11.3716
reaching	-11.3717
ois	-11.3724
▁continuation	-11.3724
ular	-11.3725
▁Captain	-11.3725
ille	-11.3726
▁fundamentally	-11.3726
rapporteur	-11.3726
▁Professor	-11.3727
▁complimentary	-11.3727
▁gradual	-11.3727
▁NOT	-11.3727
▁Thanks	-11.373
EM	-11.373
▁alert	-11.3731
▁elegance	-11.3733
▁Out	-11.3733
band	-11.3735
▁legendary	-11.374
▁mar	-11.374
▁refurbished	-11.3747
▁auch	-11.3747
▁Cla	-11.375
▁carries	-11.375
▁printer	-11.3752
▁discretion	-11.3752
rá	-11.3753
▁COM	-11.3755
▁au	-11.3758
▁Chechnya	-11.376
▁Country	-11.376
▁Set	-11.376
ulation	-11.3761
▁yield	-11.3761
▁foods	-11.3761
llen	-11.3764
▁authorized	-11.3764
▁{	-11.3766
▁surplus	-11.3769
▁horses	-11.3773
▁repression	-11.3774
▁cha	-11.3776
▁Further	-11.3777
▁RI	-11.3778
▁calculation	-11.3778
▁reveal	-11.378
▁criterion	-11.378
▁vacuum	-11.378
▁Love	-11.378
Pre	-11.3781
standing	-11.3784
▁pack	-11.3786
▁blocked	-11.3791
▁cooling	-11.3792
LO	-11.3793
▁scenes	-11.3794
cz	-11.3795
▁classification	-11.3801
▁Army	-11.3803
▁skilled	-11.3804
▁Ukrainian	-11.3804
DR	-11.3804
▁continental	-11.3804
ay	-11.3807
ase	-11.3807
▁Capital	-11.3808
▁Thus	-11.3812
▁arriving	-11.3814
▁owing	-11.3815
▁shore	-11.3816
▁dreams	-11.3818
ison	-11.3819
▁aluminium	-11.382
▁tremendous	-11.3821
Next	-11.3824
grad	-11.3827
▁libraries	-11.3827
▁procedural	-11.3827
cio	-11.3831
▁globally	-11.3834
58	-11.3834
▁detection	-11.3835
under	-11.3835
ym	-11.3838
▁attraction	-11.3839
▁execute	-11.3839
▁Alexander	-11.3841
93	-11.3841
ators	-11.3841
▁Bulgarian	-11.3841
▁Fax	-11.3845
▁activate	-11.3846
Germany	-11.3848
▁Tel	-11.3848
bert	-11.385
ische	-11.3851
▁deeper	-11.3853
▁gathering	-11.3857
▁thirty	-11.386
lam	-11.3863
▁solving	-11.3865
▁globe	-11.3867
▁swim	-11.3867
▁Gay	-11.3868
▁interference	-11.3868
DP	-11.3869
ule	-11.3871
▁handed	-11.3871
▁3.	-11.3872
▁dé	-11.3873
▁convincing	-11.3874
▁activated	-11.3875
▁configure	-11.3876
▁incorrect	-11.3879
▁absorb	-11.3884
▁washing	-11.3886
▁hi	-11.3887
▁Porto	-11.3887
Sch	-11.3889
gg	-11.3892
▁subjected	-11.3895
▁Once	-11.3896
▁installing	-11.3897
▁shock	-11.3903
▁Marco	-11.3906
▁exclude	-11.3907
▁Fu	-11.3907
▁collections	-11.3907
▁Wo	-11.3908
▁abandon	-11.3909
GB	-11.3911
▁cathedral	-11.3915
▁openly	-11.3915
igen	-11.3917
▁skill	-11.3917
▁Experience	-11.3918
▁argued	-11.3919
▁rigorous	-11.3922
▁comforts	-11.3923
▁ST	-11.3925
▁kit	-11.3927
▁resumed	-11.3927
pan	-11.3928
▁judges	-11.3928
▁remedy	-11.3928
▁innocent	-11.3928
▁behold	-11.393
▁writer	-11.3939
▁Hill	-11.394
▁shooting	-11.3945
▁enforce	-11.3946
▁Piazza	-11.3947
▁locally	-11.395
▁2-	-11.3953
▁Location	-11.3955
▁racing	-11.3956
▁entities	-11.3956
▁Kra	-11.3957
CC	-11.3962
▁Criminal	-11.3962
▁bicycle	-11.3963
▁overnight	-11.3967
▁URL	-11.397
TION	-11.3971
57	-11.3974
▁Doha	-11.3978
gram	-11.3979
▁infrastructures	-11.3981
▁hopefully	-11.3981
met	-11.3983
69	-11.3983
▁Prof	-11.3983
▁dans	-11.3983
▁demo	-11.3984
‘	-11.3984
▁borne	-11.3988
▁abstained	-11.3989
▁simplified	-11.399
▁fruits	-11.399
Otherwise	-11.3991
dem	-11.3992
lands	-11.3992
6-0	-11.3993
▁chamber	-11.3995
▁indirectly	-11.3997
bor	-11.3999
▁guard	-11.3999
2005	-11.4003
dent	-11.4008
▁painful	-11.4009
▁Objective	-11.401
▁serial	-11.4011
gas	-11.4011
▁dogs	-11.4015
▁Annual	-11.4015
hold	-11.4016
▁gases	-11.4016
▁personality	-11.402
▁detention	-11.402
mission	-11.4021
▁reinforced	-11.4022
▁Allah	-11.4023
gin	-11.4025
▁analyse	-11.4031
▁invites	-11.4031
sel	-11.4031
▁desert	-11.4035
nar	-11.4037
ack	-11.4037
▁envisaged	-11.4041
▁construct	-11.4042
vision	-11.4043
▁exquisite	-11.4045
▁Ur	-11.4047
▁decoration	-11.4048
▁2008.	-11.4049
▁coastline	-11.405
▁Three	-11.4051
fall	-11.4052
▁Christians	-11.4052
▁complaint	-11.4052
▁marking	-11.4055
▁Sant	-11.4056
▁dependence	-11.4059
east	-11.406
]].	-11.4061
▁donors	-11.4065
▁Railway	-11.4066
▁dei	-11.4068
CI	-11.4069
▁lights	-11.4069
tru	-11.407
itz	-11.4072
▁44	-11.4073
Mediterranean	-11.4081
Linux	-11.4081
▁01	-11.4081
▁waves	-11.4081
▁pose	-11.4081
▁panorama	-11.4086
▁Exhibition	-11.4086
600	-11.4086
▁attempting	-11.4086
▁successor	-11.4087
▁HIV	-11.4087
nk	-11.4089
▁Cat	-11.409
izer	-11.409
▁reviewed	-11.4093
▁possession	-11.4097
▁margin	-11.4099
ox	-11.4102
▁council	-11.4102
▁confidential	-11.4106
▁filters	-11.4107
▁decor	-11.4107
▁restrictive	-11.4109
▁stating	-11.4109
▁clinical	-11.4113
▁disastrous	-11.4114
▁va	-11.4115
▁assign	-11.4115
▁interpreted	-11.4116
▁mood	-11.4118
▁promotes	-11.4123
▁Easy	-11.4125
ario	-11.4127
▁limitation	-11.4137
▁Corporation	-11.4141
▁adverse	-11.4142
▁patch	-11.4145
▁founder	-11.4145
▁Dresden	-11.4148
Fa	-11.4155
▁determining	-11.4155
▁Nero	-11.4156
▁aus	-11.4157
▁Han	-11.4157
▁consolidate	-11.4161
▁sincere	-11.4162
▁IGC	-11.4162
ux	-11.4166
▁selecting	-11.417
▁ruled	-11.4171
▁speaks	-11.4171
▁Administration	-11.4176
▁settle	-11.4176
▁conscience	-11.4176
▁Double	-11.418
▁harmonised	-11.4182
▁Finance	-11.4188
▁landing	-11.4189
▁Singapore	-11.419
▁resolving	-11.4191
▁entrepreneurs	-11.4191
bas	-11.4193
lot	-11.4194
▁thereof	-11.4194
▁Kal	-11.4195
▁Saddam	-11.4197
ela	-11.4198
800	-11.4201
▁validity	-11.4202
PP	-11.4203
leg	-11.4206
▁colonial	-11.421
▁bid	-11.4211
▁Helsinki	-11.4211
▁ceremony	-11.4211
▁refusal	-11.4211
▁instability	-11.4211
▁backed	-11.4212
▁adequately	-11.4212
LI	-11.4214
▁abuses	-11.4215
▁enjoyable	-11.4216
▁95	-11.4217
PE	-11.4217
▁Riviera	-11.4218
▁rarely	-11.4218
▁conservative	-11.4225
▁technically	-11.4225
▁ferry	-11.4226
▁Sand	-11.4229
▁distant	-11.4233
▁pu	-11.4233
▁distinct	-11.4233
▁wishing	-11.4234
vor	-11.4235
és	-11.4236
▁Round	-11.4236
fu	-11.4236
▁Sar	-11.4236
China	-11.4236
ais	-11.4239
NO	-11.424
▁scan	-11.4243
▁brilliant	-11.4246
even	-11.4246
▁altitude	-11.4246
AG	-11.4247
▁Micro	-11.4249
Is	-11.425
aj	-11.4252
una	-11.4253
lis	-11.4257
▁psychological	-11.426
▁hazardous	-11.426
▁Terrace	-11.426
▁GPS	-11.4265
▁tailor	-11.4266
▁Tibetan	-11.4267
té	-11.427
meter	-11.4272
▁highway	-11.4273
▁Theatre	-11.4274
bs	-11.4275
inger	-11.4275
EP	-11.4276
▁forming	-11.4277
tr	-11.4279
▁(3	-11.4283
▁parent	-11.4284
▁distinctive	-11.4285
▁distributors	-11.4285
92	-11.4295
▁Egyptian	-11.4296
▁rank	-11.4297
▁newest	-11.4297
▁tune	-11.4302
▁exceptionally	-11.4302
▁mount	-11.4306
▁Fra	-11.4306
▁architect	-11.4306
OL	-11.4307
Ta	-11.4308
▁preference	-11.4309
▁congratulating	-11.4309
▁arises	-11.4311
Ka	-11.4313
▁Cala	-11.4314
▁39	-11.4316
Her	-11.432
▁Cold	-11.4321
▁grain	-11.4321
▁bottle	-11.4322
▁graphical	-11.4323
▁scrutiny	-11.4324
▁delivers	-11.4326
▁reader	-11.4327
▁Basel	-11.4336
▁pump	-11.4337
▁dear	-11.4338
▁correspond	-11.434
▁matches	-11.4341
▁abilities	-11.4343
ville	-11.4343
▁theoretical	-11.4346
hal	-11.4347
tus	-11.435
Unless	-11.4353
▁instant	-11.4356
53	-11.4356
▁examining	-11.4359
din	-11.4359
▁Friendly	-11.436
▁Explorer	-11.436
:00	-11.4361
▁symbols	-11.4365
san	-11.4366
▁unanimity	-11.4366
▁cruise	-11.4367
▁Wellness	-11.4367
sive	-11.4371
▁loan	-11.4376
▁carriers	-11.4376
iva	-11.4378
▁Petitions	-11.438
▁cotton	-11.4381
▁courtyard	-11.4381
▁$1	-11.4382
!!	-11.4384
▁shell	-11.4388
▁solo	-11.4391
▁interfaces	-11.4396
▁conform	-11.4396
▁Call	-11.4398
▁sensitivity	-11.4399
TH	-11.44
▁Ter	-11.44
pt	-11.4403
▁rid	-11.4407
rin	-11.4409
▁birthday	-11.441
▁healing	-11.441
▁backup	-11.441
▁Je	-11.4412
Li	-11.4413
▁breaking	-11.4414
app	-11.4415
▁pet	-11.4415
Whilst	-11.4416
▁preservation	-11.4417
og	-11.442
▁customized	-11.442
▁qua	-11.4421
click	-11.4421
▁refugee	-11.4422
▁wa	-11.4423
▁catalog	-11.4423
▁het	-11.4425
PM	-11.4426
▁adjustments	-11.4429
▁civilians	-11.4431
▁viewing	-11.4431
Though	-11.4436
tig	-11.4436
ALE	-11.4437
▁heaven	-11.4437
▁coins	-11.444
People	-11.4442
▁43	-11.4442
▁safeguarding	-11.4443
▁Berg	-11.4445
▁consolidated	-11.4445
▁professor	-11.4446
yl	-11.4449
▁Nature	-11.445
▁cure	-11.4451
national	-11.4454
See	-11.4458
▁immense	-11.446
▁gr	-11.446
AD	-11.4461
rac	-11.4462
▁Nigeria	-11.4464
▁Latvia	-11.4465
▁prejudice	-11.4466
▁advances	-11.4466
▁formally	-11.4468
▁beautifully	-11.447
▁shame	-11.4471
only	-11.4472
▁Edinburgh	-11.4473
▁audiovisual	-11.4473
▁hosting	-11.4474
ime	-11.4475
▁Long	-11.4477
▁kg	-11.4477
▁civilisation	-11.4479
▁tries	-11.448
52	-11.4481
▁admitted	-11.4482
2000	-11.4486
ident	-11.4489
▁herself	-11.449
▁securing	-11.4495
size	-11.4501
▁SO	-11.4504
▁Son	-11.4504
▁tube	-11.4504
-3	-11.4506
author	-11.4507
▁Gen	-11.4507
3%	-11.451
▁ageing	-11.4511
▁Th	-11.4512
▁voices	-11.4514
▁Corporate	-11.4516
▁ou	-11.4521
▁Mountains	-11.4522
▁DI	-11.4522
▁orchestra	-11.4522
-4	-11.4524
94	-11.4525
page	-11.453
GE	-11.4531
▁Sierra	-11.4531
▁devote	-11.4536
61	-11.4537
▁integrating	-11.4538
▁energies	-11.4539
▁VIP	-11.4543
▁poly	-11.4544
RS	-11.4544
Mrs	-11.4545
▁Hol	-11.4549
▁commerce	-11.4549
▁Muslims	-11.4552
▁boom	-11.4554
source	-11.4555
▁towels	-11.4556
ect	-11.4558
▁buyer	-11.4559
▁Ten	-11.4566
▁grey	-11.4567
dar	-11.4568
-8	-11.4568
▁diameter	-11.4574
▁classified	-11.4576
▁Come	-11.4576
▁Wireless	-11.4582
▁nearest	-11.4582
▁Furthermore	-11.4586
▁congress	-11.4586
▁pillars	-11.4587
▁invasion	-11.4589
▁Chile	-11.4591
▁Mallorca	-11.4592
Upon	-11.4596
▁irrespective	-11.4596
ción	-11.4596
rn	-11.4603
▁monopoly	-11.4603
▁Im	-11.4605
▁ear	-11.4609
▁sin	-11.461
▁iPod	-11.4611
▁AIDS	-11.4612
ias	-11.4614
▁maintains	-11.4614
▁breeding	-11.4616
▁Daniel	-11.4619
flow	-11.4622
▁supporters	-11.4625
icht	-11.4625
▁DC	-11.4625
▁sympathy	-11.4625
play	-11.4626
nce	-11.4626
▁Aus	-11.4627
63	-11.4628
▁overwhelming	-11.4628
CD	-11.4631
active	-11.4631
▁Congo	-11.4632
▁democracies	-11.4633
▁Age	-11.4637
performance	-11.4638
▁halt	-11.4639
▁Mil	-11.464
ense	-11.4641
dri	-11.4643
▁elite	-11.4645
▁transported	-11.4647
▁protective	-11.4647
▁attentive	-11.4647
87	-11.4651
▁posed	-11.4652
▁advised	-11.4653
▁cattle	-11.4655
▁smell	-11.4656
dom	-11.4657
int	-11.466
▁Division	-11.4662
▁criminals	-11.4663
ffe	-11.4663
▁Arena	-11.4664
▁menus	-11.4664
▁accompanying	-11.4667
Great	-11.4668
nis	-11.4668
▁origins	-11.4669
Vi	-11.467
▁protests	-11.467
▁Saudi	-11.4672
▁reactions	-11.4675
▁SQL	-11.4678
▁Privacy	-11.4682
udgetary	-11.4683
▁Leipzig	-11.4684
▁beside	-11.4684
▁stones	-11.4689
▁cater	-11.4698
▁corporations	-11.4698
▁immunity	-11.4698
▁unilateral	-11.4699
▁surgery	-11.4699
▁annually	-11.4701
inter	-11.4705
▁harsh	-11.4706
atic	-11.4707
▁Plus	-11.4707
hm	-11.4708
imo	-11.4711
▁wisdom	-11.4713
▁vertical	-11.4715
sum	-11.4715
▁bags	-11.4715
▁obstacle	-11.4716
▁pas	-11.4717
▁employ	-11.4718
▁ages	-11.4718
▁pursuit	-11.4721
▁linen	-11.4721
▁LCD	-11.4722
▁distinguish	-11.4725
▁medicinal	-11.4728
▁Slovak	-11.4728
▁samples	-11.4729
▁portion	-11.473
▁reasonably	-11.4731
ación	-11.4732
text	-11.4734
▁fe	-11.4735
▁fossil	-11.4735
▁galleries	-11.4735
Additionally	-11.4736
▁Classic	-11.4737
▁modification	-11.4738
▁Cy	-11.4739
▁Frank	-11.4741
▁KDE	-11.4741
phy	-11.4742
▁Bur	-11.4744
Neither	-11.4747
bal	-11.4751
▁coin	-11.4752
system	-11.4754
▁flood	-11.4758
nica	-11.4761
▁Update	-11.4763
▁marble	-11.4765
▁tonight	-11.4768
▁communist	-11.4768
wan	-11.4772
▁Disabled	-11.4772
▁inappropriate	-11.4772
▁memories	-11.4772
▁furnishings	-11.4776
▁perceived	-11.4776
▁certificates	-11.4777
▁jet	-11.4778
▁initiate	-11.4779
▁wished	-11.4781
▁worried	-11.4787
▁demonstrations	-11.4787
▁Il	-11.4788
▁linking	-11.4789
▁bands	-11.479
▁Nobel	-11.479
▁endorsed	-11.4793
▁Tur	-11.4797
DC	-11.4798
▁visas	-11.48
/2003	-11.4804
▁renewal	-11.4804
▁phrase	-11.4805
▁injection	-11.4806
▁belt	-11.4807
▁plates	-11.4808
▁aiming	-11.4808
▁Zu	-11.4809
▁Mari	-11.481
▁roles	-11.481
▁revolutionary	-11.4816
▁strain	-11.4816
▁AL	-11.4817
ites	-11.4821
Man	-11.4823
debate	-11.4825
▁Although	-11.4826
ée	-11.4827
▁query	-11.4829
▁WC	-11.4831
▁deciding	-11.4832
▁pretext	-11.4833
▁electronics	-11.4833
▁layers	-11.4834
Good	-11.4839
▁Mount	-11.4839
rä	-11.4844
▁laptop	-11.4846
▁seller	-11.4848
▁strikes	-11.4852
81	-11.4852
▁profitable	-11.4852
▁Zealand	-11.4854
▁Annex	-11.4856
sse	-11.4857
care	-11.4857
▁Apartment	-11.4857
2/	-11.4857
▁forecast	-11.4859
6%	-11.486
▁breath	-11.486
▁inviting	-11.4862
▁comfortably	-11.4863
▁tone	-11.4863
rel	-11.4867
▁simulation	-11.4869
▁avec	-11.4869
▁persist	-11.4871
ht	-11.4874
▁Cre	-11.4878
▁counts	-11.4879
▁Adam	-11.4881
▁Stock	-11.4881
▁Map	-11.4881
Art	-11.4881
▁exotic	-11.4884
▁Machine	-11.4885
▁studying	-11.4891
try	-11.4891
▁coach	-11.4892
▁german	-11.4896
▁witnessed	-11.4897
▁Den	-11.4897
▁basin	-11.4901
▁guilty	-11.4908
sson	-11.4908
home	-11.4909
▁breast	-11.4914
▁completing	-11.4914
tle	-11.4916
EE	-11.4916
▁Key	-11.4917
▁barrier	-11.4919
▁safer	-11.4921
▁woods	-11.4922
▁While	-11.4923
▁threatening	-11.4926
▁sheep	-11.4932
▁Nikon	-11.4937
▁dramatically	-11.4937
LD	-11.4939
▁kick	-11.4941
▁modernisation	-11.4941
▁anyway	-11.4947
▁Brok	-11.4947
ssen	-11.495
▁lit	-11.4957
tina	-11.4959
▁loaded	-11.496
▁smallest	-11.4963
anda	-11.4966
▁aboard	-11.4966
▁deadlines	-11.4968
▁tunnel	-11.4973
▁persecution	-11.4974
▁disabilities	-11.4974
ller	-11.4974
▁terraces	-11.4976
▁pushed	-11.4977
▁pair	-11.4978
▁concludes	-11.4979
cas	-11.498
▁prevents	-11.4981
Rule	-11.4982
▁cl	-11.4988
▁mat	-11.4989
▁Blair	-11.499
▁Summer	-11.4993
▁ruins	-11.4993
▁Climate	-11.4993
▁chances	-11.4993
Com	-11.4994
▁gaining	-11.4995
▁emphasize	-11.4995
▁Revolution	-11.4996
▁worker	-11.4996
▁tendency	-11.4997
▁interventions	-11.4997
▁hunting	-11.4998
62	-11.4998
ram	-11.5001
bol	-11.5004
BS	-11.5006
gent	-11.501
▁werden	-11.5012
▁sums	-11.5012
▁consultations	-11.5014
▁Bol	-11.5019
▁Wikitravel	-11.5019
pool	-11.502
▁hub	-11.5021
Dr	-11.5023
▁vibrant	-11.5027
1/	-11.5028
EX	-11.5029
▁pointing	-11.503
(1)	-11.5031
▁husband	-11.5034
▁drama	-11.5034
▁Newspapers	-11.5035
▁alpine	-11.5035
▁secular	-11.5035
dd	-11.5035
▁Afghan	-11.5042
▁Qui	-11.5046
▁spec	-11.5047
-5	-11.5048
▁container	-11.505
▁jazz	-11.5053
▁reign	-11.5054
tom	-11.5056
▁assessed	-11.506
▁possess	-11.5061
▁Image	-11.5062
▁Palm	-11.5062
als	-11.5062
▁Tele	-11.5062
▁illness	-11.5063
▁holes	-11.5064
▁deployment	-11.5066
oid	-11.5068
aga	-11.5069
position	-11.5069
84	-11.5073
vol	-11.5074
rom	-11.5074
▁advisory	-11.5074
▁(10	-11.5075
pl	-11.5076
▁Cultural	-11.5084
▁limiting	-11.5084
▁Gal	-11.5086
nder	-11.5086
▁broadcasting	-11.5087
▁dairy	-11.5088
▁Brand	-11.509
▁govern	-11.5091
▁AT	-11.5091
▁Tuscany	-11.5092
▁über	-11.5093
cro	-11.5098
pos	-11.5099
▁Ag	-11.5099
▁fastest	-11.5099
▁vol	-11.51
Dis	-11.5101
▁prerequisite	-11.5103
▁meaningful	-11.5104
▁divisions	-11.5104
rry	-11.5107
Pa	-11.5111
▁identifying	-11.5113
▁Products	-11.5115
gna	-11.5118
▁march	-11.5118
▁Computer	-11.5119
▁proves	-11.512
▁Shi	-11.5121
▁cabin	-11.5126
ats	-11.5126
▁baggage	-11.5126
phone	-11.5127
▁predict	-11.5128
▁render	-11.5129
▁problematic	-11.513
▁Schulz	-11.513
▁developer	-11.5131
▁trigger	-11.5132
jpg	-11.5134
▁Smith	-11.5134
▁fireplace	-11.5134
▁Cri	-11.5136
case	-11.5143
▁journalist	-11.5144
▁Yu	-11.5147
▁Canadian	-11.5149
▁bulk	-11.5149
▁complementary	-11.515
▁pipeline	-11.515
▁nightlife	-11.5151
▁Tar	-11.5152
▁delegations	-11.5153
▁Dry	-11.5154
▁Algeria	-11.5157
▁Francisco	-11.5157
▁forestry	-11.516
itor	-11.5161
▁costly	-11.5162
track	-11.5166
0.000	-11.5167
arch	-11.5172
▁BC	-11.5172
▁tensions	-11.5176
▁festivals	-11.5178
▁gate	-11.518
▁XML	-11.518
▁Mary	-11.5181
▁modifications	-11.5184
ando	-11.5186
▁Ms	-11.5187
▁ci	-11.5188
til	-11.519
▁breaks	-11.519
hard	-11.5193
▁interpret	-11.5194
▁1%	-11.5195
▁een	-11.5195
▁variables	-11.5195
▁literally	-11.5196
▁confirms	-11.5197
user	-11.5199
gio	-11.5199
3/	-11.5201
▁Point	-11.5201
▁imagination	-11.5203
▁Colombia	-11.5204
▁exploited	-11.5206
bat	-11.5206
▁68	-11.5207
▁Tre	-11.5207
▁incomes	-11.5208
▁Tro	-11.5208
▁Del	-11.5209
▁multinational	-11.5213
BC	-11.5215
▁180	-11.5217
dos	-11.5217
uf	-11.5219
91	-11.5222
▁crash	-11.5224
▁Thai	-11.5228
н	-11.5229
▁transnational	-11.5229
▁Engineering	-11.5231
soft	-11.5231
vote	-11.5233
▁Solidarity	-11.5233
owned	-11.5241
▁adjacent	-11.5242
▁submission	-11.5243
▁attacked	-11.5245
▁petition	-11.5245
profit	-11.5245
▁climb	-11.5245
mos	-11.5248
▁NO	-11.5248
▁wo	-11.5249
▁random	-11.5251
elli	-11.5252
aria	-11.5252
tum	-11.5253
▁Word	-11.5255
▁sleeping	-11.5255
pers	-11.5255
▁brutal	-11.5258
▁fer	-11.5262
Net	-11.5262
▁modular	-11.5265
▁rolling	-11.5269
▁Help	-11.527
▁ME	-11.5271
▁traditionally	-11.5271
hy	-11.5271
▁loud	-11.5276
▁Galileo	-11.5277
▁dealer	-11.5281
]]''	-11.5281
lio	-11.5282
▁confidentiality	-11.5282
▁vor	-11.5283
▁clauses	-11.5283
tori	-11.529
▁Chancellor	-11.5293
pped	-11.5294
action	-11.5294
▁toxic	-11.5295
▁textiles	-11.5297
NC	-11.5298
▁trials	-11.53
logy	-11.53
▁popularity	-11.5301
▁precedent	-11.5304
▁EX	-11.5305
▁readers	-11.5305
▁minibar	-11.5306
▁60%	-11.5306
89	-11.5307
shi	-11.5307
▁Cer	-11.5309
▁buffer	-11.5312
May	-11.5318
▁spreading	-11.5318
▁Sign	-11.5319
▁retained	-11.5319
▁и	-11.5321
ency	-11.5321
▁Sound	-11.5321
▁legacy	-11.5327
▁ga	-11.5331
▁donor	-11.5331
▁Airlines	-11.5336
Ad	-11.534
▁couples	-11.5343
▁Future	-11.5344
after	-11.5345
hood	-11.5346
▁Croatian	-11.5347
▁lib	-11.5351
▁phenomena	-11.5351
▁spam	-11.5352
▁Ein	-11.5353
79	-11.5354
conditioning	-11.5358
▁aesthetic	-11.5359
Mail	-11.536
Further	-11.5361
▁Firefox	-11.5363
▁dioxide	-11.5367
plan	-11.5368
▁Bor	-11.537
▁licensed	-11.537
▁prop	-11.5371
▁Fed	-11.5372
game	-11.5374
▁theater	-11.5374
▁motivation	-11.5374
▁powder	-11.5374
▁app	-11.5374
▁oriented	-11.5375
▁incidents	-11.5376
▁unified	-11.5378
▁wanting	-11.5383
▁Vel	-11.5386
▁compromises	-11.5386
▁temporarily	-11.539
▁ideology	-11.539
▁renovation	-11.539
gt	-11.539
▁bird	-11.5392
-10	-11.5393
first	-11.5393
▁Em	-11.5393
▁palm	-11.5394
west	-11.5396
▁ads	-11.5398
▁speculation	-11.5398
▁outermost	-11.5398
▁Monti	-11.5402
base	-11.5402
▁indications	-11.5406
▁snacks	-11.5407
▁ratify	-11.5407
▁painted	-11.5407
tribu	-11.5417
▁affair	-11.5418
hole	-11.5418
73	-11.5419
ink	-11.5423
isch	-11.5423
8/	-11.5427
▁sta	-11.5427
▁passport	-11.5428
BI	-11.543
▁Solana	-11.543
▁accessed	-11.543
▁posting	-11.5431
▁Dolomites	-11.5431
▁loose	-11.5431
▁Gall	-11.5433
Di	-11.5435
▁gourmet	-11.5438
▁enhancing	-11.5443
▁cave	-11.5444
▁pricing	-11.5445
▁Pat	-11.5446
▁2007.	-11.5451
nto	-11.5451
▁refreshing	-11.5453
▁({{	-11.5453
trade	-11.5456
famous	-11.5457
▁(18	-11.546
fen	-11.5461
▁tasty	-11.5461
▁organs	-11.5461
1)	-11.5462
▁1988	-11.5462
▁Cro	-11.5462
▁correction	-11.5464
nov	-11.5465
▁Europa	-11.5466
public	-11.5469
▁chart	-11.5469
▁encountered	-11.5469
▁Fire	-11.5473
▁1930	-11.5474
▁Innovation	-11.5475
▁mono	-11.5475
▁meter	-11.5476
▁thou	-11.5482
ved	-11.5486
▁paragraphs	-11.5487
ech	-11.5492
▁William	-11.5494
▁bathing	-11.5497
▁350	-11.5498
▁haven	-11.5499
▁timing	-11.5501
▁preserving	-11.5501
rad	-11.5512
▁shorter	-11.5512
▁leg	-11.5512
▁definitions	-11.5512
▁processor	-11.5514
▁Vol	-11.5515
▁surfaces	-11.5516
▁fabulous	-11.5517
bl	-11.5519
▁Canary	-11.552
▁disadvantage	-11.5522
▁chip	-11.5523
▁democratically	-11.5524
▁enemies	-11.5525
tics	-11.5526
/96	-11.5538
▁Tourist	-11.5539
Whatever	-11.554
tti	-11.554
▁genocide	-11.5541
anti	-11.5545
▁vegetable	-11.5546
▁Warsaw	-11.5549
▁Kon	-11.5554
▁yacht	-11.5554
die	-11.5555
▁Written	-11.5556
▁Times	-11.5557
▁purchaser	-11.5558
▁gentle	-11.5559
▁vague	-11.5559
▁responding	-11.5562
▁vo	-11.5562
▁retreat	-11.5564
▁oasis	-11.5565
▁Hague	-11.5565
▁Force	-11.5567
▁Log	-11.5568
lli	-11.5568
▁floods	-11.5569
▁Haiti	-11.5569
▁holder	-11.557
ages	-11.557
▁trace	-11.5576
▁playground	-11.5582
▁Spirit	-11.5586
wei	-11.5586
▁broadly	-11.5586
▁evaluated	-11.5587
▁stretch	-11.5587
▁imbalances	-11.5589
▁conducting	-11.559
RM	-11.5592
▁assessing	-11.5593
▁pod	-11.5593
▁captured	-11.5595
▁1998,	-11.5596
OM	-11.5598
▁mounted	-11.56
spect	-11.56
▁beat	-11.56
▁privileges	-11.5601
Russia	-11.5602
iro	-11.5603
tting	-11.5603
▁Sur	-11.5606
▁Want	-11.5606
▁topical	-11.5608
▁Ticket	-11.5611
▁gambling	-11.5613
ami	-11.5615
▁shaped	-11.5616
▁seekers	-11.5617
▁DS	-11.5619
▁pragmatic	-11.5621
▁stimulus	-11.5621
▁continuity	-11.5621
▁Bonn	-11.5622
83	-11.5624
▁Excel	-11.5626
rid	-11.5627
Image	-11.5627
▁3%	-11.5629
▁activists	-11.5629
▁batteries	-11.5629
atory	-11.5633
trans	-11.5634
▁institute	-11.5637
▁statutory	-11.5637
▁Ford	-11.5637
▁persuade	-11.5637
llo	-11.5642
▁Montenegro	-11.5642
take	-11.565
cip	-11.5651
any	-11.5654
▁90%	-11.5655
tical	-11.5655
pet	-11.5655
lly	-11.5656
▁volumes	-11.5659
▁commands	-11.5659
logical	-11.566
▁52	-11.5664
▁Picard	-11.5664
▁cart	-11.5667
▁tracking	-11.5667
▁fulfill	-11.5669
▁optimize	-11.567
▁Ap	-11.567
▁refund	-11.567
▁retention	-11.5671
▁pushing	-11.5674
▁Mur	-11.5675
▁47	-11.5675
▁ranking	-11.5679
▁settlements	-11.568
pr	-11.5681
▁storm	-11.5681
mini	-11.5682
▁Credit	-11.5683
▁baths	-11.5685
▁Ashton	-11.5686
▁Cur	-11.5687
▁sind	-11.5687
▁Cohesion	-11.5691
▁Sen	-11.5693
▁introduces	-11.5699
ily	-11.5699
ific	-11.57
▁visibility	-11.5702
▁console	-11.5703
▁46	-11.5704
▁burning	-11.5707
▁orange	-11.5709
▁crop	-11.5711
▁accommodations	-11.5714
▁understandable	-11.5717
▁inspections	-11.5717
▁Mc	-11.572
▁municipal	-11.5725
▁Siemens	-11.5726
▁hybrid	-11.5726
▁safeguards	-11.5728
▁fragile	-11.5734
▁Bas	-11.5737
▁Print	-11.5738
▁economical	-11.5739
jan	-11.5743
▁responded	-11.5744
▁tongue	-11.5752
▁experiments	-11.5752
▁Discover	-11.5756
gger	-11.5764
fire	-11.5767
rit	-11.5767
▁estimate	-11.5768
▁varying	-11.577
4/	-11.577
ér	-11.5771
ín	-11.5772
TT	-11.5773
▁LED	-11.5773
USS	-11.5775
▁embargo	-11.5775
▁Guinea	-11.5775
LY	-11.5775
▁diplomacy	-11.5775
▁triple	-11.5776
▁municipality	-11.5777
▁Choose	-11.5781
▁multitude	-11.5783
▁macroeconomic	-11.5784
that	-11.5785
cat	-11.5788
▁RSS	-11.5788
▁withdrawn	-11.5791
mus	-11.5791
ace	-11.5792
▁Samsung	-11.5803
▁recognises	-11.5804
Use	-11.5804
▁defect	-11.5805
▁Bon	-11.5807
▁Mol	-11.5808
▁exert	-11.5809
▁seed	-11.5809
▁HP	-11.581
▁shut	-11.581
high	-11.5811
▁YOU	-11.5812
MI	-11.5812
▁deliberately	-11.5813
minded	-11.5813
▁launching	-11.5814
▁coordinating	-11.5816
▁zoom	-11.5817
▁gu	-11.5818
Real	-11.5819
▁lending	-11.5822
▁PS	-11.5826
tsch	-11.5827
stop	-11.583
▁Garda	-11.583
▁foodstuffs	-11.5833
▁compensate	-11.5833
eck	-11.5834
▁slight	-11.5836
pen	-11.5839
▁sorts	-11.5843
▁confront	-11.5845
▁corrupt	-11.5848
▁closest	-11.5848
▁fulfilling	-11.585
▁contradiction	-11.5851
▁thy	-11.5852
gon	-11.5853
▁Relations	-11.5857
▁injury	-11.5857
ching	-11.586
▁thread	-11.5861
▁successes	-11.5862
▁merit	-11.5862
HA	-11.5864
face	-11.5865
▁quoted	-11.5867
bie	-11.5872
▁130	-11.5873
▁organising	-11.5874
▁AM	-11.5875
master	-11.5876
▁stresses	-11.5877
▁Athens	-11.5882
Per	-11.5883
▁interfere	-11.5884
▁Hand	-11.5884
▁hearts	-11.5887
▁passage	-11.589
▁OLAF	-11.589
▁adhere	-11.5891
piece	-11.5892
▁terrain	-11.5892
2006	-11.5893
▁sto	-11.5894
▁Winter	-11.5895
dian	-11.5897
▁wholly	-11.5901
▁Intel	-11.5902
▁screening	-11.5902
▁eliminating	-11.5907
▁friendship	-11.5908
▁oven	-11.5909
▁rice	-11.591
World	-11.5913
Open	-11.5914
▁dryer	-11.5914
2%	-11.5916
▁directors	-11.5917
mont	-11.5918
▁41	-11.5918
bound	-11.5921
▁buttons	-11.5922
▁weakness	-11.5923
call	-11.5924
▁bass	-11.5925
▁accompany	-11.5926
version	-11.5926
▁Cast	-11.5932
▁dropped	-11.5932
▁viruses	-11.5938
▁cultivation	-11.594
ete	-11.5941
▁pr	-11.5942
stadt	-11.5942
ced	-11.5943
looking	-11.5947
▁weaken	-11.5949
vy	-11.5949
▁quarters	-11.595
▁fin	-11.5952
order	-11.5954
lip	-11.5956
▁harder	-11.5957
▁precautionary	-11.5957
▁celebration	-11.596
▁Sri	-11.596
▁Starfleet	-11.5963
▁Des	-11.5963
▁gi	-11.5965
71	-11.5966
▁ser	-11.5969
▁weaknesses	-11.5969
▁feasible	-11.5974
▁positively	-11.5974
▁coating	-11.5976
rant	-11.5977
now	-11.5978
nne	-11.598
▁assert	-11.5982
Get	-11.5983
▁Patten	-11.5983
▁Source	-11.5983
▁''[[	-11.5987
▁OK	-11.5987
▁fits	-11.5988
▁hoping	-11.599
▁negligence	-11.599
BO	-11.5991
▁exemption	-11.5994
▁disappeared	-11.5997
▁commodity	-11.5999
▁alarming	-11.6004
▁banana	-11.6004
▁reminded	-11.6004
▁rec	-11.6006
▁rhetoric	-11.6007
▁promenade	-11.6007
▁stainless	-11.6007
▁fridge	-11.6007
mis	-11.6008
2002	-11.6008
▁turnover	-11.6011
▁inequalities	-11.6015
▁70%	-11.6017
▁Should	-11.6017
▁carpet	-11.6017
▁Allow	-11.6018
▁recreation	-11.6019
▁Ali	-11.602
▁sch	-11.6022
▁bra	-11.6025
▁sees	-11.6028
▁compiled	-11.6029
▁horizon	-11.6032
ye	-11.6032
▁neighbour	-11.6032
▁solarium	-11.6033
▁magazines	-11.6034
▁ANY	-11.6037
TU	-11.6037
▁collecting	-11.6038
▁Pal	-11.6039
▁facilitating	-11.6041
▁irregularities	-11.6041
▁Op	-11.6041
▁alleged	-11.6043
month	-11.6043
▁lifts	-11.6045
ranging	-11.6046
▁outline	-11.6048
▁drag	-11.6048
1999	-11.605
▁attitudes	-11.6051
▁marina	-11.6054
▁liberty	-11.6057
▁preparatory	-11.6057
▁kingdom	-11.6058
▁shortage	-11.6059
▁entail	-11.6063
▁elimination	-11.6066
▁concessions	-11.6067
▁Holland	-11.6068
▁attending	-11.6068
▁49	-11.6068
▁lifelong	-11.6071
bot	-11.6075
4%	-11.6076
▁mature	-11.6077
winning	-11.6082
▁varieties	-11.6083
▁mod	-11.6083
▁pad	-11.6084
▁manually	-11.6088
▁Nazi	-11.6089
▁delightful	-11.6089
▁bugs	-11.6091
▁mal	-11.6091
▁teeth	-11.6094
▁accessibility	-11.6096
nger	-11.6098
▁generating	-11.6098
sign	-11.6098
▁craft	-11.6099
▁hosted	-11.61
▁acute	-11.61
iel	-11.6101
▁Var	-11.6102
▁boutique	-11.6104
▁forever	-11.6105
gno	-11.6106
quar	-11.6107
▁accomplished	-11.6108
▁measurements	-11.6108
bla	-11.6109
▁Mass	-11.6112
▁Angel	-11.6112
▁Fun	-11.6113
▁echo	-11.6113
▁rigid	-11.6116
▁CAN	-11.6116
▁Hussein	-11.6116
▁detected	-11.6117
▁Nokia	-11.6125
▁coup	-11.6128
ending	-11.6131
▁tariff	-11.6133
▁als	-11.6133
▁diagnosis	-11.6133
▁suspicion	-11.6133
▁capitalist	-11.6135
aba	-11.6136
▁finger	-11.6138
▁mines	-11.6139
▁Marketing	-11.6139
▁singer	-11.614
▁painter	-11.6142
▁Solutions	-11.6145
▁protectionism	-11.6147
▁template	-11.6147
▁HI	-11.615
▁disadvantaged	-11.615
▁persistent	-11.6151
IE	-11.6152
▁listing	-11.6153
ungs	-11.6154
DO	-11.6155
▁SS	-11.616
▁peripheral	-11.6163
▁Quark	-11.6166
▁OECD	-11.6167
hin	-11.617
▁shoulder	-11.6171
HO	-11.6173
▁instruction	-11.6173
▁civilization	-11.6174
▁cra	-11.6174
cus	-11.6175
pper	-11.6176
▁Kurdish	-11.6176
▁Hy	-11.6177
▁impressed	-11.6182
OP	-11.6183
▁"...	-11.6183
edge	-11.6184
ovo	-11.6184
Currently	-11.6185
▁races	-11.6186
▁packed	-11.6186
sti	-11.6189
show	-11.6195
▁catastrophe	-11.6201
▁optimized	-11.6205
▁Ham	-11.6206
▁mortgage	-11.621
▁overseas	-11.621
▁encourages	-11.6216
▁Working	-11.6216
▁incurred	-11.6219
▁remit	-11.622
▁os	-11.6223
▁anymore	-11.6224
▁slaughter	-11.6225
▁chronic	-11.6227
▁breed	-11.6228
▁donation	-11.6229
▁threaten	-11.6234
grade	-11.6234
▁replacing	-11.6236
phe	-11.6238
gging	-11.6239
▁15%	-11.624
▁Buyer	-11.6243
Fortunately	-11.6244
▁configured	-11.6246
▁anticipated	-11.6246
▁stamp	-11.625
▁austerity	-11.6253
▁relevance	-11.6253
▁neighborhood	-11.6253
▁Version	-11.6255
▁lifting	-11.626
▁Using	-11.6261
'''	-11.6266
Ho	-11.6269
▁Medical	-11.6269
discrimination	-11.627
▁Resolution	-11.627
▁analyze	-11.6271
▁tackled	-11.6272
▁outbreak	-11.6275
nny	-11.6277
▁blend	-11.6278
▁poorer	-11.6278
▁Laundry	-11.6279
▁complied	-11.6279
aging	-11.628
▁1986	-11.628
▁metals	-11.628
fect	-11.6281
▁tank	-11.6283
▁pra	-11.6285
▁scripts	-11.6287
▁Col	-11.6287
▁repercussions	-11.6287
▁updating	-11.6287
Three	-11.6287
▁ranks	-11.6291
▁110	-11.6291
lla	-11.6297
▁reveals	-11.6298
▁tens	-11.6302
▁qualification	-11.6303
▁flu	-11.6303
▁umbrella	-11.6304
vil	-11.6307
NE	-11.631
lum	-11.631
▁Technologies	-11.6313
sub	-11.6314
teen	-11.6315
▁prohibit	-11.6318
▁reward	-11.6319
▁notify	-11.632
▁vegetation	-11.6322
▁According	-11.6322
▁verification	-11.6322
▁Young	-11.6323
▁wir	-11.6326
sheet	-11.6328
▁attracted	-11.633
nel	-11.633
▁myth	-11.6331
▁queries	-11.6332
iza	-11.6334
▁titles	-11.6334
dro	-11.6334
▁Farm	-11.6336
sc	-11.6336
▁objections	-11.6338
feld	-11.6338
▁fare	-11.6339
ded	-11.634
▁Liberals	-11.6343
▁seasonal	-11.6343
▁defines	-11.6344
▁ranges	-11.6346
▁stack	-11.6347
▁eggs	-11.6351
:"	-11.6352
spir	-11.636
▁Hard	-11.636
lat	-11.636
▁champion	-11.6361
▁IBM	-11.6366
▁(5	-11.6368
rov	-11.6369
▁rough	-11.6369
▁downloads	-11.637
▁Mai	-11.6371
▁crack	-11.6373
▁Father	-11.6374
▁imply	-11.6374
aki	-11.6375
▁inland	-11.6375
▁fortress	-11.6377
▁(“	-11.6379
1.	-11.6381
▁Jordan	-11.6382
▁OSCE	-11.6383
▁accord	-11.6383
▁protects	-11.6383
▁experimental	-11.6385
Hence	-11.6389
nen	-11.6389
▁tissue	-11.6391
ema	-11.6391
tto	-11.6392
▁placement	-11.6394
▁è	-11.6394
▁eliminated	-11.6394
▁ample	-11.6394
sport	-11.6399
▁monastery	-11.64
lim	-11.6402
▁BO	-11.6405
lib	-11.6407
▁ordering	-11.6409
unt	-11.6409
▁1987	-11.6409
▁factories	-11.6411
▁rocks	-11.6412
sco	-11.6413
(2)	-11.6414
▁uphold	-11.6414
▁receiver	-11.6415
▁sustain	-11.6417
▁Ob	-11.6417
▁recipient	-11.6417
▁Börse	-11.6417
▁como	-11.6417
▁anonymous	-11.6417
▁altogether	-11.6417
▁wheels	-11.6418
▁wasn	-11.6418
▁motto	-11.6418
sz	-11.6424
▁exhaust	-11.6424
▁intuitive	-11.6426
▁laundry	-11.6426
▁abortion	-11.6426
▁milestone	-11.6426
▁rhythm	-11.6427
▁ALDE	-11.6427
effective	-11.6432
▁MEP	-11.6432
Ch	-11.6434
▁Date	-11.6435
▁FREE	-11.6435
▁Tampere	-11.6435
▁CDs	-11.6435
Special	-11.6436
▁enshrined	-11.6436
▁spoil	-11.6437
▁passive	-11.6438
▁hydraulic	-11.6438
▁segments	-11.644
▁evenings	-11.6441
iana	-11.6443
▁Text	-11.6448
cen	-11.6451
▁hygiene	-11.6452
▁propaganda	-11.6452
▁strongest	-11.6452
▁midst	-11.646
▁Verheugen	-11.6461
about	-11.6467
▁Watch	-11.6469
▁CH	-11.6469
employed	-11.6469
gor	-11.647
▁temple	-11.6471
▁Building	-11.6472
ender	-11.6475
▁pitch	-11.6475
▁noisy	-11.6478
ifies	-11.6479
▁socialist	-11.6479
▁broadband	-11.6479
▁tuna	-11.648
▁DJ	-11.6482
▁File	-11.6482
aya	-11.6482
onia	-11.6483
ista	-11.6483
▁consultants	-11.6485
▁Cuban	-11.6486
▁Course	-11.6486
▁Chair	-11.6486
▁om	-11.6486
2004	-11.6488
▁corresponds	-11.6489
▁tons	-11.6492
▁sq	-11.6493
TI	-11.6493
▁compliment	-11.6495
▁guiding	-11.6496
▁rehabilitation	-11.6496
▁forbidden	-11.6496
tory	-11.6498
craft	-11.6504
ject	-11.6505
▁Cleaning	-11.6506
▁diesel	-11.6507
▁deliveries	-11.6507
pot	-11.6513
▁slogan	-11.6514
▁definitive	-11.6516
▁sick	-11.6519
▁Initiative	-11.6522
▁Orchestra	-11.6522
misunderstanding	-11.6522
▁sends	-11.6523
▁calculate	-11.6523
▁confronted	-11.6525
▁Düsseldorf	-11.6525
rest	-11.6525
speaking	-11.6527
ics	-11.6529
qu	-11.6535
-7	-11.6537
▁flora	-11.6538
away	-11.6542
▁prevail	-11.6543
▁enchanting	-11.6544
▁aspirations	-11.6546
▁Instruments	-11.6546
▁commissioned	-11.6548
Don	-11.6549
gua	-11.6549
▁optimization	-11.6549
▁geared	-11.655
▁85	-11.655
▁App	-11.6551
▁uns	-11.6551
...)	-11.6552
SM	-11.6553
▁wing	-11.6554
▁couldn	-11.6554
▁nach	-11.6556
stro	-11.6557
▁refrain	-11.6558
▁timber	-11.6558
▁Century	-11.6558
▁livestock	-11.6559
▁toys	-11.6561
▁disregard	-11.6565
▁networking	-11.6567
Bi	-11.6567
▁hospitals	-11.6569
eta	-11.6572
▁GMOs	-11.6573
▁deployed	-11.6574
Ca	-11.6576
▁Rose	-11.6578
▁Dam	-11.6578
fla	-11.6581
▁72	-11.6582
▁incredibly	-11.6584
▁qualitative	-11.6584
▁variations	-11.6584
sar	-11.6588
cost	-11.6588
▁1.2	-11.6589
▁grasp	-11.6595
tone	-11.6595
▁magical	-11.6596
▁Bri	-11.6599
▁brush	-11.66
cular	-11.6602
▁empire	-11.6602
nate	-11.6603
▁1985	-11.6603
▁PA	-11.6605
aux	-11.6607
bli	-11.6608
▁(4	-11.6613
ifying	-11.6614
TRA	-11.6614
▁lifetime	-11.6615
UL	-11.6617
value	-11.6617
▁Sim	-11.6618
▁debut	-11.662
▁writers	-11.6624
▁transmit	-11.6625
▁arena	-11.6626
lation	-11.6627
▁Serbian	-11.6627
▁truck	-11.6628
Certainly	-11.6629
▁fluid	-11.6631
▁emotions	-11.6634
▁Br	-11.6635
wear	-11.6636
▁hu	-11.6636
▁arch	-11.6636
▁protein	-11.6637
Ri	-11.6637
▁sal	-11.6637
▁peninsula	-11.6638
▁poet	-11.6638
▁descriptions	-11.6639
▁blocking	-11.6641
▁documented	-11.6642
▁halls	-11.6643
▁establishments	-11.6644
▁dock	-11.6649
▁bone	-11.6651
▁personalized	-11.6652
▁Anna	-11.6653
▁trendy	-11.6653
▁studios	-11.6655
▁disappointment	-11.6656
ingen	-11.666
▁od	-11.6665
▁promptly	-11.6665
where	-11.6667
▁republic	-11.6667
▁tanks	-11.6671
▁Ram	-11.6673
▁Fischler	-11.6673
▁momentum	-11.6673
▁EIB	-11.6673
▁liquidity	-11.6676
▁architects	-11.6676
▁swing	-11.6676
▁GM	-11.6679
▁aroma	-11.668
tiv	-11.6682
▁quantitative	-11.6682
▁organizing	-11.6683
▁Kor	-11.6684
▁tap	-11.6687
Euro	-11.669
IG	-11.669
▁Wikicars	-11.6691
Mon	-11.6697
MT	-11.6699
kar	-11.6701
▁occasionally	-11.6706
▁sister	-11.6708
▁Istanbul	-11.6709
▁conception	-11.671
nna	-11.6711
rus	-11.6711
▁restriction	-11.6714
road	-11.6715
▁Fin	-11.6717
Photocopying	-11.6718
mente	-11.6719
▁warn	-11.672
▁Timor	-11.672
▁Fran	-11.6726
sko	-11.6726
MC	-11.6728
human	-11.6729
▁conversation	-11.6731
▁Environmental	-11.6734
lé	-11.6734
▁preview	-11.6738
▁barely	-11.674
▁recreational	-11.6742
bad	-11.6744
etta	-11.6744
also	-11.6745
▁households	-11.6745
▁improves	-11.6747
▁attain	-11.6748
ume	-11.6748
nde	-11.6748
▁cocktail	-11.6749
▁colourful	-11.675
▁instances	-11.675
iff	-11.675
▁tired	-11.6751
▁emergence	-11.6754
▁issuing	-11.6755
▁photographer	-11.6755
▁moon	-11.6755
▁accelerate	-11.6755
▁signatures	-11.6756
▁suspect	-11.6757
▁Sales	-11.6757
▁humans	-11.6759
▁lands	-11.676
platz	-11.6761
▁Shanghai	-11.6763
▁Uni	-11.6763
cap	-11.6768
▁160	-11.6768
▁tied	-11.6772
▁scandal	-11.6772
▁intensity	-11.6772
▁Fri	-11.6776
▁assumption	-11.6777
▁Tokyo	-11.6781
DF	-11.6782
▁detriment	-11.6782
▁ré	-11.6782
/3	-11.6785
▁matching	-11.6787
▁beam	-11.679
▁earliest	-11.679
▁archives	-11.6791
ité	-11.6796
▁PR	-11.6797
▁promotional	-11.6797
struct	-11.6798
▁"[	-11.6799
▁wearing	-11.6799
▁vulnerability	-11.6799
nbsp	-11.6799
▁Lounge	-11.68
zio	-11.6801
▁administrator	-11.6804
▁chef	-11.6805
▁resident	-11.6806
▁2015	-11.6807
▁incomplete	-11.6808
▁geo	-11.6808
▁displaced	-11.6808
▁parish	-11.681
▁LA	-11.6811
▁realities	-11.6812
▁privilege	-11.6814
▁Band	-11.6817
▁competing	-11.6818
▁versatile	-11.6818
▁generic	-11.6818
▁installer	-11.6818
▁disagreement	-11.6819
▁bell	-11.6825
▁genre	-11.6825
▁sixth	-11.6826
front	-11.6827
▁Taliban	-11.6827
cil	-11.683
▁asks	-11.683
liberal	-11.6831
▁chi	-11.6833
▁licences	-11.6834
▁tutorial	-11.6836
▁biotechnology	-11.6836
club	-11.6836
▁Balkan	-11.6839
▁debts	-11.6841
▁Sports	-11.6844
▁parliamentarian	-11.6845
▁voltage	-11.6851
▁workflow	-11.6854
fre	-11.6855
▁Unfortunately	-11.6857
UM	-11.686
▁backdrop	-11.6864
ischen	-11.6867
▁Renaissance	-11.6867
▁refuge	-11.6868
▁college	-11.6869
rous	-11.6869
▁Right	-11.687
▁formulated	-11.6872
▁"({{	-11.6872
EST	-11.6872
▁shores	-11.6873
▁defended	-11.6873
ière	-11.6875
▁Para	-11.6876
▁confrontation	-11.6877
duc	-11.688
▁honey	-11.6882
▁Local	-11.6882
▁specification	-11.6883
SD	-11.6883
▁Dal	-11.6884
▁tariffs	-11.6885
aro	-11.6887
▁140	-11.6888
▁Marine	-11.6889
▁severely	-11.689
tun	-11.6891
▁о	-11.6892
▁springs	-11.6893
▁remark	-11.6893
uda	-11.6894
▁DO	-11.6898
▁demonstrating	-11.69
▁harmonise	-11.6901
▁Ker	-11.6901
▁54	-11.6903
▁gaps	-11.6903
check	-11.6904
▁bitter	-11.6907
main	-11.6908
▁credits	-11.6909
▁Madeira	-11.6909
▁Scottish	-11.6909
▁dare	-11.6909
poli	-11.6913
82	-11.6914
▁wi	-11.6915
wen	-11.6916
▁mankind	-11.6918
▁Hor	-11.692
Da	-11.6921
▁boarding	-11.6923
▁establishes	-11.6923
▁sensors	-11.6924
▁hyper	-11.6925
▁accurately	-11.6926
▁Wild	-11.6926
▁delight	-11.6927
▁appalling	-11.6927
▁clarified	-11.6927
▁constituency	-11.6927
▁scratch	-11.6927
▁critics	-11.6929
▁Bou	-11.6931
▁financially	-11.6933
strasse	-11.6935
generation	-11.6937
▁abolished	-11.6937
political	-11.6939
arian	-11.6939
▁sooner	-11.6942
▁Championship	-11.6943
▁Roth	-11.6944
▁Santer	-11.6945
▁conscious	-11.6945
▁magnetic	-11.6945
▁Tarifa	-11.6945
dding	-11.6948
Ne	-11.6949
tors	-11.6955
▁Hitler	-11.6955
▁drawings	-11.6955
▁Deep	-11.6955
▁Level	-11.6959
▁stricter	-11.696
International	-11.6961
ened	-11.6963
▁worthwhile	-11.6964
▁lush	-11.6965
▁embrace	-11.6965
▁Review	-11.6966
▁poll	-11.6967
phi	-11.6967
rick	-11.6969
EG	-11.6973
▁Das	-11.6974
stand	-11.6978
▁10-	-11.6982
▁thrown	-11.6983
▁Fre	-11.6983
▁burn	-11.6985
▁earnings	-11.6991
▁Iceland	-11.6991
▁subsidiaries	-11.6992
▁GUE	-11.6994
▁symptoms	-11.7
▁injured	-11.7001
▁scenic	-11.7001
▁Seville	-11.7001
▁longest	-11.7002
night	-11.7004
Th	-11.7006
▁Clo	-11.7008
rist	-11.7009
gri	-11.701
▁copper	-11.7011
nc	-11.7014
▁devastating	-11.7019
▁broke	-11.7023
▁slide	-11.7028
▁warehouse	-11.7029
LU	-11.703
▁purchases	-11.703
▁fabrics	-11.703
1%	-11.7031
▁makers	-11.7036
▁med	-11.7036
▁somehow	-11.7036
7/	-11.7041
oon	-11.7042
▁condemnation	-11.7046
▁animation	-11.7046
▁surf	-11.7047
▁cro	-11.7048
ied	-11.705
▁alien	-11.705
lau	-11.7053
wed	-11.7056
▁beneficiaries	-11.7056
▁grade	-11.7057
Work	-11.7057
▁Universal	-11.7058
▁lawyer	-11.7059
▁misleading	-11.706
▁casting	-11.706
/4	-11.7062
▁verified	-11.7066
file	-11.7071
▁Premier	-11.7071
yer	-11.7072
▁criticise	-11.7077
▁Production	-11.7079
▁abstract	-11.7081
info	-11.7081
▁Try	-11.7085
Banquet	-11.7085
▁boy	-11.7087
▁outer	-11.7089
▁(1)	-11.7089
wind	-11.709
▁Direct	-11.7091
▁bridges	-11.7092
▁snack	-11.7093
▁destroying	-11.7094
▁Tan	-11.7095
▁holders	-11.7097
▁Name	-11.7098
▁acoustic	-11.7099
▁53	-11.71
▁electro	-11.7102
▁carriage	-11.7103
.10	-11.7103
▁Info	-11.7106
zzo	-11.7109
SO	-11.711
rink	-11.7111
▁Sto	-11.7112
▁suicide	-11.7113
5-00	-11.7113
▁"3	-11.7115
Built	-11.7115
▁ch	-11.7116
uer	-11.7117
Ar	-11.7118
▁2006.	-11.7121
▁juice	-11.7122
▁intermediate	-11.7122
▁density	-11.7122
Likewise	-11.7122
▁mounting	-11.7122
Time	-11.7123
▁Journal	-11.7123
▁Mail	-11.7123
ctor	-11.7123
▁Zi	-11.7125
▁varies	-11.7125
▁pla	-11.7127
▁API	-11.7127
Depend	-11.7128
oo	-11.7129
▁therapeutic	-11.7129
guard	-11.713
▁participant	-11.7131
▁exceeded	-11.7131
▁liberalization	-11.7133
▁1945	-11.7134
▁Battle	-11.7135
▁portable	-11.7135
▁vocal	-11.7138
map	-11.714
▁Lido	-11.714
▁inherent	-11.7144
▁Gott	-11.7145
▁cal	-11.7145
▁diploma	-11.7146
▁explosion	-11.715
▁breakthrough	-11.715
lov	-11.715
▁Eco	-11.715
oz	-11.7152
▁shipment	-11.7153
▁likewise	-11.7155
lä	-11.7156
▁postponed	-11.7157
++	-11.7161
▁treating	-11.7162
▁bookings	-11.7162
▁smile	-11.7162
▁Could	-11.7166
Nowadays	-11.7169
▁caution	-11.7169
▁Cra	-11.717
▁Borg	-11.717
▁resume	-11.717
rated	-11.7174
ios	-11.7177
iano	-11.718
▁scar	-11.718
▁influences	-11.7182
▁Hot	-11.7184
▁Antonio	-11.7185
▁monument	-11.7185
IF	-11.7185
▁simpler	-11.719
▁illegally	-11.719
rap	-11.7195
▁idyllic	-11.7197
▁FA	-11.7202
LS	-11.7202
▁slot	-11.7205
▁criticised	-11.7205
▁uncertain	-11.7206
▁elect	-11.7209
rei	-11.7209
▁max	-11.7211
▁Caucasus	-11.7216
▁sunset	-11.7218
▁suspend	-11.7219
▁sudden	-11.7219
sil	-11.7219
▁peaks	-11.7219
▁Bull	-11.722
▁Bavaria	-11.7221
COD	-11.7222
iger	-11.7222
▁Arc	-11.7223
▁pity	-11.7223
▁veto	-11.7224
lift	-11.7225
▁gratitude	-11.7225
▁democratisation	-11.7225
▁enforced	-11.7227
▁Kenya	-11.7227
▁composer	-11.7229
▁photograph	-11.7234
▁awaiting	-11.7237
step	-11.7237
phan	-11.7238
▁Abu	-11.7243
NGL	-11.7244
▁cornerstone	-11.7245
▁realization	-11.7246
▁reside	-11.7247
▁static	-11.7247
▁confused	-11.7248
▁Exp	-11.7253
ART	-11.7253
▁junior	-11.7254
▁absent	-11.7254
▁MA	-11.7254
▁Mira	-11.7255
▁designing	-11.7255
initiative	-11.726
▁Albert	-11.726
▁documentary	-11.726
▁Mode	-11.7262
▁Silver	-11.7264
▁discourse	-11.7264
▁Klingon	-11.7264
▁Drive	-11.7265
▁Pay	-11.7267
▁Audio	-11.7267
▁sc	-11.7269
▁Did	-11.7273
▁memorable	-11.7273
WA	-11.7273
▁submitting	-11.7275
lab	-11.7276
▁definite	-11.7276
▁speeds	-11.7277
aus	-11.7281
▁drain	-11.7281
isse	-11.7287
▁rush	-11.7288
▁Everything	-11.7289
▁MO	-11.729
erie	-11.729
▁51	-11.7292
▁amateur	-11.7293
▁containers	-11.7294
▁Pri	-11.7295
▁Mad	-11.7296
bble	-11.73
▁discounts	-11.7301
▁Ibiza	-11.7301
▁chaos	-11.7303
▁draws	-11.7306
▁tag	-11.7308
KE	-11.7308
▁Pop	-11.731
▁Ober	-11.731
▁brown	-11.7311
▁occurring	-11.7312
▁exercises	-11.7314
NT	-11.7316
▁campsite	-11.7316
▁cautious	-11.732
▁mothers	-11.7321
▁swift	-11.7324
Will	-11.7325
▁flavour	-11.7326
▁shoot	-11.7327
▁Char	-11.7327
pic	-11.7329
▁royal	-11.7329
▁nationality	-11.7329
▁deterioration	-11.733
▁encryption	-11.733
ett	-11.7332
▁cho	-11.7332
▁additives	-11.7333
eria	-11.7336
▁CON	-11.7341
▁mile	-11.7342
▁frames	-11.7342
▁lays	-11.7342
▁forecasts	-11.7342
▁pesticides	-11.7343
▁exported	-11.7345
▁mon	-11.7345
green	-11.7346
▁successive	-11.7349
▁Jacuzzi	-11.7349
▁Arctic	-11.735
▁BA	-11.735
▁accomodation	-11.7358
▁prosecution	-11.7358
▁Collection	-11.7359
och	-11.7362
▁Model	-11.7363
ancy	-11.7363
Hi	-11.7365
▁positioned	-11.7365
stan	-11.7366
▁advocates	-11.7368
▁Ak	-11.7369
rig	-11.7369
pit	-11.737
unk	-11.7371
▁seating	-11.7372
TOR	-11.7373
▁chains	-11.7373
▁Brazilian	-11.7374
fold	-11.7377
▁jam	-11.7377
▁indicating	-11.7378
▁Naples	-11.7378
▁"*	-11.7378
▁regulating	-11.7378
▁objection	-11.7386
▁prayer	-11.7386
▁Lab	-11.7387
▁Darfur	-11.7387
▁accountable	-11.7388
▁championship	-11.7388
DM	-11.7388
▁jo	-11.7389
▁cor	-11.7389
▁converter	-11.7389
▁violated	-11.7394
▁Kim	-11.7395
700	-11.7396
▁Freedom	-11.7396
▁radioactive	-11.7397
▁KG	-11.7399
▁criticisms	-11.74
tier	-11.74
▁pressures	-11.7401
▁interact	-11.7401
Between	-11.7404
▁Mexican	-11.7407
▁zur	-11.7407
▁judgement	-11.7407
anza	-11.7409
▁urged	-11.741
▁distortion	-11.7411
fra	-11.7412
▁contamination	-11.7412
▁anybody	-11.7413
▁meta	-11.7419
▁expecting	-11.7419
Taking	-11.742
▁abolish	-11.742
▁Cape	-11.7421
▁dress	-11.7423
▁fo	-11.7424
▁Liberties	-11.7426
▁voucher	-11.7426
VO	-11.7426
▁generates	-11.7432
▁900	-11.7433
▁inserted	-11.7434
▁foreigners	-11.7434
zone	-11.7435
▁invalid	-11.7436
▁Basque	-11.7436
kel	-11.7437
▁decides	-11.744
▁corrected	-11.744
▁suits	-11.7441
eli	-11.7442
▁Fine	-11.7443
Pi	-11.7445
▁judiciary	-11.7445
▁shield	-11.7445
▁recruitment	-11.7446
▁PO	-11.7448
▁Venezuela	-11.7449
bet	-11.745
▁sehr	-11.7451
dorf	-11.7451
▁biofuels	-11.7451
▁Directorate	-11.7451
▁slip	-11.7459
arm	-11.746
▁gladly	-11.7461
▁inspire	-11.7462
▁neglect	-11.7463
▁Hat	-11.7465
▁seal	-11.7467
ering	-11.7468
▁Gothic	-11.7472
▁Malaysia	-11.7472
▁equip	-11.7473
▁dealers	-11.7474
▁reflecting	-11.7476
▁SPA	-11.7478
▁fur	-11.7479
▁Directors	-11.7484
▁transposition	-11.7484
uni	-11.7484
▁courageous	-11.7488
▁Angeles	-11.7488
▁Fan	-11.7489
▁raid	-11.749
▁manipulation	-11.7494
▁prototype	-11.7494
▁resistant	-11.7496
▁cabinet	-11.7499
▁Wolf	-11.75
▁Carl	-11.7501
6/	-11.7504
▁kitchenette	-11.7505
▁Run	-11.7505
▁cluster	-11.7507
▁virtue	-11.7508
▁grip	-11.7508
zel	-11.7508
▁RO	-11.7509
▁Close	-11.7509
late	-11.7514
eri	-11.7516
col	-11.7516
▁incoming	-11.7517
http	-11.7518
▁appearing	-11.7518
▁encouragement	-11.7521
▁electorate	-11.7523
▁consciousness	-11.7524
▁guardian	-11.7528
▁adapting	-11.7529
▁==	-11.7541
▁licensing	-11.7542
▁enthusiasts	-11.7542
Ja	-11.7543
PR	-11.7543
▁wholeheartedly	-11.7543
▁formerly	-11.7545
tica	-11.7545
Si	-11.7551
▁frozen	-11.7552
▁fed	-11.7552
▁expresses	-11.7553
▁proactive	-11.7553
▁mutually	-11.7553
ador	-11.7553
▁valleys	-11.7554
▁Return	-11.7554
▁bro	-11.7556
▁About	-11.7557
ature	-11.7557
▁optimistic	-11.7558
▁LE	-11.7559
yr	-11.7563
▁Everyone	-11.7564
▁Wales	-11.7567
ock	-11.7568
Throughout	-11.757
▁hinder	-11.7571
▁curious	-11.7572
▁1979	-11.7573
▁shapes	-11.7573
▁Bali	-11.7574
▁fr	-11.7574
▁viewpoint	-11.7574
ttle	-11.7576
reg	-11.7582
▁fauna	-11.7582
▁entails	-11.7586
growing	-11.759
▁behave	-11.759
sche	-11.7591
▁patio	-11.7591
▁shelter	-11.7591
▁Harbour	-11.7591
▁gene	-11.7592
▁cozy	-11.7593
TP	-11.7595
Accordingly	-11.7596
▁cook	-11.7597
▁rentals	-11.7597
▁PM	-11.7597
▁recordings	-11.7598
▁hip	-11.76
▁Color	-11.7601
▁chips	-11.7606
▁tv	-11.7606
uz	-11.7608
lder	-11.761
▁cache	-11.761
▁influential	-11.7611
▁robots	-11.7611
▁fitting	-11.7612
▁boys	-11.7614
▁poses	-11.7616
▁56	-11.7619
proof	-11.7619
HS	-11.762
▁bis	-11.7621
rug	-11.7622
▁2%	-11.7622
Mu	-11.7624
▁Within	-11.7626
▁childhood	-11.7631
▁marginal	-11.7633
AU	-11.7634
gged	-11.7636
just	-11.7636
course	-11.7636
Book	-11.7637
▁Pool	-11.7641
▁leverage	-11.7645
▁judged	-11.7647
ulate	-11.7648
▁(8	-11.7648
▁wholesale	-11.7652
▁Australian	-11.7654
ARD	-11.7655
▁translators	-11.7655
▁contradict	-11.7659
▁stimulating	-11.766
▁08	-11.7662
iling	-11.7664
▁tan	-11.7664
ically	-11.7665
▁crowd	-11.7666
▁unclear	-11.7671
▁anticipate	-11.7672
né	-11.7674
▁burdens	-11.7674
bul	-11.7674
▁Sav	-11.7675
▁professionalism	-11.7676
▁Articles	-11.7678
cm	-11.7679
▁irresponsible	-11.768
▁captain	-11.7681
▁wins	-11.7681
mun	-11.7682
▁surfing	-11.7685
▁cosmetic	-11.7686
▁organisms	-11.7689
▁drew	-11.769
▁distances	-11.769
▁cellar	-11.769
▁bombing	-11.7692
▁Pin	-11.7692
▁appropriately	-11.7693
AN	-11.7693
▁Look	-11.7694
Ver	-11.7694
▁english	-11.7697
▁nationalism	-11.7697
▁HO	-11.7698
▁basket	-11.7699
▁Santiago	-11.77
▁proprietary	-11.77
▁FAQ	-11.77
▁Police	-11.7701
5,000	-11.7702
▁Democrat	-11.7702
▁Sin	-11.7707
▁complain	-11.7708
▁picked	-11.7709
▁Juan	-11.7709
▁descend	-11.7709
rri	-11.7712
horn	-11.7714
▁Located	-11.7716
Ni	-11.7718
SS	-11.7719
▁exhibitors	-11.7719
igh	-11.772
sector	-11.7723
DVD	-11.7724
▁360	-11.7724
nig	-11.7725
▁internally	-11.7728
▁bri	-11.7728
▁opposing	-11.7729
▁onwards	-11.7732
▁ti	-11.7732
▁disappointing	-11.7733
▁harvest	-11.7734
▁neck	-11.7735
▁mixing	-11.7736
▁fashionable	-11.7737
▁epidemic	-11.7739
▁Airconditioning	-11.774
lem	-11.774
▁ecommerce	-11.7742
▁traces	-11.7742
vid	-11.7743
▁3.5	-11.7746
yan	-11.7746
weight	-11.7748
▁Off	-11.7749
▁concluding	-11.775
▁licenses	-11.775
▁dish	-11.7751
▁MI	-11.7751
ua	-11.7754
Inter	-11.7758
▁Competition	-11.776
dimensional	-11.7763
▁Official	-11.7765
▁monopolies	-11.7769
▁synthetic	-11.7769
▁upgraded	-11.777
▁pipe	-11.777
▁Avenue	-11.7771
▁headed	-11.7772
▁connects	-11.7775
▁prizes	-11.7775
used	-11.7775
▁Stay	-11.7777
▁dose	-11.7778
phon	-11.7778
▁pit	-11.7779
cit	-11.7779
▁multiannual	-11.778
▁phases	-11.7782
▁assumes	-11.7783
▁Sarkozy	-11.7783
▁Euros	-11.7784
gl	-11.7789
bing	-11.7789
▁Tuscan	-11.7795
▁Sat	-11.7795
fort	-11.7796
▁enthusiastic	-11.7796
▁SDL	-11.7798
bes	-11.7798
aka	-11.7801
▁pending	-11.7801
vit	-11.7802
▁Vis	-11.7807
▁aged	-11.7808
start	-11.7808
▁Bla	-11.7811
▁Kas	-11.7812
▁Democracy	-11.7816
}	-11.7816
▁bin	-11.7819
9/	-11.7819
enburg	-11.7821
EA	-11.7821
▁disability	-11.7822
▁mould	-11.7825
▁Alpha	-11.7827
▁Andreas	-11.7828
▁Milosevic	-11.7829
▁Province	-11.7829
gie	-11.7831
▁manifest	-11.7831
▁servants	-11.7831
zar	-11.7831
Fourthly	-11.7832
▁EURO	-11.7833
Along	-11.7833
▁Temple	-11.7834
FT	-11.7834
mil	-11.7834
▁prohibition	-11.7835
ean	-11.7837
tung	-11.7838
max	-11.7838
▁straightforward	-11.7839
▁restoring	-11.7839
▁Back	-11.784
▁tub	-11.784
nau	-11.7841
tico	-11.7844
▁font	-11.7845
▁binary	-11.785
▁methodology	-11.7852
▁donations	-11.7856
▁psycho	-11.7858
▁yea	-11.7859
▁letting	-11.7859
▁disparities	-11.786
▁Emperor	-11.786
▁Arabia	-11.7868
▁footing	-11.7868
▁coincide	-11.7869
▁passionate	-11.7871
▁Globalisation	-11.7872
▁Motor	-11.7872
Right	-11.7873
▁Table	-11.7874
▁Majorca	-11.7878
pes	-11.7879
▁confined	-11.7887
nte	-11.7887
▁infection	-11.7889
▁gifts	-11.7891
ATION	-11.7892
sarge	-11.7893
▁Ros	-11.7893
▁literary	-11.79
▁privatisation	-11.79
▁Prix	-11.7902
att	-11.7902
▁billions	-11.7902
liche	-11.7903
nit	-11.7904
▁Dar	-11.7905
▁Matt	-11.7906
ups	-11.7908
GO	-11.7909
taining	-11.7909
mpl	-11.791
▁archaeological	-11.791
▁Wine	-11.791
▁habit	-11.7912
carbon	-11.7914
▁Len	-11.7916
▁Dun	-11.7918
rik	-11.7919
▁Supreme	-11.792
▁injustice	-11.792
gal	-11.792
halt	-11.7922
▁Km	-11.7925
▁lengthy	-11.7925
▁capita	-11.7926
▁ke	-11.7926
nan	-11.7928
▁smoothly	-11.793
▁duplicate	-11.793
▁sacrifice	-11.7932
cultural	-11.7933
▁Channel	-11.7936
▁enters	-11.7936
this	-11.7937
ML	-11.7938
▁beginners	-11.7939
▁Steel	-11.7939
▁multilingual	-11.794
▁indicator	-11.794
▁slave	-11.794
▁Hof	-11.7941
▁economists	-11.7946
uv	-11.7947
▁rape	-11.7947
▁celebrations	-11.7947
▁travelers	-11.7948
eng	-11.7949
productive	-11.795
▁Eu	-11.7951
▁murdered	-11.7952
KA	-11.7954
ii	-11.7955
door	-11.7958
▁formulation	-11.7958
▁sentences	-11.796
▁shaping	-11.7961
▁stadium	-11.7961
▁spray	-11.7961
▁conditioned	-11.7963
▁competitions	-11.7963
▁mega	-11.7964
dol	-11.7965
5.00	-11.7967
cca	-11.7967
▁DG	-11.7968
▁zum	-11.7972
▁Slovenian	-11.7972
Te	-11.7973
▁horny	-11.7974
▁ineffective	-11.7976
▁Package	-11.7977
cell	-11.7977
conf	-11.7978
▁conditional	-11.7979
▁exp	-11.7981
▁José	-11.7981
▁Palacio	-11.7981
▁entre	-11.7982
ün	-11.7982
determination	-11.7982
▁mayor	-11.7988
▁peer	-11.7989
▁dated	-11.7989
▁predecessor	-11.7992
uta	-11.7993
▁fiber	-11.7993
▁recommends	-11.7994
ush	-11.7995
▁scenarios	-11.7995
▁unexpected	-11.7996
hol	-11.7996
▁mask	-11.7998
▁applicants	-11.7998
quer	-11.7999
tha	-11.8
▁failures	-11.8
iness	-11.8
▁1:	-11.8002
▁tastes	-11.8004
▁tastefully	-11.8005
ister	-11.8009
enti	-11.8011
▁counting	-11.8012
Whenever	-11.8017
▁charging	-11.8022
▁salaries	-11.8022
▁Goals	-11.8023
▁distress	-11.8028
EF	-11.803
▁screens	-11.8031
▁comprising	-11.8032
▁Apache	-11.8032
▁exemplary	-11.8033
ila	-11.8033
▁bikes	-11.8034
▁calculations	-11.8035
live	-11.8035
▁dirty	-11.8036
▁chapters	-11.8036
▁requesting	-11.8037
▁awaits	-11.8041
▁Jackson	-11.8043
▁deposits	-11.8047
▁somebody	-11.8048
▁Enter	-11.8049
▁stroke	-11.8053
▁leap	-11.8055
Web	-11.8055
BB	-11.8059
▁Advanced	-11.8059
▁forcing	-11.806
▁infant	-11.8061
▁icons	-11.8062
▁spiral	-11.8063
ged	-11.8064
▁pupils	-11.8065
▁pumps	-11.8065
encia	-11.8067
rm	-11.8067
▁oak	-11.8068
▁Hospital	-11.8069
▁Ly	-11.8076
▁vous	-11.8078
▁Whether	-11.8079
▁engineer	-11.8086
▁Mill	-11.8091
iest	-11.8092
▁span	-11.8094
lessness	-11.8095
▁legend	-11.8096
▁insult	-11.8097
▁Form	-11.8101
▁deprived	-11.8101
▁pocket	-11.8103
▁Questions	-11.8103
{	-11.8105
▁Gor	-11.8105
▁thickness	-11.8106
▁coat	-11.8107
▁enjoyment	-11.811
▁tin	-11.8115
Bahn	-11.8115
production	-11.8115
core	-11.8119
▁investigated	-11.8119
▁accessing	-11.812
▁Victoria	-11.812
▁brave	-11.8125
▁consultancy	-11.8125
▁Unit	-11.8127
Click	-11.8129
▁Simply	-11.8129
▁subway	-11.8129
▁Pic	-11.8131
▁Officer	-11.8132
▁learnt	-11.8134
anna	-11.8134
cs	-11.8135
▁tournaments	-11.8135
amente	-11.8137
▁Installation	-11.8137
▁Kom	-11.8138
▁Learn	-11.814
tique	-11.8141
bling	-11.8142
▁Political	-11.8144
▁thrust	-11.8146
▁steady	-11.8146
▁Canal	-11.815
outs	-11.815
▁Scientific	-11.8154
▁reformed	-11.8154
▁moratorium	-11.8156
▁xenophobia	-11.8156
▁broker	-11.8156
▁touched	-11.8156
blo	-11.8157
▁remembered	-11.8158
Service	-11.8161
▁rises	-11.8162
▁Price	-11.8168
▁bu	-11.8169
▁Peru	-11.8169
▁cafes	-11.817
▁Lar	-11.817
▁singing	-11.8171
▁claiming	-11.8172
tour	-11.8172
▁infected	-11.8177
Far	-11.8178
itis	-11.8179
▁seeds	-11.8184
Who	-11.8185
▁Gate	-11.8186
▁Fall	-11.8188
900	-11.8189
▁epi	-11.8189
South	-11.819
▁Bath	-11.819
tric	-11.8191
▁cod	-11.8192
Design	-11.8192
ION	-11.8193
▁mentioning	-11.8194
▁Stefan	-11.8196
▁elevator	-11.8198
▁prostitution	-11.8198
▁jury	-11.8199
▁Rosa	-11.82
chan	-11.82
very	-11.82
▁offences	-11.8202
▁notable	-11.8202
▁hereby	-11.8207
▁comitology	-11.8208
▁ritual	-11.8208
▁employer	-11.8209
▁dying	-11.821
▁depression	-11.821
gla	-11.8211
fix	-11.8211
lets	-11.8212
gia	-11.8213
▁attributed	-11.8214
▁Pol	-11.8214
▁1920	-11.8214
▁texture	-11.8215
▁spin	-11.8215
▁approaching	-11.8217
▁restart	-11.8217
format	-11.8218
para	-11.8218
▁CS	-11.8218
▁fifty	-11.8219
▁offensive	-11.8219
▁nutrition	-11.8219
tation	-11.822
nas	-11.8222
▁outlook	-11.8223
num	-11.8224
▁Olympus	-11.8225
▁gem	-11.8226
tant	-11.8229
▁unite	-11.823
▁RA	-11.8231
▁commodities	-11.8239
▁3.0	-11.8239
▁undermining	-11.824
▁norms	-11.824
ress	-11.8242
▁Ana	-11.8242
▁reminder	-11.8242
▁slope	-11.8244
▁balconies	-11.825
▁nationalist	-11.8251
▁breakdown	-11.8251
vu	-11.8254
exe	-11.8258
Su	-11.8261
▁Oslo	-11.8261
▁trucks	-11.8262
▁conceived	-11.8264
▁Lanka	-11.8264
▁harmonious	-11.8265
▁stipulated	-11.8265
▁Magic	-11.8267
▁09	-11.8268
thumb	-11.8268
stat	-11.8269
verse	-11.8269
boat	-11.827
▁Perspective	-11.8271
▁drift	-11.8271
▁Alt	-11.8271
▁refrigerator	-11.8272
▁1984	-11.8272
▁appealing	-11.8272
ados	-11.8276
▁tasting	-11.8281
cross	-11.8282
▁beverages	-11.8283
3)	-11.8283
NS	-11.8284
▁mistaken	-11.8286
-18	-11.8288
tik	-11.8289
▁Vor	-11.8291
Wa	-11.8291
▁Kre	-11.8291
▁cons	-11.8292
▁precarious	-11.8292
mod	-11.8293
▁transferring	-11.8296
ej	-11.8298
▁nomination	-11.8298
▁Train	-11.83
otic	-11.83
▁Aires	-11.8301
▁Pope	-11.8302
▁Venetian	-11.8302
▁vibration	-11.8302
▁facade	-11.8303
ord	-11.8304
▁annex	-11.8306
▁marvellous	-11.8313
▁horror	-11.8313
▁Burg	-11.8314
▁Through	-11.8315
▁reproductive	-11.8316
Everything	-11.8316
▁columns	-11.8318
▁manages	-11.8319
crypt	-11.832
▁emphasises	-11.8321
▁Tax	-11.8325
▁designation	-11.8325
▁cloud	-11.8329
▁attributes	-11.8329
Add	-11.8331
▁Clinton	-11.8334
▁readily	-11.8336
▁tolerate	-11.8337
▁inventory	-11.8338
▁cocktails	-11.834
sus	-11.8342
▁SMS	-11.8343
Card	-11.8344
▁redundant	-11.8345
▁contradictory	-11.8345
▁Speed	-11.8345
▁excluding	-11.8345
station	-11.8345
▁differing	-11.8346
▁brothers	-11.8346
▁creatures	-11.8349
▁eleven	-11.8352
▁gen	-11.8352
illo	-11.8355
▁AR	-11.8356
assi	-11.8357
▁Lanzarote	-11.8359
▁actress	-11.836
▁Israelis	-11.836
▁deregulation	-11.836
ffer	-11.836
▁Roll	-11.8362
San	-11.8363
▁abide	-11.8364
zia	-11.8364
▁DIN	-11.8364
vie	-11.8365
▁supposedly	-11.8366
▁copied	-11.8366
ality	-11.8366
▁ethics	-11.8366
▁minors	-11.8367
▁warmth	-11.8369
▁traveling	-11.837
▁investor	-11.8372
▁Champion	-11.8376
BE	-11.8377
Part	-11.8378
Again	-11.8378
Ti	-11.838
rent	-11.8381
rium	-11.8381
▁bon	-11.8382
bio	-11.8382
▁Users	-11.8383
▁sciences	-11.8384
▁gun	-11.8384
▁flags	-11.8391
▁ko	-11.8392
▁Doctor	-11.8393
▁county	-11.8394
taking	-11.8396
▁lady	-11.8396
Does	-11.8398
▁realisation	-11.84
▁Care	-11.84
▁authorization	-11.8401
▁mad	-11.8404
Recently	-11.8404
ew	-11.8404
▁Zo	-11.8405
▁Currency	-11.8408
scape	-11.8409
lement	-11.8411
▁FI	-11.8412
▁frankly	-11.8414
▁Patent	-11.8421
▁gut	-11.8423
▁bre	-11.8424
▁arisen	-11.8425
pat	-11.8425
▁Ball	-11.8425
lines	-11.8427
good	-11.8427
▁altered	-11.8428
▁1,000	-11.8429
▁esta	-11.843
▁Cairo	-11.843
▁editorial	-11.843
East	-11.8431
▁GBP	-11.8431
▁Upper	-11.8432
load	-11.8433
▁Franz	-11.8433
▁ceilings	-11.8433
▁на	-11.844
▁expects	-11.844
▁refusing	-11.844
▁cooperating	-11.8441
ground	-11.8441
▁reconcile	-11.8443
▁allocate	-11.8443
▁Cas	-11.8444
▁bat	-11.8446
=""	-11.8448
adi	-11.845
▁hath	-11.8452
▁Save	-11.8453
oma	-11.8455
▁coupled	-11.8456
werk	-11.8457
▁Lama	-11.8457
FO	-11.8458
▁swiftly	-11.8458
Ge	-11.846
▁ceramic	-11.8463
kes	-11.8464
▁bal	-11.8465
▁dozens	-11.8466
▁Customs	-11.8466
Main	-11.8467
▁compound	-11.8469
host	-11.8471
▁circles	-11.8472
▁knock	-11.8472
awa	-11.8475
▁economics	-11.8478
▁browse	-11.8479
▁premier	-11.8479
▁Bavarian	-11.8479
Bu	-11.8479
▁Syn	-11.8479
uro	-11.848
▁1995,	-11.8482
▁regain	-11.8483
▁inability	-11.8487
CR	-11.8488
▁Russians	-11.8492
▁educated	-11.8492
▁entirety	-11.8492
defined	-11.8498
▁publicity	-11.8499
▁pubs	-11.85
)"	-11.85
▁disorder	-11.8501
Best	-11.8501
▁LAN	-11.8504
mt	-11.8505
▁dancing	-11.8506
Ga	-11.8507
/02	-11.8507
▁highlighting	-11.8508
▁exercised	-11.8513
UC	-11.8515
▁dedication	-11.8515
▁vaccination	-11.8515
▁obligatory	-11.8515
▁hatred	-11.8516
▁biking	-11.8516
▁reconsider	-11.8516
ggio	-11.8517
▁patented	-11.8519
SF	-11.852
Close	-11.8521
▁brochure	-11.8522
▁SC	-11.8524
wards	-11.8524
▁weaker	-11.8526
oso	-11.8529
▁switching	-11.853
mouth	-11.8532
recht	-11.8532
▁politician	-11.8533
▁thirdly	-11.8534
mbo	-11.8535
Jo	-11.8537
ddle	-11.8538
Im	-11.8539
▁enrich	-11.8541
▁towers	-11.8541
▁artwork	-11.8546
▁Premium	-11.8548
▁conceal	-11.8548
▁guess	-11.8548
self	-11.8549
▁deliberate	-11.8552
▁castles	-11.8554
▁Panasonic	-11.8555
▁neuro	-11.8555
▁]	-11.8555
nova	-11.8555
▁spatial	-11.8557
▁Jack	-11.8557
▁99	-11.8557
▁merits	-11.8557
▁Scha	-11.8557
▁hostage	-11.8557
▁fruitful	-11.8558
▁Chicago	-11.8558
▁Germans	-11.8559
▁exempt	-11.8559
iber	-11.856
▁petrol	-11.856
▁fleets	-11.8563
▁prevailing	-11.8565
▁opponent	-11.8566
▁Georgian	-11.8568
▁adapter	-11.8568
▁grapes	-11.8569
ament	-11.8569
fr	-11.857
▁1978	-11.8571
▁elaborate	-11.8572
CP	-11.8577
▁Guard	-11.8577
▁exterior	-11.858
▁salary	-11.8581
▁Verts	-11.8583
▁chic	-11.8583
▁hike	-11.8584
▁realm	-11.8585
▁threatens	-11.8585
ying	-11.8586
▁Send	-11.8589
▁crown	-11.8591
eller	-11.8592
lung	-11.8593
▁Os	-11.8593
WE	-11.8596
social	-11.8597
modern	-11.8597
▁affirm	-11.8597
▁Jacques	-11.8599
▁volunteers	-11.8599
▁Editor	-11.8599
tie	-11.8603
▁continents	-11.8605
▁Ironing	-11.8605
▁Limited	-11.8607
▁'''	-11.8607
Alternatively	-11.8609
working	-11.8611
▁Metal	-11.8611
str	-11.8611
▁Geo	-11.8613
mid	-11.8616
▁supplying	-11.8617
person	-11.8618
▁Way	-11.8618
Later	-11.8622
▁Dark	-11.8623
▁manoeuvre	-11.8624
ash	-11.8624
keeping	-11.8627
▁rejecting	-11.8633
sses	-11.8634
▁explanatory	-11.8634
▁minimize	-11.8635
▁gay	-11.8635
▁incompatible	-11.8635
▁postpone	-11.8636
▁institutes	-11.8636
▁(12	-11.8638
▁96	-11.8638
iner	-11.8647
eren	-11.8648
▁lectures	-11.8648
▁shoe	-11.8649
Ko	-11.8649
chrom	-11.8651
saving	-11.8652
wald	-11.8654
▁glance	-11.8657
▁fusion	-11.866
member	-11.8661
▁Albanian	-11.8664
▁Wood	-11.8664
▁Additional	-11.8665
ises	-11.8666
▁recognising	-11.8667
ines	-11.8668
▁analog	-11.8669
▁450	-11.8669
rb	-11.8674
udi	-11.8675
▁Provence	-11.8676
▁Without	-11.8676
▁Ring	-11.8676
▁populated	-11.8678
▁Kinnock	-11.8678
▁substantive	-11.8678
▁gar	-11.8681
developed	-11.8681
▁extraction	-11.8682
▁consume	-11.8687
▁polite	-11.8689
maker	-11.869
'',	-11.8691
bic	-11.8692
OT	-11.8698
▁volcanic	-11.87
▁oils	-11.8702
▁owe	-11.8703
commerce	-11.8703
▁Cambodia	-11.8703
▁exam	-11.8703
▁insecurity	-11.8706
▁Application	-11.8706
▁treasure	-11.8709
▁loyal	-11.871
▁handy	-11.8711
▁patience	-11.8711
▁unchanged	-11.8711
▁prosperous	-11.8711
-6	-11.8712
CNS	-11.8713
▁Transfer	-11.8714
▁stopping	-11.8715
▁Blu	-11.8715
▁proliferation	-11.8716
Sometimes	-11.8717
▁desires	-11.8721
▁mor	-11.8721
▁earmarked	-11.8722
▁durable	-11.8722
▁Statement	-11.8724
▁underway	-11.8725
▁facto	-11.873
▁lodging	-11.8733
▁protocols	-11.8734
▁Register	-11.8735
▁disclose	-11.8736
▁powered	-11.8738
▁traders	-11.8739
▁insofar	-11.8744
▁sacred	-11.8744
▁1967	-11.8746
▁insisted	-11.8746
▁guys	-11.8749
▁Estate	-11.8751
▁Dom	-11.8752
▁plastics	-11.8753
▁AKVIS	-11.8755
▁doctrine	-11.8755
▁2007-2013	-11.8755
web	-11.8756
▁hedge	-11.8756
▁pixels	-11.876
access	-11.8761
Article	-11.8761
▁Friedrich	-11.8764
▁pluralism	-11.8766
▁traceability	-11.8766
▁imprisoned	-11.8768
pon	-11.8768
▁gro	-11.8773
▁poorly	-11.8774
fin	-11.8774
▁Studies	-11.8775
▁Mid	-11.8776
▁firewall	-11.8777
dio	-11.8779
chu	-11.8779
▁(2)	-11.878
pra	-11.878
bau	-11.8782
▁Ladies	-11.8783
▁specialties	-11.8783
▁NEW	-11.8783
▁Dream	-11.8786
▁reaffirm	-11.8788
▁Sahara	-11.8789
▁recourse	-11.8791
php	-11.8793
▁relatives	-11.8793
▁café	-11.8794
▁surveys	-11.8795
▁feeding	-11.8797
▁Adjustment	-11.8799
▁Manhattan	-11.8799
util	-11.8801
fit	-11.8803
▁MD	-11.8803
▁undermined	-11.8805
▁Turn	-11.881
▁incorporating	-11.881
rooms	-11.8811
▁Mann	-11.8811
▁Days	-11.8812
.'"	-11.8813
sided	-11.8816
▁linear	-11.8816
▁bananas	-11.8817
▁58	-11.8819
▁hitherto	-11.8821
▁eradicate	-11.8821
▁loyalty	-11.8822
fel	-11.8823
server	-11.8824
▁undergo	-11.8826
▁appoint	-11.8828
▁lying	-11.883
aff	-11.8831
ssel	-11.8832
▁occurrence	-11.8832
▁reunification	-11.8832
▁sunshine	-11.8832
▁nominated	-11.8834
▁jewel	-11.8834
▁suspected	-11.8834
Port	-11.8835
▁illustrate	-11.8835
▁//	-11.8836
▁sink	-11.8842
▁Large	-11.8843
▁Communities	-11.8843
▁Hel	-11.8846
▁practise	-11.8847
▁Stone	-11.8847
▁Blog	-11.8847
▁tall	-11.8848
▁filed	-11.8849
▁discovering	-11.885
▁simplifying	-11.885
▁sentenced	-11.885
▁wash	-11.8853
▁ambassador	-11.8855
▁simplicity	-11.8855
▁subsidy	-11.8855
bia	-11.8855
nge	-11.8855
▁determines	-11.8857
OK	-11.8858
▁Smart	-11.886
▁Keep	-11.886
▁completeness	-11.886
▁Iron	-11.8861
▁odds	-11.8863
cri	-11.8864
ende	-11.8864
▁banning	-11.8868
▁ratings	-11.887
▁Final	-11.887
▁logos	-11.8871
▁Franco	-11.8873
efficient	-11.8873
▁exceeds	-11.8874
▁lucky	-11.8874
▁cleaner	-11.8876
▁Bru	-11.8877
▁Granada	-11.8878
▁seasons	-11.8878
▁sadly	-11.8878
das	-11.8879
7)	-11.888
▁Planet	-11.8885
▁explaining	-11.8886
▁pos	-11.8888
▁excursion	-11.8888
▁invented	-11.8888
MM	-11.8892
▁grows	-11.8895
other	-11.8896
▁qualify	-11.8896
▁Sciences	-11.8898
▁Buenos	-11.8899
▁millennium	-11.8899
▁Reader	-11.89
tach	-11.8901
▁muy	-11.8901
▁1975	-11.8902
▁warned	-11.8905
▁lifted	-11.8906
odo	-11.891
2010	-11.891
▁más	-11.8911
Sp	-11.8912
ures	-11.8912
▁interviews	-11.8913
▁touches	-11.8913
▁DNA	-11.8914
▁dam	-11.8915
Being	-11.8915
eries	-11.8915
tine	-11.8916
-0	-11.892
▁historically	-11.892
pal	-11.892
zing	-11.8921
▁tends	-11.8922
▁celebrating	-11.8922
▁cloning	-11.8922
▁Wind	-11.8922
▁recital	-11.8923
▁risen	-11.8924
▁Klaus	-11.8924
FS	-11.8926
▁happiness	-11.8933
▁flame	-11.8933
▁clinic	-11.8934
▁Terminal	-11.8934
duct	-11.8936
▁disorders	-11.8937
▁templates	-11.8937
▁publisher	-11.8939
▁multinationals	-11.8942
▁welding	-11.8944
ched	-11.8946
kl	-11.8947
reich	-11.8948
▁fiction	-11.8952
▁Ran	-11.8954
▁aggregate	-11.8955
Beyond	-11.8955
▁vegetarian	-11.8955
▁exile	-11.8958
System	-11.8963
ural	-11.8964
▁Kur	-11.8964
rno	-11.8966
▁casual	-11.8966
film	-11.8967
zz	-11.8968
anta	-11.897
▁expressions	-11.8972
▁mas	-11.8972
▁Instead	-11.8976
▁fatal	-11.8976
▁assortment	-11.8978
▁steadily	-11.8978
▁worship	-11.8978
▁Mozart	-11.8978
▁Lodge	-11.8978
▁Sche	-11.8979
ega	-11.898
▁mud	-11.898
▁assisted	-11.898
▁Stalin	-11.8982
▁Haus	-11.8983
▁Henry	-11.8986
▁tail	-11.8986
▁quo	-11.8987
▁header	-11.8988
▁shed	-11.8989
▁cur	-11.8993
imp	-11.8993
trip	-11.8993
6)	-11.8997
▁Gas	-11.8999
▁Near	-11.9
▁Awards	-11.9001
▁advocated	-11.9003
▁premature	-11.9006
▁massages	-11.9009
▁expedition	-11.9012
▁harmonization	-11.9012
▁companion	-11.9012
▁betting	-11.9012
▁Zimmer	-11.9012
▁authoritarian	-11.9013
▁overlook	-11.9014
▁copying	-11.9016
▁disturbing	-11.9018
▁roller	-11.9018
▁recipes	-11.9019
▁weekends	-11.9021
oro	-11.9022
sim	-11.9024
▁accomplish	-11.9028
▁restraint	-11.903
kra	-11.9031
▁ok	-11.9033
▁Neighbourhood	-11.9034
▁evaluating	-11.9034
▁assuming	-11.9034
▁farmhouse	-11.9036
▁Eurostat	-11.9037
▁nowhere	-11.9039
ali	-11.904
▁reproduce	-11.9041
▁showers	-11.9044
▁98	-11.9044
▁packing	-11.9047
Concerning	-11.9049
ough	-11.9049
▁brake	-11.905
▁administrations	-11.9052
▁Voyager	-11.9053
center	-11.9053
▁sectoral	-11.9054
▁Easter	-11.9057
/01	-11.9059
cke	-11.906
▁Chapter	-11.9063
▁organisational	-11.9063
▁Consulting	-11.9067
▁injuries	-11.9068
▁excessively	-11.907
▁communicated	-11.9071
Pe	-11.9073
IO	-11.9075
RL	-11.9075
▁regulators	-11.9076
▁apparatus	-11.908
▁mysterious	-11.908
▁Gla	-11.908
▁trick	-11.908
▁professions	-11.9082
▁decree	-11.9084
▁Sk	-11.9085
shing	-11.9086
▁Walk	-11.9086
▁legs	-11.9087
vice	-11.9087
▁patron	-11.9091
▁unwind	-11.9093
▁wealthy	-11.9095
▁Simon	-11.9095
▁cri	-11.9096
encing	-11.91
zin	-11.9101
▁surrender	-11.9102
vet	-11.9103
NI	-11.9104
▁neglected	-11.9104
▁helicopter	-11.9106
▁Store	-11.9106
lag	-11.9111
▁Ages	-11.9111
UT	-11.9112
▁breaches	-11.9112
▁correctness	-11.9115
▁strengths	-11.9115
▁leak	-11.9117
zan	-11.9118
▁bets	-11.9119
▁Excellent	-11.912
▁Regions	-11.912
▁god	-11.912
Cu	-11.9121
▁Stein	-11.9121
▁Kit	-11.9121
glo	-11.9122
block	-11.9125
▁disclosure	-11.9125
▁1968	-11.9127
rma	-11.9128
▁terminals	-11.9134
lian	-11.9134
▁stat	-11.9135
enza	-11.9135
▁Mercedes	-11.9137
▁Leonardo	-11.9137
▁Deutschland	-11.9137
▁distortions	-11.9145
▁Tal	-11.9146
▁cylinder	-11.9147
▁fairs	-11.9149
▁Electric	-11.9151
▁ON	-11.9153
▁Bin	-11.9155
Overall	-11.9156
▁Por	-11.9157
▁drought	-11.916
▁inspectors	-11.916
cade	-11.916
▁1.0	-11.9161
ographic	-11.9164
▁invention	-11.9166
cken	-11.9167
ija	-11.9168
ome	-11.9169
▁forefront	-11.9171
ache	-11.9172
two	-11.9173
▁bull	-11.9173
ère	-11.9174
cycle	-11.9174
shore	-11.9176
▁assignment	-11.9177
▁Torre	-11.9178
▁loads	-11.9179
▁dell	-11.9179
mie	-11.918
▁subtle	-11.918
▁league	-11.9181
Report	-11.9182
▁explosive	-11.9183
▁mercury	-11.9183
▁assistant	-11.9183
▁supranational	-11.9183
▁dependency	-11.9183
▁benefited	-11.9184
▁CPU	-11.9184
▁tie	-11.9185
ivo	-11.9185
cie	-11.9186
▁clip	-11.919
▁(13	-11.9193
▁contracting	-11.9195
▁fathers	-11.9195
▁anger	-11.9195
▁Maison	-11.9195
cel	-11.9196
/2010	-11.9198
▁confine	-11.9199
▁occupational	-11.9202
▁writes	-11.9203
▁Ost	-11.9203
bis	-11.9205
▁ridiculous	-11.9206
▁Delta	-11.9208
▁informative	-11.9208
▁gateway	-11.9208
▁lesser	-11.921
▁recipe	-11.921
5/	-11.9211
▁buyers	-11.9212
▁corners	-11.9213
▁Ry	-11.9213
▁rows	-11.9213
▁cycles	-11.9214
rator	-11.9214
dig	-11.9216
▁Leon	-11.9217
▁positioning	-11.9217
▁jacuzzi	-11.9217
▁CFSP	-11.9217
IV	-11.9218
▁Virtual	-11.9218
▁beliefs	-11.9218
▁rotation	-11.9219
▁attendance	-11.9219
▁04	-11.9222
▁frontiers	-11.9222
▁Aid	-11.9223
VA	-11.9226
▁Od	-11.9226
▁Rad	-11.9227
▁detrimental	-11.9228
▁aforementioned	-11.9229
▁Tools	-11.923
▁stall	-11.9231
▁replica	-11.9233
▁Panel	-11.9234
▁employs	-11.9236
▁starship	-11.9236
far	-11.9236
ail	-11.9237
▁sons	-11.9237
interoperability	-11.924
▁Mugabe	-11.924
▁Child	-11.9241
▁kindly	-11.9243
▁Sh	-11.9244
pad	-11.9247
▁cake	-11.9247
▁cow	-11.925
food	-11.925
▁Imperial	-11.9252
▁dynamics	-11.9252
▁radically	-11.9252
▁gesture	-11.9257
▁pulse	-11.9258
▁evolved	-11.9259
vio	-11.9259
▁mainland	-11.926
standard	-11.9261
▁Hal	-11.9264
▁Est	-11.9268
lash	-11.9269
cos	-11.927
phil	-11.9271
white	-11.9273
▁radar	-11.9275
▁Aqua	-11.9277
▁Copyright	-11.9278
▁photographic	-11.9281
cion	-11.9281
▁underlined	-11.9281
▁Edit	-11.9282
▁informing	-11.9285
ception	-11.9286
▁episodes	-11.9286
▁Bell	-11.9287
▁66	-11.9287
▁habits	-11.9287
▁(6	-11.9288
NCC	-11.9293
▁”	-11.9294
▁nose	-11.9296
▁Operation	-11.9297
TNG	-11.9297
▁62	-11.9298
▁thematic	-11.9298
▁constituents	-11.9298
von	-11.9298
hel	-11.9299
▁theatres	-11.9299
▁Cubase	-11.9301
▁weakened	-11.9302
▁holy	-11.9307
mond	-11.9307
▁Bai	-11.9308
business	-11.9308
▁miracle	-11.931
▁Ty	-11.9315
▁caves	-11.9316
▁2005.	-11.932
▁Basic	-11.932
View	-11.932
▁lodge	-11.9322
▁Marbella	-11.9322
▁deter	-11.9322
install	-11.9323
iko	-11.9324
▁trap	-11.9325
▁Tip	-11.9327
▁revise	-11.9327
▁cereals	-11.933
▁REACH	-11.9333
TR	-11.9335
▁instrumental	-11.9336
▁egg	-11.9337
yard	-11.9337
▁lacks	-11.9339
▁Campo	-11.934
FC	-11.9341
▁Vin	-11.9341
▁odd	-11.9342
▁rebuild	-11.9343
▁NH	-11.9344
mov	-11.9345
▁Independent	-11.9347
his	-11.9348
▁seas	-11.9349
▁religions	-11.9351
▁lamps	-11.9351
pho	-11.9356
▁steering	-11.9356
Cor	-11.9358
eh	-11.936
aver	-11.9362
ulu	-11.9365
sberg	-11.9367
acy	-11.9368
▁athletes	-11.9368
▁focal	-11.9369
▁shipped	-11.937
▁Essen	-11.937
▁laugh	-11.937
rock	-11.937
▁RS	-11.9371
▁pub	-11.9372
▁cheque	-11.9375
ffi	-11.9376
mag	-11.9376
▁Rh	-11.9377
etto	-11.9378
▁winds	-11.9378
▁combinations	-11.938
▁engaging	-11.938
▁remuneration	-11.938
▁termination	-11.9381
▁iz	-11.9384
pur	-11.9384
▁relay	-11.9386
▁Baroness	-11.9387
IR	-11.9389
▁appliances	-11.939
▁Zone	-11.9391
▁drastic	-11.9391
▁Number	-11.9392
▁eventual	-11.9392
▁hurt	-11.9393
▁faithful	-11.9393
▁deepen	-11.9395
▁Siena	-11.9395
rak	-11.9397
lage	-11.9398
dr	-11.9398
▁inquiries	-11.9404
▁philosopher	-11.9404
▁Rica	-11.9404
▁Ven	-11.9405
sea	-11.9406
▁Relax	-11.9406
Four	-11.9407
▁blank	-11.9409
▁depart	-11.9412
▁punished	-11.9412
Gra	-11.9414
▁associate	-11.9415
▁intact	-11.9416
▁Pur	-11.9417
▁Karel	-11.9419
▁offence	-11.9421
▁Sometimes	-11.9421
▁GR	-11.9421
▁SI	-11.9424
uge	-11.9425
▁3000	-11.9426
▁precondition	-11.9427
▁exercising	-11.9427
fur	-11.9428
pid	-11.943
▁pretend	-11.9431
▁guesthouse	-11.9433
▁Gil	-11.9435
▁geographic	-11.9436
▁Hollywood	-11.9439
▁Entertainment	-11.9439
zie	-11.944
woody	-11.9441
▁margins	-11.9447
ump	-11.9448
rz	-11.945
▁Conciliation	-11.9451
▁striving	-11.9451
▁Med	-11.9453
▁Tea	-11.9454
nus	-11.9455
inch	-11.9455
▁suggesting	-11.9456
FOR	-11.9456
▁seize	-11.9462
intensive	-11.9462
▁browsing	-11.9463
▁laboratories	-11.9463
▁Provider	-11.9463
▁sing	-11.9464
▁emails	-11.9466
▁boutiques	-11.9468
▁unification	-11.9469
▁illustrated	-11.9471
color	-11.9471
▁judgments	-11.9472
disproportionate	-11.9472
stock	-11.9472
▁derivatives	-11.9474
clu	-11.9475
▁Yes	-11.9475
▁midnight	-11.9475
▁locked	-11.9476
tral	-11.9478
▁Past	-11.9478
▁formulate	-11.948
char	-11.9481
▁92	-11.9481
cid	-11.9484
▁gran	-11.9484
▁tooth	-11.9485
▁yourselves	-11.9486
▁violate	-11.9487
Play	-11.9487
▁Canaria	-11.9493
▁bow	-11.9494
▁Ken	-11.9495
enz	-11.9496
▁reforming	-11.9496
tem	-11.9499
▁Low	-11.9499
▁63	-11.9502
▁County	-11.9502
▁seriousness	-11.9502
▁terminate	-11.9502
▁colony	-11.9503
▁observer	-11.9506
▁Follow	-11.9506
▁Kam	-11.951
▁88	-11.951
design	-11.9514
▁apple	-11.9516
▁HOTEL	-11.9518
▁Marx	-11.9518
▁unsatisfactory	-11.9522
MD	-11.9522
▁assault	-11.9522
▁conformity	-11.9524
PD	-11.9528
/2009	-11.9529
▁Freedoms	-11.9531
än	-11.9532
▁wellbeing	-11.9533
▁mobilisation	-11.9534
▁incapable	-11.9534
▁microwave	-11.9534
▁pray	-11.9534
▁1982	-11.9535
▁bei	-11.9535
▁1976	-11.9535
▁GT	-11.9538
▁Monitoring	-11.9539
dler	-11.9542
▁Algarve	-11.9546
▁durch	-11.9546
▁hits	-11.9547
▁describing	-11.9548
rü	-11.9548
ike	-11.9552
▁photographers	-11.9555
Hotels	-11.9555
▁extensions	-11.9556
▁advertisements	-11.9556
bur	-11.9557
▁disarmament	-11.9558
▁plasma	-11.9558
▁Tyrolean	-11.9558
▁diversification	-11.9558
▁chicken	-11.9558
▁compression	-11.9558
▁ze	-11.9558
▁DA	-11.9559
▁agreeing	-11.9559
▁forgetting	-11.9562
holders	-11.9564
▁derogation	-11.9567
▁abstain	-11.9568
▁sharply	-11.9572
rec	-11.9572
▁Bau	-11.9573
▁triggered	-11.9574
mut	-11.9576
▁SU	-11.9577
nation	-11.9579
tax	-11.9581
▁displaying	-11.9581
▁advisable	-11.9582
▁reinforcing	-11.9582
▁trillion	-11.9582
▁triumph	-11.9582
▁vigilant	-11.9582
▁profitability	-11.9583
rating	-11.9584
Still	-11.9584
▁Link	-11.9585
aid	-11.9585
▁insulation	-11.9585
lessly	-11.9586
▁anchor	-11.9586
▁reassure	-11.9586
7%	-11.9587
▁misuse	-11.9587
▁HA	-11.9589
▁einer	-11.959
▁projection	-11.9591
▁performs	-11.9592
▁Guatemala	-11.9594
▁dismantling	-11.9594
▁hypocrisy	-11.9594
▁Visual	-11.9594
▁rooftop	-11.9594
▁Arm	-11.9594
lev	-11.9599
▁polar	-11.9603
▁rival	-11.9604
▁Sil	-11.9604
▁Chernobyl	-11.9606
▁approving	-11.9606
▁consecutive	-11.9606
▁Oxford	-11.9606
tage	-11.9606
▁FC	-11.9607
▁adjustable	-11.961
▁fairness	-11.9611
onne	-11.9611
comp	-11.9611
▁cookie	-11.9612
aster	-11.9613
▁Active	-11.9614
▁mainstream	-11.9617
hab	-11.9618
▁Nothing	-11.962
who	-11.9622
stu	-11.9623
▁Step	-11.9628
▁scanner	-11.9628
▁gastronomic	-11.963
scope	-11.963
▁interiors	-11.963
▁1983	-11.9631
▁recovered	-11.9631
▁Marc	-11.9632
Everyone	-11.9632
Sta	-11.9633
▁username	-11.9633
▁(15	-11.9633
▁entrusted	-11.9635
▁typ	-11.9635
etti	-11.9635
▁socket	-11.9639
▁particles	-11.9639
gic	-11.9641
Fo	-11.9642
▁avail	-11.9642
▁Managing	-11.9642
too	-11.9643
▁applaud	-11.9643
vr	-11.9645
▁id	-11.9647
bahn	-11.9647
▁floating	-11.9652
▁pensioners	-11.9652
▁optimism	-11.9654
▁struggling	-11.9654
▁analysed	-11.9655
▁loop	-11.9655
▁pressed	-11.9657
▁75%	-11.9658
▁wie	-11.9658
▁rendered	-11.9658
cious	-11.966
isa	-11.9661
▁intervals	-11.9668
▁Type	-11.9668
Visit	-11.9669
GP	-11.9669
▁Sale	-11.967
▁Yugoslav	-11.967
▁locate	-11.9671
▁edges	-11.9671
▁retailers	-11.9672
Apartment	-11.9673
▁boast	-11.9674
▁Mus	-11.9675
iser	-11.9675
▁NT	-11.9676
▁intolerable	-11.9678
▁assisting	-11.9678
▁Quarter	-11.9679
foot	-11.9679
▁treasures	-11.968
▁2004.	-11.9683
ault	-11.9689
ington	-11.9689
▁Norwegian	-11.969
▁controversy	-11.969
▁Brown	-11.969
commercial	-11.969
▁farmer	-11.9691
lier	-11.9693
▁Ang	-11.9695
schen	-11.9698
▁privately	-11.9698
bid	-11.97
▁accesses	-11.9701
plo	-11.9702
▁stabilisation	-11.9702
▁upgrading	-11.9702
▁salon	-11.9704
▁understands	-11.9705
▁frank	-11.9705
eno	-11.9706
Val	-11.9706
én	-11.9707
▁modem	-11.9708
▁05	-11.9709
▁Herzegovina	-11.971
▁venues	-11.9712
ów	-11.9713
▁Dia	-11.9714
VI	-11.9715
▁Jen	-11.9715
▁arose	-11.9715
▁administer	-11.9716
▁Kat	-11.9716
▁mold	-11.9717
▁situ	-11.9719
▁Gardens	-11.9719
Lu	-11.9722
▁var	-11.9724
using	-11.9724
▁Property	-11.9725
▁consumed	-11.9725
▁counsel	-11.9725
▁cruel	-11.9726
vention	-11.9726
Location	-11.9727
▁IM	-11.9727
▁Split	-11.9727
▁BR	-11.9729
▁cleaned	-11.9729
▁Clean	-11.9734
▁marketplace	-11.9736
tail	-11.9736
▁Quick	-11.9738
▁Platform	-11.9738
▁frustration	-11.9738
▁swap	-11.974
Guests	-11.9742
rro	-11.9743
▁cult	-11.9745
AK	-11.9746
▁"4	-11.9748
▁Frattini	-11.9751
▁worries	-11.9751
▁deplore	-11.9751
▁Wolfgang	-11.9751
▁Lee	-11.9751
▁ICT	-11.9752
Villa	-11.9755
Third	-11.9758
▁Six	-11.9758
Er	-11.9761
▁seventh	-11.9762
▁reluctant	-11.9763
/20	-11.9763
▁malaria	-11.9763
▁robot	-11.9763
▁Apart	-11.9766
▁Republican	-11.9766
▁ft	-11.9766
▁disadvantages	-11.9767
▁Snow	-11.9768
"";	-11.9769
regulation	-11.977
pac	-11.9771
alo	-11.9773
▁Watson	-11.9775
lk	-11.9776
▁prisons	-11.9777
Against	-11.9778
▁traveller	-11.9781
▁fri	-11.9781
shed	-11.9784
mill	-11.9785
kh	-11.9785
▁temptation	-11.9787
▁theories	-11.979
▁bottles	-11.979
▁sensation	-11.9793
▁hoc	-11.9794
charge	-11.9796
▁Azerbaijan	-11.9799
▁Bob	-11.9802
▁physically	-11.9804
▁eager	-11.9806
War	-11.9806
Pol	-11.9806
oph	-11.9808
▁Mayor	-11.9809
▁Otherwise	-11.9809
▁Berlusconi	-11.9812
uous	-11.9814
▁encrypted	-11.9815
▁imbalance	-11.9815
▁Lady	-11.9818
Je	-11.9822
eau	-11.9823
▁twentieth	-11.9824
▁rounds	-11.9824
▁corporation	-11.9824
▁hanging	-11.9826
▁ham	-11.9827
▁Qua	-11.9827
driven	-11.9829
dging	-11.9833
▁Among	-11.9833
OD	-11.9833
▁Stephen	-11.9836
▁Ay	-11.9836
▁provisional	-11.9837
▁blade	-11.9837
oper	-11.9837
bn	-11.9838
▁conceptual	-11.9838
jar	-11.9838
▁Az	-11.9839
▁disruption	-11.9841
▁Core	-11.9841
▁qu	-11.9842
tract	-11.9843
▁Concert	-11.9844
ен	-11.9846
▁eternal	-11.9848
▁Translation	-11.9849
▁Senate	-11.985
▁Sel	-11.985
▁Bremen	-11.985
▁desperate	-11.9855
GI	-11.9855
gh	-11.9857
▁Pres	-11.9858
▁sm	-11.9859
▁wird	-11.986
▁Maritime	-11.9862
▁renew	-11.9864
▁relocation	-11.9864
▁57	-11.9866
▁stereo	-11.9867
▁Engine	-11.9868
▁overlooks	-11.9871
▁tubes	-11.9871
zed	-11.9872
▁defeated	-11.9873
▁infringements	-11.9873
▁Benjamin	-11.9873
▁relaunch	-11.9874
▁Junior	-11.9874
▁camiones	-11.9874
wie	-11.9874
lina	-11.9874
▁proceeding	-11.9875
▁Vision	-11.9879
▁Plant	-11.9881
▁Nine	-11.9882
▁rod	-11.9882
▁collectively	-11.9882
▁Outlook	-11.9885
▁stuck	-11.9886
▁Theater	-11.9887
lick	-11.9887
▁partitions	-11.9888
380	-11.9896
▁stabilise	-11.9898
▁essay	-11.9898
▁counterparts	-11.9898
▁physics	-11.9899
kal	-11.9901
▁Visa	-11.9901
Gu	-11.9901
▁hunt	-11.9902
▁streams	-11.9904
▁axis	-11.9909
▁fu	-11.9909
▁compile	-11.991
cin	-11.991
▁fishery	-11.9911
▁Frontex	-11.9912
▁adventures	-11.9912
▁dar	-11.9913
▁Anyone	-11.9915
▁illnesses	-11.9916
▁ears	-11.9918
▁Kla	-11.9919
▁Generation	-11.9923
▁clever	-11.9923
▁Verona	-11.9923
▁Rail	-11.9924
▁Event	-11.9926
▁utterly	-11.9927
▁confer	-11.9928
▁nominal	-11.9928
▁Grande	-11.9928
▁1.1	-11.9929
▁curb	-11.9929
▁ES	-11.993
▁rope	-11.9934
▁Movie	-11.9935
Tu	-11.9937
▁pig	-11.9938
miss	-11.9938
▁vente	-11.9941
location	-11.9941
▁UV	-11.9943
▁beta	-11.9945
▁nicely	-11.9945
▁exploration	-11.9947
▁glory	-11.9947
▁advertisement	-11.995
▁spheres	-11.995
▁variant	-11.9951
▁domains	-11.9952
title	-11.9953
azione	-11.9954
▁homeland	-11.9955
▁vent	-11.9955
nium	-11.9955
culture	-11.996
lies	-11.9961
dial	-11.9962
Quite	-11.9963
rai	-11.9964
▁cab	-11.9966
▁simultaneous	-11.9966
tube	-11.9966
▁thinks	-11.9968
mino	-11.9968
▁Seven	-11.9969
▁Fort	-11.9971
▁terminology	-11.9972
lite	-11.9975
▁lecture	-11.9976
▁printers	-11.9976
▁organizational	-11.9978
FE	-11.9978
▁arrow	-11.9981
▁Lower	-11.9982
pha	-11.9983
▁machining	-11.9985
▁Electronic	-11.9985
dium	-11.9986
▁Lin	-11.9987
▁pipes	-11.9988
zeit	-11.9989
lac	-11.9994
▁ensemble	-11.9997
▁provinces	-11.9997
turn	-11.9998
▁Que	-12.0003
pack	-12.0003
asso	-12.0006
weg	-12.0006
▁mall	-12.0007
Tech	-12.0007
▁extensively	-12.0008
▁chill	-12.0009
▁Laeken	-12.0009
▁Baden	-12.0013
nell	-12.0017
▁RAM	-12.0018
established	-12.0021
▁Spi	-12.0021
▁jungle	-12.0022
▁alternate	-12.0022
osis	-12.0024
▁pioneer	-12.0024
▁Rei	-12.0025
▁Mess	-12.0025
▁cultivated	-12.0026
▁fence	-12.0027
Trans	-12.003
▁plateau	-12.0033
▁baroque	-12.0034
▁excitement	-12.0034
▁immune	-12.0035
▁buried	-12.0035
▁lava	-12.0035
▁Angola	-12.0035
mine	-12.0035
▁restricting	-12.0037
▁07	-12.0037
▁supermarket	-12.0038
▁mess	-12.0038
▁premiere	-12.0039
▁mediation	-12.004
gr	-12.0041
▁ALL	-12.0045
▁implied	-12.0047
▁anxious	-12.0047
▁saint	-12.0047
▁oppression	-12.0047
▁Self	-12.0048
▁Bet	-12.0052
▁expose	-12.0052
9%	-12.0055
elected	-12.0057
▁sul	-12.0057
▁Route	-12.0059
▁Arabic	-12.006
▁destructive	-12.0061
▁Eurex	-12.0061
▁Kol	-12.0061
▁Mod	-12.0062
▁lab	-12.0066
▁61	-12.0067
Personally	-12.0068
▁EA	-12.0068
hon	-12.0069
▁Wil	-12.0069
▁approached	-12.0071
▁ministerial	-12.0073
▁similarly	-12.0074
▁Besides	-12.0075
▁2000.	-12.0077
9|	-12.0078
▁Café	-12.0079
▁disciplines	-12.008
rou	-12.0082
▁Catalan	-12.0085
▁Ecofin	-12.0085
▁corn	-12.0085
▁choir	-12.0086
▁Gender	-12.0088
▁nano	-12.0089
▁lease	-12.009
▁mentions	-12.0092
▁additionally	-12.0092
por	-12.0097
[...]
