<unk>	0
<s>	0
</s>	0
,	-3.03326
▁die	-3.75972
▁der	-3.7931
▁"	-3.8374
▁und	-3.83902
."	-3.89123
.	-4.15954
▁	-4.22564
▁in	-4.4425
s	-4.47219
en	-4.52663
▁zu	-4.73595
-	-4.82392
▁den	-4.82664
▁von	-4.83294
e	-4.88412
▁ist	-4.98666
▁für	-5.02746
▁mit	-5.13876
▁das	-5.16884
▁auf	-5.17443
n	-5.25417
▁des	-5.25663
▁eine	-5.3265
▁im	-5.4353
▁nicht	-5.4476
▁ein	-5.46843
▁werden	-5.49891
▁Sie	-5.52456
▁dem	-5.57057
▁dass	-5.57349
▁sich	-5.58311
▁wir	-5.61638
▁es	-5.65994
▁auch	-5.71961
er	-5.78654
▁sind	-5.7995
▁an	-5.80187
▁wird	-5.85843
▁als	-5.97826
▁um	-5.99952
▁(	-6.00861
▁ich	-6.01017
▁über	-6.01533
▁oder	-6.03323
▁haben	-6.09114
:	-6.11565
▁hat	-6.16176
▁einer	-6.16558
▁sie	-6.17248
▁-	-6.17758
▁wie	-6.17867
▁aus	-6.18861
Die	-6.22177
▁zur	-6.239
▁bei	-6.26395
)	-6.2705
▁einen	-6.29933
▁Die	-6.34101
▁können	-6.36811
▁nach	-6.44391
▁einem	-6.47226
es	-6.51733
▁durch	-6.51752
▁diese	-6.52294
▁zum	-6.52521
▁uns	-6.53923
▁nur	-6.55605
t	-6.57265
▁kann	-6.58491
▁vor	-6.5867
r	-6.59975
▁dieser	-6.64968
▁Kommission	-6.65751
▁so	-6.65827
Ich	-6.67207
▁daß	-6.69551
▁noch	-6.73601
▁wurde	-6.74482
▁aber	-6.79243
▁wenn	-6.80971
▁sein	-6.82328
▁""	-6.82845
▁er	-6.84227
▁müssen	-6.84442
▁sehr	-6.84572
▁am	-6.88029
Das	-6.8923
Wir	-6.93919
▁diesem	-6.94733
▁Union	-6.96443
▁was	-6.97374
▁man	-6.97787
▁mehr	-6.98755
▁Europäischen	-6.99157
▁alle	-6.99202
Es	-7.02977
!	-7.04373
▁Das	-7.05288
""	-7.05404
▁war	-7.05686
▁möchte	-7.06304
▁bis	-7.07192
▁–	-7.08612
▁unter	-7.11709
m	-7.14313
▁vom	-7.15139
▁ihre	-7.15495
▁Präsident	-7.1688
▁Hotel	-7.18063
▁Bericht	-7.18722
▁sowie	-7.18869
▁eines	-7.19746
▁gibt	-7.2224
Der	-7.22433
▁Herr	-7.22887
▁dieses	-7.23031
▁hier	-7.23819
a	-7.23904
▁EU	-7.2541
/	-7.25645
d	-7.26213
▁zwischen	-7.26839
▁Parlament	-7.2723
▁muss	-7.29295
▁unsere	-7.30872
▁keine	-7.32305
In	-7.33314
▁Ihnen	-7.35472
▁anderen	-7.3788
▁Der	-7.38062
▁Mitgliedstaaten	-7.402
▁Europa	-7.4108
▁the	-7.41812
▁In	-7.41901
▁de	-7.41954
;	-7.42093
ung	-7.42708
▁Zeit	-7.42985
▁immer	-7.44781
?	-7.44926
▁dann	-7.45183
▁„	-7.4539
▁Entwicklung	-7.45768
▁damit	-7.48652
▁diesen	-7.50916
▁wurden	-7.51124
de	-7.51183
▁gegen	-7.51236
▁da	-7.51806
o	-7.51843
▁Wir	-7.55483
▁ab	-7.55883
▁unserer	-7.56006
Wenn	-7.56087
▁Europäische	-7.56923
▁habe	-7.57398
▁a	-7.5775
▁sondern	-7.58013
▁seine	-7.58864
▁Menschen	-7.59493
▁jedoch	-7.59589
▁S	-7.59967
▁Rat	-7.60544
▁Ihre	-7.61321
▁neue	-7.61733
in	-7.61848
'	-7.62632
B	-7.63423
▁heute	-7.64364
▁Jahr	-7.64515
“	-7.64588
▁Ich	-7.6594
▁zwei	-7.68077
▁bereits	-7.68544
▁Welt	-7.69421
▁sollte	-7.69574
▁mich	-7.69849
▁and	-7.70048
▁ihrer	-7.7135
▁andere	-7.72164
▁europäischen	-7.72179
▁A	-7.72392
te	-7.72427
▁ohne	-7.72555
▁neuen	-7.72949
▁selbst	-7.73033
den	-7.73354
?"	-7.73835
▁Frau	-7.74612
▁Jahren	-7.74661
▁ganz	-7.75036
▁Frage	-7.76954
▁E	-7.77945
▁sollten	-7.78223
y	-7.78304
▁finden	-7.78443
Herr	-7.78651
▁wieder	-7.80194
Sie	-7.80209
i	-7.81674
▁bietet	-7.8234
▁Arbeit	-7.83407
▁viele	-7.84109
▁liegt	-7.85013
ten	-7.85053
▁machen	-7.85185
▁weil	-7.85376
▁dazu	-7.85442
▁Unternehmen	-7.85801
▁of	-7.85921
▁2	-7.86616
▁B	-7.86743
▁allen	-7.86765
ing	-7.86908
▁Es	-7.87804
▁jetzt	-7.89219
▁Recht	-7.89813
!"	-7.89874
▁Land	-7.90509
▁darauf	-7.9115
▁seiner	-7.91184
▁Lage	-7.91523
▁geht	-7.91952
▁schon	-7.9254
▁einige	-7.92869
▁Bereich	-7.9346
▁Maßnahmen	-7.93474
▁dafür	-7.94559
▁Informationen	-7.94572
▁ob	-7.94691
z	-7.94743
▁ver	-7.95243
▁ihr	-7.95861
▁Herrn	-7.97359
S	-7.97552
▁Jahre	-7.98574
▁be	-7.98868
▁allem	-7.99026
▁denn	-7.99196
▁meine	-7.9923
▁denen	-7.99366
k	-7.99492
▁ihren	-8.00767
▁Ein	-8.01057
▁viel	-8.01239
▁bin	-8.01243
▁mir	-8.02223
▁Zimmer	-8.02873
Im	-8.02887
▁wollen	-8.03342
▁würde	-8.03669
▁Stadt	-8.04456
▁Rahmen	-8.0468
em	-8.04964
▁unseren	-8.05217
▁Teil	-8.0527
▁Daten	-8.06246
▁1	-8.06283
▁wo	-8.06377
▁Sicherheit	-8.0641
A	-8.06819
▁während	-8.07032
▁möglich	-8.07171
▁gut	-8.07552
▁C	-8.08012
▁Bürger	-8.08515
▁to	-8.08693
▁sagen	-8.08693
▁etwas	-8.09085
h	-8.09199
▁dies	-8.09222
▁doch	-8.09457
▁3	-8.09579
▁nun	-8.09736
▁seit	-8.10282
▁insbesondere	-8.12165
▁Parlaments	-8.12387
Diese	-8.12579
▁Länder	-8.12646
▁erhalten	-8.12736
▁Ziel	-8.13176
▁Art	-8.14404
▁weiter	-8.14497
▁Namen	-8.14638
▁soll	-8.14799
▁Unterstützung	-8.15263
ge	-8.15589
▁Fall	-8.15881
st	-8.16418
▁drei	-8.16658
▁ersten	-8.17207
be	-8.17379
▁Vorschlag	-8.17517
▁Zusammenarbeit	-8.17762
▁lassen	-8.18303
▁waren	-8.1833
▁Im	-8.18626
▁also	-8.18811
▁geben	-8.19417
▁%	-8.19599
▁beim	-8.19707
an	-8.19827
▁einfach	-8.19849
▁Problem	-8.20012
▁Regierung	-8.2056
▁besteht	-8.2085
),	-8.21331
▁stehen	-8.21421
▁Ver	-8.22521
▁Kunden	-8.22738
▁wichtig	-8.22818
▁Ländern	-8.23355
▁sehen	-8.23442
▁steht	-8.23554
Ein	-8.23892
▁einmal	-8.24606
▁wäre	-8.24786
▁tun	-8.24957
▁Fragen	-8.25735
▁du	-8.2576
▁I	-8.25893
▁dabei	-8.25948
▁Kollegen	-8.26559
▁wissen	-8.27032
l	-8.27084
▁letzten	-8.27286
ed	-8.27482
▁Diese	-8.27538
▁worden	-8.28215
▁Euro	-8.28485
▁große	-8.28516
▁welche	-8.28563
▁Bedeutung	-8.29052
▁F	-8.29093
▁seinen	-8.29192
▁un	-8.2934
▁Verfügung	-8.29564
▁großen	-8.30492
▁Seite	-8.31362
▁Möglichkeit	-8.31399
f	-8.3142
sten	-8.31736
▁Grund	-8.32519
▁Thema	-8.32722
al	-8.33143
▁M	-8.33186
▁muß	-8.33407
▁Kommissar	-8.33481
ver	-8.34363
▁T	-8.34453
▁pro	-8.34633
▁G	-8.34829
g	-8.34986
2	-8.35432
▁aller	-8.35489
▁bieten	-8.35823
▁K	-8.35878
▁Weise	-8.36086
▁davon	-8.36428
▁kein	-8.36762
▁darüber	-8.36789
▁Mittel	-8.36856
▁stellen	-8.36887
▁Zukunft	-8.37013
▁Mit	-8.37018
▁entfernt	-8.37216
▁System	-8.37253
▁daher	-8.37859
▁kommen	-8.38215
▁Ende	-8.38608
▁wirklich	-8.38646
▁D	-8.38808
▁Probleme	-8.38893
▁Beispiel	-8.38924
▁weitere	-8.38959
▁Politik	-8.39026
▁eigenen	-8.39109
▁sowohl	-8.39452
▁5	-8.39525
▁könnte	-8.39624
▁Ihr	-8.39709
▁Weg	-8.39781
▁befindet	-8.39844
▁la	-8.39867
▁Gemeinschaft	-8.39916
▁natürlich	-8.39989
▁erreichen	-8.40125
▁gegenüber	-8.40156
▁politischen	-8.40379
▁unterstützen	-8.40859
▁hatte	-8.41047
der	-8.41243
▁Frauen	-8.41256
▁meiner	-8.41411
D	-8.41446
▁Ihrer	-8.41561
▁ge	-8.41613
▁zusammen	-8.42019
▁besonders	-8.42369
▁unser	-8.42567
▁Er	-8.43425
▁verschiedenen	-8.43448
▁Staaten	-8.43458
▁ihnen	-8.43482
Mit	-8.43488
▁Kinder	-8.43588
c	-8.43728
▁4	-8.43863
▁An	-8.44037
▁Rolle	-8.44386
▁Seiten	-8.44432
▁innerhalb	-8.44485
b	-8.45467
)."	-8.45547
▁alles	-8.45816
▁Wirtschaft	-8.45853
▁Be	-8.46281
▁zwar	-8.46433
▁d	-8.46633
▁Meinung	-8.46638
▁Schutz	-8.47066
K	-8.47427
F	-8.47446
▁internationalen	-8.47726
▁vielen	-8.47817
C	-8.47828
▁P	-8.47883
▁Auf	-8.48121
▁10	-8.48359
▁dort	-8.48461
▁direkt	-8.48726
▁Richtlinie	-8.48788
▁Tag	-8.488
▁Markt	-8.48907
▁europäische	-8.49407
▁m	-8.49509
▁möchten	-8.50467
▁Haus	-8.50887
▁erste	-8.51806
▁Internet	-8.51989
▁Programm	-8.52117
▁USA	-8.52226
▁Ihren	-8.52801
▁Leben	-8.53187
▁Uhr	-8.53901
▁Ab	-8.54006
T	-8.54189
▁führen	-8.54283
u	-8.5447
▁Lösung	-8.54571
▁Aus	-8.54884
▁Umwelt	-8.5496
Wie	-8.55424
▁zurück	-8.56128
P	-8.56256
▁Zusammenhang	-8.56413
ste	-8.56433
...	-8.56577
▁Situation	-8.56847
▁stellt	-8.56933
com	-8.57219
▁unserem	-8.57947
Er	-8.57954
▁beiden	-8.58006
1	-8.58029
E	-8.58053
▁kommt	-8.58116
▁N	-8.58751
▁ja	-8.58819
▁Hilfe	-8.58896
▁Artikel	-8.58928
▁hinaus	-8.5933
▁z	-8.5959
▁will	-8.60399
▁Qualität	-8.61045
]]	-8.61242
▁bringen	-8.61413
▁Personen	-8.61665
us	-8.61766
▁daran	-8.61852
▁Vor	-8.61859
▁Energie	-8.62032
▁Präsidentin	-8.62119
▁unterstützt	-8.62179
▁jeder	-8.62715
▁bzw	-8.62984
▁H	-8.62991
Eine	-8.63038
ch	-8.63056
▁weniger	-8.63185
Um	-8.63199
▁Form	-8.63267
▁gemacht	-8.63472
Dies	-8.63551
ieren	-8.63587
▁gilt	-8.63645
▁bitte	-8.63645
▁all	-8.63772
▁Kosten	-8.63837
▁gesagt	-8.63966
▁Fraktion	-8.64073
▁nämlich	-8.64332
▁[[	-8.64391
▁Produkte	-8.64431
▁Wasser	-8.64676
▁Entschließung	-8.64747
re	-8.64837
▁indem	-8.6495
▁politische	-8.65339
▁Preis	-8.65488
▁Ort	-8.65703
▁sogar	-8.65934
Was	-8.66253
▁Region	-8.66413
le	-8.66445
▁L	-8.66522
▁Rates	-8.67058
▁Für	-8.67062
▁nehmen	-8.67098
▁Millionen	-8.67131
▁Bei	-8.67225
▁etwa	-8.6724
▁Anwendung	-8.67495
▁Nach	-8.67592
▁ihn	-8.67603
▁Punkt	-8.68301
▁hin	-8.68583
▁V	-8.68866
▁Wettbewerb	-8.69238
et	-8.69285
▁The	-8.69322
▁ebenfalls	-8.69351
▁ihm	-8.69665
ern	-8.6989
▁for	-8.70044
▁Europas	-8.70177
▁is	-8.70291
▁seinem	-8.7049
▁unterschiedlich	-8.70533
▁dessen	-8.70746
▁20	-8.70872
ar	-8.709
▁darf	-8.70953
▁Software	-8.71042
▁&	-8.71081
▁2009	-8.71109
▁Entscheidung	-8.71233
▁gehen	-8.71545
M	-8.71858
Und	-8.71889
▁Verbraucher	-8.71947
Berichterstatter	-8.72222
▁gerade	-8.72419
▁darin	-8.72594
▁Gesellschaft	-8.72861
▁gute	-8.73202
G	-8.73254
▁Rechte	-8.73329
▁R	-8.73341
▁glaube	-8.73421
▁Abstimmung	-8.74247
to	-8.74378
▁dürfen	-8.7453
▁öffentlichen	-8.74654
▁Bezug	-8.74998
x	-8.75028
▁...	-8.75078
▁18	-8.75098
▁schaffen	-8.75111
▁sicher	-8.75192
).	-8.75195
▁Eine	-8.75206
ischen	-8.7534
▁genau	-8.75744
▁Re	-8.75974
▁handelt	-8.76061
▁"(	-8.76093
▁deutlich	-8.76155
▁einigen	-8.76229
▁Deutschland	-8.76364
▁klar	-8.7637
▁brauchen	-8.76417
▁jeden	-8.7665
H	-8.7666
▁meisten	-8.76692
▁O	-8.76753
▁ihrem	-8.76919
▁nationalen	-8.76934
▁Aussprache	-8.76945
ly	-8.7723
▁bedeutet	-8.77256
▁sei	-8.77365
▁Kultur	-8.78038
Für	-8.78061
im	-8.78077
▁sollen	-8.78082
Auf	-8.78538
▁weiterhin	-8.78558
▁Service	-8.78669
▁solche	-8.78833
▁Ebene	-8.78923
▁betrifft	-8.79028
Da	-8.79069
▁Richtung	-8.79085
ierung	-8.79129
▁besser	-8.79153
▁weit	-8.79399
▁Verantwortung	-8.79611
w	-8.7988
▁macht	-8.79903
▁wirtschaftliche	-8.80066
Änderungsanträge	-8.80111
4	-8.80198
▁schnell	-8.8028
ter	-8.80543
▁Hotels	-8.80551
ab	-8.80698
▁keinen	-8.80724
R	-8.80781
▁Gebiet	-8.80865
▁Umsetzung	-8.81319
W	-8.81393
▁deshalb	-8.81421
▁Zugang	-8.81562
▁W	-8.81753
▁15	-8.81868
▁Natur	-8.81894
▁Industrie	-8.82049
▁bekannt	-8.82147
▁aufgrund	-8.82594
▁wichtige	-8.8263
▁Und	-8.82804
▁6	-8.82862
N	-8.83186
▁besten	-8.83506
zu	-8.83571
▁Forschung	-8.83721
▁Website	-8.83756
▁Mal	-8.8391
▁würden	-8.83992
▁notwendig	-8.84013
p	-8.84043
▁Menschenrechte	-8.84053
▁Ansicht	-8.8443
▁erst	-8.84539
▁Geld	-8.84773
▁findet	-8.85041
▁Demokratie	-8.85054
Aber	-8.85109
▁nächsten	-8.85259
▁per	-8.85315
▁Interesse	-8.85367
▁gehört	-8.8553
▁statt	-8.85809
Als	-8.85865
▁nutzen	-8.85935
▁Nähe	-8.85961
um	-8.86438
V	-8.8646
”	-8.86527
▁Bevölkerung	-8.86942
3	-8.87157
▁Vertrag	-8.87329
und	-8.87516
▁allerdings	-8.87604
▁Verfahren	-8.87906
▁Spiel	-8.87977
▁Projekt	-8.88063
L	-8.88151
▁hoffe	-8.88223
▁La	-8.88504
▁'	-8.8852
▁Bedingungen	-8.88756
Bei	-8.88881
▁verwendet	-8.89228
▁So	-8.89446
iert	-8.8953
▁beispielsweise	-8.89591
▁/	-8.89716
▁Vorschläge	-8.89932
..."	-8.90206
▁Ziele	-8.90228
▁gemeinsamen	-8.90384
▁Grundlage	-8.90426
▁erreicht	-8.90734
▁vielleicht	-8.90797
▁Produkt	-8.90854
land	-8.9106
▁|	-8.91178
ig	-8.91179
▁arbeiten	-8.9119
▁sozialen	-8.91409
▁kleinen	-8.9157
▁sprechen	-8.91619
▁Wie	-8.91689
▁Dank	-8.91708
▁Reihe	-8.91849
▁Herren	-8.91912
el	-8.91934
▁Bild	-8.9207
▁Ihrem	-8.92128
gen	-8.9214
▁ermöglicht	-8.92189
▁Haupt	-8.9227
▁werde	-8.92514
Aus	-8.92719
▁Geschichte	-8.92794
’	-8.92966
is	-8.93487
ta	-8.9373
▁halten	-8.93848
▁Debatte	-8.93985
spolitik	-8.94064
▁re	-8.94093
▁bleiben	-8.94121
▁verfügt	-8.94216
▁Bar	-8.9422
▁weltweit	-8.94478
5	-8.9458
on	-8.94645
▁Damen	-8.9478
▁zeigt	-8.94922
▁verschiedene	-8.94976
▁gemeinsame	-8.95012
bar	-8.95086
▁vier	-8.95211
▁Wahl	-8.95303
ungen	-8.95579
▁Möglichkeiten	-8.95784
ner	-8.95806
▁Wirtschafts	-8.95819
▁Hinblick	-8.96003
ne	-8.96063
▁Erfolg	-8.9612
Nach	-8.96174
▁lange	-8.96886
▁wenig	-8.96926
ia	-8.97164
▁könnten	-8.97177
▁gleichzeitig	-8.97426
▁China	-8.97463
▁erforderlich	-8.97528
▁weiß	-8.97853
▁2010	-8.97926
▁Strategie	-8.97958
▁7	-8.97965
▁Minuten	-8.98174
▁neu	-8.98188
▁8	-8.98191
▁Einsatz	-8.98299
▁Nutzung	-8.98335
▁Auswirkungen	-8.98347
or	-8.98353
▁Ge	-8.98366
lich	-8.98382
▁oft	-8.98387
▁Institutionen	-8.98482
▁führt	-8.98499
at	-8.98557
▁bereit	-8.98736
_	-8.98762
os	-8.9879
▁Jahres	-8.98801
▁ebenso	-8.98967
sch	-8.98997
So	-8.99035
se	-8.99181
▁Text	-8.9919
▁U	-8.99305
▁2008	-8.9933
▁km	-8.99358
ma	-8.99399
▁f	-8.99973
ische	-9.00107
▁Ausdruck	-9.00343
▁Schritt	-9.00663
▁Ergebnis	-9.00746
▁Blick	-9.00763
▁30	-9.00767
▁Dies	-9.0088
▁entwickelt	-9.00882
▁ca	-9.00889
▁Abgeordneten	-9.01009
Frau	-9.01177
▁hatten	-9.012
▁Änderungsantrag	-9.01406
▁gesamten	-9.01417
Auch	-9.01672
▁darum	-9.01818
Deshalb	-9.01972
▁einzelnen	-9.01979
▁dar	-9.02136
▁Regionen	-9.02423
▁Kolleginnen	-9.02623
▁danken	-9.02626
▁fast	-9.0266
▁Druck	-9.02715
▁Du	-9.02987
▁Musik	-9.03198
▁Tatsache	-9.03222
▁denke	-9.03356
▁internationale	-9.03476
O	-9.0357
▁Erweiterung	-9.03609
▁Landes	-9.03645
▁Hand	-9.03692
▁gestellt	-9.03957
▁Mitglieder	-9.04131
▁hätte	-9.04347
▁Antwort	-9.04409
▁Alle	-9.04437
▁Bau	-9.04495
na	-9.04692
lichen	-9.04814
▁gemeinsam	-9.04874
▁Verhandlungen	-9.04895
▁Auch	-9.04917
▁Le	-9.04925
▁Platz	-9.04951
▁jedem	-9.04976
it	-9.05057
▁konnte	-9.05179
▁befinden	-9.05429
▁Vereinigten	-9.05727
▁Herausforderung	-9.05861
▁gab	-9.06138
▁setzen	-9.06217
Be	-9.06329
▁Beziehungen	-9.0686
▁kleine	-9.06994
▁Förderung	-9.0714
▁jede	-9.07197
▁hoch	-9.07246
▁Abkommen	-9.07253
▁Am	-9.07325
▁Version	-9.07335
▁heißt	-9.07421
▁rund	-9.07475
▁Verordnung	-9.07566
An	-9.07593
▁wohl	-9.07609
▁St	-9.0784
▁Wert	-9.07912
▁verbunden	-9.07985
▁Hier	-9.07986
▁Zentrum	-9.08021
▁voll	-9.08219
▁Bereichen	-9.08334
▁“	-9.08467
▁De	-9.08628
I	-9.08712
▁Partner	-9.08732
co	-9.08853
ation	-9.089
▁Gesundheit	-9.08937
▁Beitrag	-9.0896
▁helfen	-9.08966
▁Verbindung	-9.09012
▁12	-9.09271
▁fest	-9.09277
▁Wort	-9.09343
▁völlig	-9.0937
▁Liste	-9.09381
▁Aufgabe	-9.09391
▁richtig	-9.0946
▁Türkei	-9.09477
▁u	-9.09646
▁enthalten	-9.09869
▁on	-9.0994
▁50	-9.10007
EN	-9.10062
▁Finanz	-9.1011
▁Kontrolle	-9.10206
▁Beschäftigung	-9.10363
▁Interessen	-9.10473
liche	-9.10474
▁weiteren	-9.10474
▁Ausschuss	-9.10598
▁Produktion	-9.10922
▁gegeben	-9.11223
as	-9.11253
▁liegen	-9.11355
▁nichts	-9.11885
▁Über	-9.11936
▁gestimmt	-9.12097
▁Ausschusses	-9.12833
ra	-9.12952
▁Unter	-9.12984
▁soziale	-9.13042
▁Verbesserung	-9.13125
▁bleibt	-9.13177
▁Restaurant	-9.1322
▁meinen	-9.13269
▁Themen	-9.13411
▁Meer	-9.13422
ein	-9.1354
ur	-9.13541
▁bekommen	-9.13709
▁wichtigen	-9.13842
▁Mai	-9.13916
▁jedes	-9.14003
▁Un	-9.14176
▁neben	-9.14179
▁wegen	-9.14307
▁gleich	-9.14331
da	-9.14382
▁2007	-9.14637
▁US	-9.14863
politik	-9.15148
▁fünf	-9.15239
▁Behörden	-9.15362
▁Prozess	-9.15792
▁später	-9.15848
▁di	-9.15879
ke	-9.16015
▁wichtigsten	-9.16127
00	-9.16132
▁mehrere	-9.1617
▁je	-9.16228
▁Krise	-9.16359
▁gerne	-9.16539
▁hinsichtlich	-9.16658
aus	-9.17067
▁Lissabon	-9.1707
▁ganze	-9.17143
▁Kampf	-9.17252
man	-9.17944
▁wobei	-9.17995
▁Macht	-9.18058
▁Gruppe	-9.18067
é	-9.18153
▁ermöglichen	-9.18166
▁unseres	-9.18272
▁enthält	-9.18492
ä	-9.18503
▁ent	-9.18513
▁Zu	-9.18576
▁Verwendung	-9.18936
▁Kunst	-9.19061
▁Gelegenheit	-9.19095
▁Mitarbeiter	-9.19155
Zu	-9.1935
▁Ergebnisse	-9.1942
ka	-9.19433
un	-9.1948
▁J	-9.19484
▁Notwendigkeit	-9.1961
▁zeigen	-9.19686
▁Schaffung	-9.19697
▁Strand	-9.19899
▁Auswahl	-9.2009
▁Erfahrung	-9.20126
▁spielen	-9.20224
j	-9.20231
bereich	-9.20584
di	-9.20707
▁Sport	-9.21176
v	-9.21284
▁Rechts	-9.21352
▁1.	-9.21531
▁Informations	-9.21791
▁Raum	-9.21945
chen	-9.21947
▁Tage	-9.22014
th	-9.22021
▁See	-9.22064
▁verbessern	-9.2215
no	-9.22418
6	-9.22436
▁eigene	-9.22449
▁derzeit	-9.22534
▁with	-9.22729
▁ganzen	-9.22787
▁Umgebung	-9.228
▁Zeitpunkt	-9.2284
▁Handels	-9.2289
▁lässt	-9.2298
▁100	-9.23129
die	-9.2321
▁Angebot	-9.23263
▁Handel	-9.23423
▁Herzen	-9.23506
▁se	-9.23679
▁tatsächlich	-9.23685
▁verfügen	-9.23694
zeit	-9.23825
▁Auto	-9.23935
▁gehören	-9.2397
▁Landwirtschaft	-9.23993
▁Integration	-9.24102
▁b	-9.24116
▁Woche	-9.24123
▁äußerst	-9.24208
▁Gewalt	-9.24214
Mail	-9.2423
▁Insel	-9.24252
▁verwenden	-9.24266
▁gesamte	-9.24309
▁angenommen	-9.24335
▁h	-9.24406
▁Verfassung	-9.24441
▁bestimmte	-9.24721
▁Finanzierung	-9.24748
▁großer	-9.24836
▁Benutzer	-9.24907
▁Anfang	-9.25011
▁Gäste	-9.25022
▁gebracht	-9.25166
ca	-9.25195
▁Person	-9.25402
▁fördern	-9.25478
▁2000	-9.25503
▁meinem	-9.25596
▁Mehrheit	-9.25637
(	-9.25639
▁Juni	-9.25659
▁zunächst	-9.25819
▁Einführung	-9.26236
Unsere	-9.26266
▁Aber	-9.26271
il	-9.26314
8	-9.26403
isch	-9.26493
▁geführt	-9.26616
▁Haushalt	-9.26644
▁Familien	-9.26705
▁Web	-9.26821
▁et	-9.27002
▁Als	-9.27044
▁sorgen	-9.2723
▁Personal	-9.27242
▁Russland	-9.27356
Man	-9.27412
▁Online	-9.27503
Dieses	-9.27796
▁Dialog	-9.2781
igen	-9.27811
verständlich	-9.28022
la	-9.28036
▁Fehler	-9.28064
▁l	-9.28118
▁frei	-9.28135
ce	-9.28245
▁Lösungen	-9.28252
▁gleichen	-9.28265
▁Durch	-9.28417
▁Änderungen	-9.28449
▁entwickeln	-9.28525
▁Man	-9.28551
schutz	-9.28612
▁bestehen	-9.28786
▁guten	-9.28793
▁Familie	-9.28838
Daher	-9.29049
Hier	-9.2911
▁Reform	-9.29262
▁verstehen	-9.29443
▁leicht	-9.29668
system	-9.29673
▁Wachstum	-9.29959
▁Frankreich	-9.30016
▁leben	-9.30067
▁gewährleisten	-9.30256
▁bisher	-9.30288
▁Änderung	-9.30313
▁somit	-9.30368
▁lediglich	-9.30459
▁Standpunkt	-9.30564
Alle	-9.30587
▁Zahl	-9.30667
▁Flughafen	-9.30702
▁eingesetzt	-9.30851
Z	-9.31042
▁hohen	-9.31049
▁Bildung	-9.31187
▁Um	-9.31226
Vor	-9.31336
▁ausgestattet	-9.31352
▁2006	-9.31455
▁erneut	-9.31469
sfähigkeit	-9.31508
▁tragen	-9.31544
me	-9.31788
▁Anzahl	-9.31834
▁9	-9.32
▁Regierungen	-9.32005
▁zweite	-9.32105
▁Sommer	-9.32336
▁anderer	-9.32473
▁Bekämpfung	-9.32489
▁Preise	-9.32527
▁X	-9.32715
▁Sprache	-9.32833
▁Dinge	-9.32869
▁Erachtens	-9.32911
▁zahlreiche	-9.32987
▁hotel	-9.33022
▁mein	-9.33083
Dieser	-9.33276
▁Funktion	-9.33301
▁Diskussion	-9.33371
▁neuer	-9.33433
haus	-9.33445
ie	-9.33451
▁Freiheit	-9.33498
▁Kommissarin	-9.33584
▁hinter	-9.33612
Dienstleistungen	-9.33627
ist	-9.33654
industrie	-9.33696
▁nie	-9.33997
so	-9.34234
▁..."	-9.34255
▁obwohl	-9.34283
▁16	-9.34339
▁Jahrhundert	-9.34373
▁con	-9.34519
▁Nicht	-9.34521
|	-9.34538
▁stark	-9.34648
▁25	-9.34682
Fraktion	-9.34809
▁September	-9.34841
▁geschlossen	-9.34844
▁Sicherheits	-9.35031
▁bestimmten	-9.35087
▁Fortschritte	-9.35134
▁Kraft	-9.35294
▁scheint	-9.35307
▁heraus	-9.35337
▁Reise	-9.35408
▁hohe	-9.35439
▁Position	-9.35512
▁sagte	-9.35528
▁Design	-9.35574
▁Fischerei	-9.35636
▁Aktivitäten	-9.35644
▁Initiative	-9.35743
▁Information	-9.35835
▁außerdem	-9.35924
▁versuchen	-9.35977
▁Pro	-9.35992
▁einzige	-9.36042
▁Gruppen	-9.36095
▁Medien	-9.36265
tel	-9.36467
ion	-9.36498
▁bevor	-9.36524
▁erster	-9.36527
▁Basis	-9.36539
▁Z	-9.36767
▁Computer	-9.36851
▁Dezember	-9.36875
▁Verwaltung	-9.3689
▁dadurch	-9.36937
▁Stelle	-9.36968
▁durchgeführt	-9.36981
▁Erklärung	-9.36983
▁Punkte	-9.37041
▁Gefahr	-9.37073
▁Bestimmungen	-9.37084
▁zweiten	-9.37248
▁c	-9.37416
ent	-9.37486
▁meines	-9.37613
▁solchen	-9.3768
▁Haushalts	-9.37705
▁gemäß	-9.37898
▁Auffassung	-9.37948
▁gar	-9.37951
innen	-9.37969
ber	-9.38007
▁Arbeits	-9.38065
▁insgesamt	-9.3811
▁kurz	-9.38227
▁Stunden	-9.38315
®	-9.38416
▁aufgenommen	-9.3842
▁Frühstück	-9.3846
▁Dieses	-9.3855
▁Gesamt	-9.3861
▁17	-9.38644
▁Aufmerksamkeit	-9.38813
ik	-9.38827
Ver	-9.38953
▁vergangenen	-9.38968
▁schließlich	-9.39069
▁Film	-9.39907
▁Konferenz	-9.39917
▁14	-9.39927
▁einschließlich	-9.40143
▁Geschäfts	-9.4015
▁genießen	-9.40286
▁alten	-9.40307
▁ändern	-9.40368
ak	-9.4037
▁Standard	-9.40388
▁San	-9.40823
▁vertreten	-9.40832
▁Behandlung	-9.40883
▁eigentlich	-9.40887
▁Neu	-9.40905
▁öffentliche	-9.40905
▁März	-9.41122
о	-9.41138
auf	-9.41178
id	-9.41189
▁Folgen	-9.41264
▁Juli	-9.4143
▁Anforderungen	-9.41498
▁Küche	-9.41557
▁Arbeitnehmer	-9.41617
▁Tat	-9.41624
▁Präsidentschaft	-9.41672
▁Co	-9.41837
▁Öffentlichkeit	-9.41945
▁Entscheidungen	-9.41954
ster	-9.41966
Gästebewertungen	-9.41973
ige	-9.42037
▁Tagesordnung	-9.42101
ic	-9.42216
▁Vorschriften	-9.42218
▁Staat	-9.4239
bau	-9.42483
▁größten	-9.42665
▁leisten	-9.42866
Doch	-9.42866
▁Kontakt	-9.42941
▁Mitglied	-9.42963
7	-9.43076
▁Folge	-9.43114
▁Sinne	-9.43128
▁erwarten	-9.43195
▁wichtiger	-9.43339
ti	-9.43506
▁Anfrage	-9.43525
ir	-9.43586
▁Grenzen	-9.4359
▁Transparenz	-9.4365
]	-9.43697
ro	-9.43711
▁leider	-9.43822
▁behandelt	-9.43965
▁allein	-9.44073
ismus	-9.4415
ler	-9.44176
▁konnten	-9.44198
▁Höhe	-9.44384
▁geworden	-9.44411
▁2005	-9.44421
▁Bereiche	-9.44432
▁Technologie	-9.44475
do	-9.44505
▁Oktober	-9.44519
▁Nationen	-9.4456
▁erfolgt	-9.44637
▁wenige	-9.44704
▁genommen	-9.44718
▁beste	-9.44725
▁Januar	-9.44733
ko	-9.44802
▁Park	-9.44834
▁Organisation	-9.44925
▁Aufenthalt	-9.44935
▁Unsere	-9.45001
ton	-9.45033
▁Berg	-9.45171
▁suchen	-9.45205
▁Programme	-9.45214
▁Lebensmittel	-9.45357
▁verantwortlich	-9.45477
ien	-9.45568
▁benötigen	-9.45574
Am	-9.45757
▁k	-9.45779
▁Wein	-9.45833
ben	-9.45896
▁Team	-9.45898
▁halte	-9.4622
▁recht	-9.46263
▁angesichts	-9.46359
▁Berlin	-9.46362
0	-9.46521
▁Investitionen	-9.46521
▁Gründen	-9.4663
▁europäischer	-9.46645
9	-9.46667
▁versucht	-9.46897
▁Bilder	-9.46939
▁aktuellen	-9.4716
▁bezüglich	-9.47172
▁Sache	-9.47206
▁le	-9.47213
▁Video	-9.47246
▁Firma	-9.47464
&	-9.4753
▁kannst	-9.47584
▁Vertrags	-9.47605
▁del	-9.47633
▁geschaffen	-9.47634
▁erklärt	-9.47637
▁weder	-9.47676
gesellschaft	-9.47681
▁gefunden	-9.47684
ut	-9.47688
▁Dieser	-9.47689
▁"""	-9.47857
li	-9.48081
▁sofort	-9.48112
▁Sicht	-9.48119
▁erwartet	-9.48265
▁40	-9.48474
▁nahe	-9.48491
▁Unternehmens	-9.48518
▁begrüße	-9.48609
▁Republik	-9.48629
▁Lebens	-9.48665
▁treffen	-9.48675
keit	-9.48736
▁Projekte	-9.48764
sicherheit	-9.48779
▁Urlaub	-9.48872
▁2004	-9.48922
▁häufig	-9.48934
ja	-9.48978
▁Al	-9.48986
end	-9.49005
▁Wochen	-9.49014
▁Was	-9.4902
▁Bad	-9.49272
▁diejenigen	-9.49272
▁eher	-9.49282
raum	-9.49399
mm	-9.49435
Durch	-9.49484
▁sieht	-9.49532
▁schwer	-9.49561
▁bringt	-9.49843
U	-9.49946
▁beitragen	-9.49997
▁Regeln	-9.50049
▁Frieden	-9.50057
▁Steuer	-9.5006
▁vergessen	-9.50125
▁i	-9.50126
▁sechs	-9.50198
30	-9.502
Von	-9.50258
▁ziehen	-9.50425
▁13	-9.5046
▁Wunsch	-9.5056
▁erfolgreich	-9.50787
▁Ressourcen	-9.50806
▁GmbH	-9.51035
▁Beginn	-9.51037
▁Bemühungen	-9.51043
▁Linie	-9.51058
Schlusselwortern	-9.51086
▁Werte	-9.51102
▁getan	-9.51106
▁größte	-9.51121
▁ausschließlich	-9.51276
▁Fällen	-9.51308
▁entsprechenden	-9.51391
▁zehn	-9.51402
▁Nr	-9.5142
ve	-9.51488
▁Server	-9.51594
▁Luft	-9.51605
▁Licht	-9.51674
▁gelten	-9.51703
▁Selbst	-9.51704
▁Transport	-9.51707
▁folgt	-9.51763
▁Gebäude	-9.51924
▁verhindern	-9.51937
▁Ansatz	-9.5201
svorschriften	-9.52071
▁morgen	-9.52276
he	-9.52283
art	-9.52296
▁Solidarität	-9.52407
▁wirtschaftlich	-9.52556
▁Monaten	-9.52601
ul	-9.52793
▁besondere	-9.52884
""."	-9.52969
"",	-9.52993
▁vollständig	-9.532
rat	-9.53354
▁dringend	-9.53379
▁Da	-9.53556
sa	-9.53584
▁Besuch	-9.53667
▁hätten	-9.53687
berg	-9.53704
▁genannten	-9.53745
▁11	-9.53864
▁:	-9.5388
▁Ent	-9.5392
▁Wenn	-9.53943
▁nimmt	-9.53993
Ge	-9.54046
▁anderem	-9.54085
go	-9.54156
Außerdem	-9.5419
▁Präsidenten	-9.54308
tal	-9.54561
▁paar	-9.54578
stellen	-9.54613
▁Atmosphäre	-9.54655
▁verpflichtet	-9.5479
▁Bank	-9.54869
▁richtige	-9.54963
X	-9.5497
▁Von	-9.54984
▁Krieg	-9.55065
▁berücksichtigt	-9.55079
▁November	-9.55088
▁gewesen	-9.55089
▁Bürgerinnen	-9.55199
los	-9.55207
▁by	-9.55284
▁que	-9.55344
mann	-9.55444
▁fordern	-9.55491
▁lang	-9.55503
▁Italien	-9.55516
▁Buch	-9.55537
▁Inhalt	-9.55551
▁erlaubt	-9.55975
▁erfüllen	-9.56004
▁entsprechend	-9.56008
▁Berichts	-9.5602
sverfahren	-9.56117
▁überhaupt	-9.56122
▁Windows	-9.56183
▁Sitzung	-9.56311
▁New	-9.56514
ci	-9.56609
lo	-9.56619
heit	-9.56637
▁usw	-9.56652
ende	-9.56715
▁Durchführung	-9.56725
▁warum	-9.5681
▁Opfer	-9.56832
▁Praxis	-9.56923
▁April	-9.57052
▁Vertreter	-9.57224
▁zahlreichen	-9.57439
▁Tagen	-9.5745
▁schützen	-9.57469
▁offen	-9.57509
▁Vergangenheit	-9.57588
▁Aspekte	-9.57619
▁Bürgern	-9.57628
▁Erfahrungen	-9.57776
▁benutzt	-9.5779
ga	-9.57796
▁Aufgaben	-9.57862
▁Annahme	-9.57892
▁very	-9.57976
▁stimmen	-9.58148
▁setzt	-9.58288
▁y	-9.5835
▁Augen	-9.58351
The	-9.58367
▁Terrorismus	-9.5837
▁El	-9.58425
▁19	-9.58447
her	-9.58562
▁jeweiligen	-9.58567
▁genutzt	-9.58603
▁gesetzt	-9.58616
schaft	-9.58796
oder	-9.58971
platz	-9.58993
▁wählen	-9.59014
▁Einrichtung	-9.59016
▁Se	-9.59134
▁stets	-9.59142
▁ihres	-9.59162
▁darstellt	-9.59177
▁eindeutig	-9.59191
▁Partei	-9.59217
▁Spanien	-9.59273
▁Spieler	-9.59369
▁Vertrauen	-9.59383
▁Restaurants	-9.59389
ol	-9.59401
▁Binnenmarkt	-9.59654
▁at	-9.59677
▁historischen	-9.59697
á	-9.5972
▁Beitritt	-9.59776
form	-9.59834
▁außerhalb	-9.59836
▁Angelegenheit	-9.59896
▁zumindest	-9.59999
ft	-9.60007
▁automatisch	-9.60029
Re	-9.60034
▁000	-9.60206
▁Schritte	-9.60225
am	-9.60311
▁deine	-9.60436
▁zusätzliche	-9.60458
▁Garten	-9.60497
▁EUR	-9.60544
▁Nacht	-9.60693
▁kam	-9.6084
▁trotz	-9.60881
▁verfügbar	-9.60897
▁AG	-9.60967
▁modernen	-9.6106
▁genug	-9.61149
▁her	-9.61172
▁24	-9.612
▁größere	-9.61231
▁Stand	-9.61247
▁from	-9.61275
▁Armut	-9.61352
▁2003	-9.61364
▁heutigen	-9.61508
son	-9.61534
lichkeit	-9.61572
▁nationale	-9.61572
▁Ja	-9.61606
▁mal	-9.61773
▁Sch	-9.61928
▁bessere	-9.62017
▁Mar	-9.62037
▁Parteien	-9.62071
▁Gesundheits	-9.62073
▁Schwierigkeiten	-9.62089
▁Hinsicht	-9.62255
▁erinnern	-9.62412
▁Klima	-9.6256
▁welches	-9.6259
▁Angelegenheiten	-9.62686
Hotel	-9.62767
▁etc	-9.62779
▁Abend	-9.62926
▁Modell	-9.62959
▁persönlichen	-9.62997
▁folgenden	-9.63028
ger	-9.63043
▁you	-9.63093
▁Fuß	-9.6329
▁technischen	-9.63472
▁not	-9.63525
Unser	-9.63695
ni	-9.63711
ö	-9.63836
▁überzeugt	-9.63952
vor	-9.6402
▁Rechnung	-9.64036
▁kennen	-9.6413
Während	-9.6417
▁Test	-9.64221
▁deutschen	-9.64251
▁übernehmen	-9.64325
▁Flug	-9.64355
▁Vergleich	-9.64362
▁letzte	-9.64365
▁Instrument	-9.64456
▁vorgeschlagen	-9.6474
▁erfahren	-9.64817
unternehmen	-9.65045
▁Arbeitsplätze	-9.65047
programm	-9.65143
▁allgemeinen	-9.65176
erstatterin	-9.65197
▁gesehen	-9.65225
▁Leistung	-9.65257
▁beide	-9.65275
▁Firmen	-9.65315
▁genannt	-9.65363
ment	-9.65553
▁Prozent	-9.65604
▁privaten	-9.65633
▁endlich	-9.65691
▁begrüßen	-9.65816
▁Volk	-9.6584
mal	-9.65862
▁Protokoll	-9.65866
▁entscheiden	-9.65923
stand	-9.65937
▁Zeichen	-9.65973
▁festgelegt	-9.65977
ier	-9.65981
▁Zustimmung	-9.66002
▁eben	-9.66009
▁Post	-9.661
ine	-9.66195
▁Ausbildung	-9.6635
▁it	-9.66438
▁[	-9.66482
▁Osten	-9.66497
▁gelegen	-9.66503
▁zudem	-9.66506
▁entsprechende	-9.66517
▁Datei	-9.66581
▁Sozial	-9.66583
▁stärker	-9.66644
▁Milliarden	-9.66752
▁Stabilität	-9.668
▁gezeigt	-9.66848
je	-9.66885
▁Einfluss	-9.6701
▁unbedingt	-9.67169
▁erstellt	-9.67315
ad	-9.67332
▁60	-9.67417
markt	-9.67447
▁Konzept	-9.67504
▁bewusst	-9.67527
sektor	-9.6755
▁bitten	-9.67675
▁aktuelle	-9.6776
▁Netzwerk	-9.67833
▁Stil	-9.67845
▁Tätigkeit	-9.67906
druck	-9.68019
▁Anerkennung	-9.68155
▁Management	-9.68215
10	-9.6835
▁neues	-9.68595
▁gefordert	-9.6864
▁Leute	-9.68645
stein	-9.68648
▁Anstrengungen	-9.68707
des	-9.68753
▁vorgelegt	-9.68764
ü	-9.68869
▁Ausschuß	-9.68876
▁beginnen	-9.68953
Zum	-9.69038
▁kaum	-9.69044
▁Irak	-9.69071
▁Kompromiss	-9.69307
▁Aufnahme	-9.69314
▁Dienstleistung	-9.69328
▁Verpflichtungen	-9.69405
▁Staats	-9.69415
enden	-9.69512
▁Falle	-9.69643
▁à	-9.6966
▁beschlossen	-9.69742
▁bilden	-9.69853
▁moderne	-9.69854
▁room	-9.699
che	-9.70101
▁Hause	-9.70249
▁Öl	-9.70326
▁Idee	-9.7034
▁wesentlich	-9.7044
▁veröffentlicht	-9.7048
▁Telefon	-9.70495
í	-9.70509
▁Risiko	-9.7056
▁Dr	-9.70581
▁Abschluss	-9.7067
▁bald	-9.70742
▁seines	-9.70765
▁entspricht	-9.7081
▁wahrscheinlich	-9.70901
▁Vereinbarung	-9.70923
▁erkennen	-9.70937
ana	-9.71011
▁entschieden	-9.71069
▁Überwachung	-9.71157
gt	-9.71208
▁Organisationen	-9.7129
ungs	-9.71323
Y	-9.71438
▁folgen	-9.7154
▁Mitteilung	-9.71595
▁berücksichtigen	-9.71613
▁getroffen	-9.71649
▁Site	-9.71786
▁Haltung	-9.71806
▁braucht	-9.71858
technik	-9.71953
▁unten	-9.72053
isierung	-9.72122
▁v	-9.72137
▁geändert	-9.72407
ant	-9.72491
zimmer	-9.72665
isten	-9.72758
▁Kriterien	-9.7278
▁Ar	-9.7285
▁erwähnt	-9.7294
ale	-9.73067
ho	-9.73111
lage	-9.73175
▁erfüllt	-9.73184
▁Holz	-9.7323
▁Foto	-9.73242
▁Paris	-9.73293
▁Mo	-9.73294
▁Ihres	-9.7335
▁Bitte	-9.73364
▁mindestens	-9.73452
tra	-9.7366
▁ausdrücklich	-9.73667
▁danke	-9.73683
▁Besucher	-9.73701
▁ständig	-9.7372
▁Wahlen	-9.73735
Darüber	-9.73737
▁0	-9.73826
ling	-9.73845
▁hinweisen	-9.73883
▁as	-9.73953
▁nachdem	-9.73973
▁demokratischen	-9.74322
▁ergreifen	-9.74418
▁mehreren	-9.74487
▁angezeigt	-9.74617
able	-9.74627
zen	-9.74646
▁Anspruch	-9.74658
mo	-9.7479
per	-9.74797
▁Vorteile	-9.74818
▁umgesetzt	-9.74826
▁Sektor	-9.74828
▁erzielt	-9.74907
▁Ausgaben	-9.74926
ren	-9.75063
weg	-9.7508
▁gesprochen	-9.75085
▁technische	-9.75222
▁gegründet	-9.75338
▁Antrag	-9.75352
ze	-9.75375
tro	-9.75403
▁sch	-9.75446
wirtschaftlichen	-9.75512
▁Seit	-9.75528
▁akzeptieren	-9.75561
▁glauben	-9.75598
▁euch	-9.75641
▁Inhalte	-9.75709
▁Wann	-9.75738
▁Hintergrund	-9.75757
▁globalen	-9.75829
▁Plan	-9.75838
▁sicherzustellen	-9.75851
iz	-9.75882
▁August	-9.7592
▁Sprachen	-9.76
Damit	-9.76047
▁gleiche	-9.76074
▁benutzen	-9.76079
▁Paket	-9.7614
▁Körper	-9.76149
Unter	-9.76179
ina	-9.76195
▁bestimmt	-9.76211
▁or	-9.76232
▁außer	-9.76263
▁Menschenrechts	-9.76305
▁Engagement	-9.76346
▁eingerichtet	-9.76384
über	-9.76443
io	-9.76498
▁besonderen	-9.76511
▁jene	-9.76622
▁National	-9.76747
▁Straßen	-9.76783
J	-9.76791
min	-9.76838
▁Pa	-9.76851
20	-9.7696
▁verbessert	-9.77022
▁Verkehrs	-9.77042
▁Zeitraum	-9.77053
▁bestehenden	-9.77151
▁Währung	-9.7718
▁online	-9.77195
▁2002	-9.77291
▁Mio	-9.77295
▁oben	-9.77312
▁p	-9.77318
▁aktiv	-9.77324
▁€	-9.77327
▁Deshalb	-9.77377
▁el	-9.77441
▁Karte	-9.77457
ers	-9.77485
tu	-9.7764
▁Sonder	-9.77711
▁möglicherweise	-9.77774
▁Kenntnis	-9.77808
ität	-9.77808
Obwohl	-9.77817
daten	-9.77836
▁Winter	-9.77929
▁Charakter	-9.78065
▁UN	-9.78188
▁Reformen	-9.78199
▁Homepage	-9.7821
▁prüfen	-9.78253
▁Start	-9.78276
ri	-9.78389
up	-9.78428
ry	-9.7844
▁Struktur	-9.78599
mit	-9.78625
▁Regelung	-9.78647
▁freuen	-9.78648
▁zuletzt	-9.78655
▁ging	-9.78749
▁Chance	-9.78774
▁fahren	-9.78862
au	-9.78901
▁funktioniert	-9.78931
▁Dokument	-9.78958
▁Unterkategorien	-9.78984
▁lösen	-9.79004
▁Herstellung	-9.79159
▁finanziellen	-9.79209
▁Golf	-9.79236
▁2001	-9.79308
Seit	-9.79328
▁geeignet	-9.7935
▁dienen	-9.79374
▁konkrete	-9.7946
▁bezeichnet	-9.79607
▁Partnerschaft	-9.79612
gang	-9.79685
▁Monate	-9.79712
▁Suche	-9.7972
▁alte	-9.79722
▁hoffen	-9.7974
▁beziehen	-9.79914
▁Komfort	-9.79923
▁Kooperation	-9.79996
▁Bo	-9.80028
▁Minister	-9.80092
▁Titel	-9.80135
Sch	-9.80138
▁Wege	-9.80166
▁Gas	-9.80193
ierte	-9.80201
▁vermeiden	-9.80215
bild	-9.80267
▁anders	-9.803
▁wünschen	-9.80343
▁Forderung	-9.80345
zi	-9.8042
▁Schlüssel	-9.80507
▁jederzeit	-9.80609
▁vorhanden	-9.8067
▁Kommunikation	-9.80719
▁Klein	-9.80821
▁)	-9.8087
▁Technologien	-9.81013
Meine	-9.81095
▁Österreich	-9.8117
pro	-9.81177
▁80	-9.81205
▁o	-9.81331
IT	-9.81355
▁Vielfalt	-9.81476
▁notwendigen	-9.81512
▁wer	-9.81609
▁Richtlinien	-9.81621
▁teilweise	-9.81712
▁Hafen	-9.81776
▁Schluss	-9.81781
▁vorgesehen	-9.81812
▁freien	-9.81902
▁Systems	-9.81948
▁Ka	-9.82106
▁sicherlich	-9.82152
▁lesen	-9.8223
▁Funktionen	-9.82245
▁verfolgt	-9.82279
▁Produktions	-9.82281
▁Menge	-9.82313
▁Meter	-9.82411
▁200	-9.82437
hi	-9.82476
▁we	-9.82498
▁Gipfel	-9.82528
▁Gesetzgebung	-9.82533
▁gern	-9.8263
▁Hoch	-9.82681
▁garantiert	-9.82767
▁geleistet	-9.82798
▁Regel	-9.82815
ell	-9.82842
▁Rück	-9.82928
▁erzielen	-9.82945
▁Februar	-9.82993
▁dank	-9.83064
▁darunter	-9.83089
▁Israel	-9.83122
▁Dateien	-9.83269
gi	-9.83273
▁Stimme	-9.83289
▁gelangen	-9.83317
sh	-9.83341
▁Groß	-9.83351
▁offensichtlich	-9.83384
▁Kindern	-9.83467
▁Straße	-9.83505
▁jeweils	-9.83632
▁eingeführt	-9.83693
▁Zweck	-9.837
▁entweder	-9.83729
▁speziell	-9.838
age	-9.83817
▁tätig	-9.83912
▁Anteil	-9.83915
▁entstehen	-9.83927
ot	-9.83931
▁sagt	-9.83934
“,	-9.83963
▁erhöhen	-9.83964
▁Vereint	-9.83976
▁übernachten	-9.84075
▁näher	-9.84091
▁Sa	-9.84161
▁Bus	-9.84173
▁bestätigt	-9.84282
wissenschaftlich	-9.84328
▁Einrichtungen	-9.84345
▁Boden	-9.8435
▁wollte	-9.84354
▁besuchen	-9.84422
net	-9.84525
▁no	-9.84673
▁Zweifel	-9.84789
▁stimme	-9.84827
▁Gemeinschafts	-9.84839
▁relativ	-9.84839
▁groß	-9.85008
feld	-9.8502
▁Einigung	-9.85045
а	-9.85056
▁Waren	-9.85082
▁Produkten	-9.85186
▁that	-9.85234
recht	-9.85253
Zweitens	-9.85283
▁1999	-9.85386
▁betonen	-9.85419
▁Entwurf	-9.85428
▁Na	-9.85461
stellung	-9.85476
▁gekommen	-9.85496
▁Rede	-9.85592
▁spielt	-9.85639
▁betrachtet	-9.85788
▁Iran	-9.85852
pe	-9.8587
▁welcher	-9.85886
si	-9.85889
▁kommenden	-9.8592
▁Installation	-9.86018
▁schwierig	-9.86048
▁g	-9.86111
▁aufmerksam	-9.86132
▁Wirkung	-9.8616
▁gerecht	-9.86215
▁Mitgliedstaat	-9.86267
▁Mitte	-9.86269
▁Ski	-9.86278
▁Großbritannien	-9.86322
Falls	-9.86377
▁Instrumente	-9.86382
▁informieren	-9.86387
▁Bewertung	-9.86414
▁Dienst	-9.86434
▁Nutzen	-9.86444
▁handeln	-9.86459
seite	-9.86562
▁Abgeordnete	-9.86619
▁lernen	-9.86633
ex	-9.86637
▁darstellen	-9.86687
▁Dienste	-9.86832
▁wären	-9.86833
kosten	-9.86852
▁Betrieb	-9.86906
▁Außen	-9.87004
▁Sitz	-9.87049
entwicklung	-9.87147
▁Japan	-9.87154
▁Kritik	-9.87156
▁Polen	-9.87204
▁Unser	-9.87214
▁umfasst	-9.8727
▁Kapital	-9.8731
▁Webseite	-9.87312
ó	-9.8733
▁are	-9.87333
▁geschützt	-9.87355
▁Veränderungen	-9.87469
▁Po	-9.87475
▁finanzielle	-9.87478
▁Barcelona	-9.87537
▁Gast	-9.87592
▁me	-9.87607
▁erfolgen	-9.87653
▁gewährleistet	-9.87671
men	-9.87679
▁Wissen	-9.87683
▁Initiativen	-9.87738
är	-9.87864
▁klare	-9.87868
▁Netz	-9.87877
▁dagegen	-9.87974
▁Absatz	-9.88062
▁Banken	-9.88093
▁benötigt	-9.88117
▁absolut	-9.88156
▁stärken	-9.88162
▁fragen	-9.88168
▁anderes	-9.88191
wie	-9.8827
▁erklären	-9.88284
ino	-9.88305
ach	-9.88415
▁Schweiz	-9.88416
ek	-9.88493
▁Moment	-9.88503
▁durchaus	-9.88595
▁Hersteller	-9.88635
▁erleben	-9.88647
pa	-9.88653
▁Leistungen	-9.88788
po	-9.88942
▁Analyse	-9.88953
▁Fonds	-9.88995
▁Sinn	-9.89048
▁TV	-9.89056
▁arbeitet	-9.89096
▁Irland	-9.89127
▁schriftlich	-9.89151
santrag	-9.89192
arbeit	-9.89212
▁freue	-9.89242
▁Tor	-9.89293
▁Villa	-9.89332
▁zentrale	-9.89402
▁Forschungs	-9.89451
kt	-9.89462
▁angesprochen	-9.89482
▁Nord	-9.8951
▁nächste	-9.89613
▁do	-9.89695
▁Car	-9.89706
▁London	-9.89734
▁Lesung	-9.89826
▁Fach	-9.89866
▁2.	-9.89953
▁lokalen	-9.89978
▁komplett	-9.89995
▁Teile	-9.90095
▁ausreichend	-9.90113
▁Status	-9.90145
fall	-9.90164
▁Werk	-9.9018
▁Angaben	-9.90228
▁Worte	-9.90252
▁trägt	-9.90291
▁Gesetz	-9.9031
▁Einzel	-9.90316
▁w	-9.90318
▁Stellungnahme	-9.90396
▁unternehmen	-9.90401
▁Ri	-9.90516
▁abgeschlossen	-9.90596
е	-9.90697
50	-9.90704
▁Verpflichtung	-9.90741
▁erscheint	-9.90911
▁Li	-9.90919
La	-9.90951
▁Ko	-9.91011
▁hält	-9.91045
▁Brüssel	-9.91126
▁unabhängig	-9.91171
▁Zum	-9.91202
▁Aufbau	-9.9121
▁Aspekt	-9.91223
▁Material	-9.91238
▁Einhaltung	-9.91339
va	-9.91362
sbereich	-9.91385
▁Untersuchung	-9.914
▁übertragen	-9.91401
nd	-9.91429
▁konzentrieren	-9.91446
▁verloren	-9.91555
▁kostenlos	-9.91562
▁zufrieden	-9.91582
▁möglichst	-9.91587
▁legen	-9.916
▁dennoch	-9.91699
mittel	-9.91701
Bitte	-9.91702
▁Innovation	-9.9171
▁verfolgen	-9.91722
Dabei	-9.91737
▁Beteiligung	-9.91745
▁Hauses	-9.91831
werk	-9.91845
tag	-9.91889
▁Buchung	-9.91907
▁Ma	-9.9192
▁wenigen	-9.91995
▁klicken	-9.92003
▁Kauf	-9.92047
▁Fortschritt	-9.92071
▁Kon	-9.92139
bo	-9.92189
▁erstellen	-9.9228
▁Sehenswürdigkei	-9.9233
▁Kirche	-9.92331
▁eingehen	-9.92374
▁herzlich	-9.92485
▁Neben	-9.92508
и	-9.92594
▁positive	-9.92617
schriftlich	-9.92619
▁Systeme	-9.9265
▁II	-9.92682
▁Forderungen	-9.92802
igkeit	-9.92843
▁Kern	-9.92877
▁t	-9.93068
▁Versuch	-9.93126
▁Nutzer	-9.93231
▁Prinzip	-9.93267
▁Verkehr	-9.93302
▁Gebieten	-9.93324
▁Tradition	-9.93347
▁angeboten	-9.934
▁diskutieren	-9.9348
▁Gemeinsamen	-9.93492
▁Prioritäten	-9.93496
▁verlassen	-9.93602
▁Terrasse	-9.93782
▁Ruhe	-9.93814
▁Arbeiten	-9.9391
▁Sorge	-9.93942
▁länger	-9.94024
▁amerikanischen	-9.94044
▁Indien	-9.94061
▁persönlich	-9.94072
▁Dollar	-9.94118
▁erhält	-9.9412
▁Realität	-9.94135
▁Stärkung	-9.94167
Wer	-9.94262
▁Damit	-9.946
Geschäftsordnung	-9.94603
▁Globalisierung	-9.94677
▁Jahrhunderts	-9.94714
▁Waffen	-9.94778
▁Begriff	-9.94821
▁schneller	-9.94903
▁los	-9.94925
▁feststellen	-9.94969
▁zahlen	-9.94997
and	-9.95019
▁International	-9.95075
Ab	-9.95084
Natürlich	-9.95173
fragen	-9.95187
▁ideal	-9.95192
▁täglich	-9.95197
▁Unterkunft	-9.95248
▁geöffnet	-9.95261
Le	-9.95315
▁Berichte	-9.95357
▁Nachfolgend	-9.95359
▁folgende	-9.95364
▁Ideen	-9.95417
▁beteiligt	-9.95433
sbedingungen	-9.95441
▁Achtung	-9.95467
▁hören	-9.95485
▁al	-9.95728
▁Patienten	-9.95728
▁nennen	-9.95789
▁PC	-9.95832
▁Vielzahl	-9.95853
▁Go	-9.95943
▁Formen	-9.95952
Arbeitslosigkeit	-9.95959
▁übrigen	-9.95988
▁hergestellt	-9.96011
▁überprüfen	-9.96024
▁schönen	-9.96092
▁stattfinden	-9.96154
▁Grundsatz	-9.96155
▁Fa	-9.96194
▁Außerdem	-9.96214
tre	-9.96243
▁positiv	-9.96246
ix	-9.96384
▁mag	-9.96425
▁hingewiesen	-9.96447
▁Den	-9.96509
▁entgegen	-9.96542
▁York	-9.96571
▁kulturellen	-9.96691
▁su	-9.96745
▁Jo	-9.96818
▁Führung	-9.96838
▁Wissenschaft	-9.96839
park	-9.96893
▁gegenwärtig	-9.96906
zug	-9.96922
ha	-9.96969
▁Bedarf	-9.97091
▁denken	-9.97107
▁Privat	-9.97108
▁links	-9.97191
organisation	-9.972
▁Gott	-9.97248
▁einiger	-9.97275
▁diskutiert	-9.97407
▁Umfang	-9.9742
▁miteinander	-9.97482
systeme	-9.97486
mar	-9.97525
▁Bedürfnisse	-9.97623
▁Name	-9.97625
▁Verteidigung	-9.97636
▁Texte	-9.97668
▁Teilnehmer	-9.97693
schen	-9.97775
org	-9.97794
▁Ratspräsident	-9.97804
▁profitieren	-9.97819
sprozess	-9.97904
ken	-9.97914
▁einsetzen	-9.97948
▁erforderlichen	-9.97956
▁500	-9.97989
▁Anpassung	-9.98106
▁Priorität	-9.98133
▁sämtliche	-9.98158
▁Standards	-9.98342
▁Flexibilität	-9.98473
▁Städte	-9.98544
▁Prüfung	-9.98563
▁Afrika	-9.98605
tor	-9.98752
▁gewinnen	-9.98785
▁gewisse	-9.98856
▁com	-9.98987
▁betroffen	-9.99024
▁Niveau	-9.9907
ski	-9.99127
ang	-9.99135
EL	-9.99139
▁Ukraine	-9.99151
▁19.	-9.99157
produktion	-9.99214
▁informiert	-9.99229
▁Tourismus	-9.99266
▁unterstütze	-9.99305
▁geschehen	-9.99333
▁beinhaltet	-9.99341
▁Bewegung	-9.99433
▁All	-9.99434
Über	-9.99449
tes	-9.99512
▁Aussicht	-9.99558
fi	-9.99572
▁Geist	-9.99606
▁spezielle	-9.99623
▁Business	-9.99642
▁Tisch	-9.99662
mp	-9.99721
▁danach	-9.99822
▁Militär	-9.99861
satz	-9.99866
▁überall	-9.99873
▁Arten	-9.99928
▁regionalen	-10.0001
ba	-10.0004
▁bildet	-10.001
fahrt	-10.0014
▁besitzt	-10.0022
▁vorliegenden	-10.0023
▁Elemente	-10.0026
▁Diskriminierung	-10.0028
▁Koordinierung	-10.0028
▁Europäer	-10.0029
Abschließend	-10.0035
Nur	-10.0042
▁beginnt	-10.0044
▁Maschinen	-10.0054
▁Infrastruktur	-10.0059
▁Debian	-10.0066
▁umfassende	-10.0076
▁Kosovo	-10.0077
▁beschäftigt	-10.0082
▁Anwendungen	-10.0083
▁weiterer	-10.0083
▁keinerlei	-10.0084
▁Stellen	-10.009
▁richtigen	-10.0091
plan	-10.0094
▁Maße	-10.0096
▁erhöht	-10.0101
▁Überprüfung	-10.0109
▁abge	-10.0113
▁vollkommen	-10.0122
Sterne	-10.0128
▁gestalten	-10.0132
▁Zur	-10.0136
▁französischen	-10.0137
▁Anlagen	-10.0138
management	-10.0145
▁Club	-10.0158
▁Band	-10.017
▁IT	-10.0177
▁Altstadt	-10.0178
▁globale	-10.0181
▁politischer	-10.0182
▁allgemeine	-10.0192
ssystem	-10.0197
▁www	-10.0206
▁Einwanderung	-10.0208
▁Ereignisse	-10.0213
▁Größe	-10.0215
▁CD	-10.0222
▁Doch	-10.0225
▁Zeiten	-10.0229
▁90	-10.0231
Ja	-10.0232
ive	-10.0234
▁garantieren	-10.024
▁zusätzlich	-10.0254
▁festgestellt	-10.0254
▁Vorbereitung	-10.0262
hilfe	-10.0262
▁21	-10.0265
▁empfehlen	-10.0269
que	-10.027
▁demokratische	-10.0271
ei	-10.0278
▁interessiert	-10.0287
▁dient	-10.0291
▁Griechenland	-10.0292
▁les	-10.0305
▁Monat	-10.0305
du	-10.0305
stadt	-10.0307
▁fallen	-10.0309
▁falls	-10.031
▁größeren	-10.0318
Allerdings	-10.032
▁Fenster	-10.0324
▁ideale	-10.0325
▁Liberalisierung	-10.0329
▁hauptsächlich	-10.0331
▁WTO	-10.0341
▁Treffen	-10.0351
▁Anlage	-10.0368
▁Con	-10.0371
▁Künstler	-10.0372
▁solcher	-10.0374
▁gegenwärtigen	-10.039
Nicht	-10.039
▁Ordnung	-10.0391
▁internationaler	-10.0401
▁Anti	-10.0403
▁Rom	-10.0404
Heute	-10.0405
spiel	-10.0406
▁einfache	-10.041
▁Ne	-10.0411
▁Eindruck	-10.0413
▁warten	-10.0413
▁Technik	-10.0425
▁Gold	-10.0429
▁Regelungen	-10.0432
▁Universität	-10.0435
▁Lu	-10.0435
maßnahmen	-10.0436
ki	-10.0438
anlagen	-10.0439
▁wichtigste	-10.0439
ate	-10.0441
▁Gründe	-10.0447
wert	-10.0451
see	-10.0455
än	-10.0461
kommen	-10.0468
ere	-10.0472
▁Märkte	-10.0475
▁rechts	-10.0478
▁Gesetze	-10.0484
bi	-10.0487
wirtschaft	-10.0487
▁akzeptiert	-10.0488
▁entsprechen	-10.0491
System	-10.0493
11	-10.0497
▁zuvor	-10.0498
▁Erde	-10.0498
▁CO	-10.0501
▁Polizei	-10.051
▁Hoffnung	-10.0511
▁Stadtzentrum	-10.0513
▁regelmäßig	-10.052
▁Worten	-10.0522
▁Gebiete	-10.0533
▁meist	-10.0539
smöglichkeiten	-10.0539
▁Dabei	-10.0542
ort	-10.0542
ity	-10.0544
▁Ho	-10.0544
▁Karten	-10.0559
▁70	-10.056
punkt	-10.0562
▁Museum	-10.0571
▁Ha	-10.0572
bel	-10.0576
▁Tages	-10.0579
ES	-10.059
▁liebe	-10.0592
▁Mann	-10.0593
tin	-10.0593
▁betrachten	-10.0603
▁verbundenen	-10.0611
▁Verbrechen	-10.0613
ert	-10.0613
▁Gegensatz	-10.0616
▁wesentlichen	-10.0626
▁Reaktion	-10.0627
▁Unabhängigkeit	-10.0633
▁Botschaft	-10.0639
Booking	-10.064
▁Ober	-10.0645
▁deutsche	-10.0645
▁Download	-10.0671
▁Verständnis	-10.0676
kraft	-10.0682
▁23	-10.069
hin	-10.069
ium	-10.0693
▁Angriff	-10.0693
▁erfordert	-10.0694
▁No	-10.0702
fer	-10.0703
▁were	-10.0704
Schließlich	-10.0711
▁früher	-10.0713
▁Kurs	-10.0719
▁Lo	-10.0729
ierten	-10.0742
▁gelungen	-10.0744
hotel	-10.075
▁Gedanken	-10.0751
ck	-10.0751
▁Bestandteil	-10.0761
ty	-10.0764
▁Erklärungen	-10.077
▁Wohn	-10.0772
Nun	-10.0773
▁300	-10.0774
ok	-10.0775
▁Mehr	-10.0783
▁Spa	-10.0787
Innen	-10.0789
▁starke	-10.0793
▁He	-10.0795
▁persönliche	-10.0801
teil	-10.0802
▁Gebrauch	-10.0804
▁schöne	-10.0808
▁Problemen	-10.0811
▁beachten	-10.0813
▁britischen	-10.0815
▁bequem	-10.0817
+	-10.0819
legen	-10.0819
▁nachhaltige	-10.0819
▁daraus	-10.0821
▁Inter	-10.0823
▁Aktionen	-10.0826
▁Ausland	-10.0827
▁Formular	-10.0838
▁r	-10.084
▁Gefühl	-10.084
▁eng	-10.084
▁this	-10.0842
smaßnahmen	-10.0843
▁Option	-10.085
ich	-10.085
Viele	-10.085
TM	-10.0854
▁Agentur	-10.0865
▁speziellen	-10.0866
12	-10.0875
vo	-10.0879
▁Klimaanlage	-10.0881
▁Di	-10.0887
▁Stein	-10.0891
▁großes	-10.0892
▁Studien	-10.0894
▁End	-10.0899
FR	-10.091
▁kürzlich	-10.0915
19	-10.0917
▁zunehmend	-10.092
▁junge	-10.092
▁Zugriff	-10.0924
▁Amsterdam	-10.0927
▁Völker	-10.0929
▁1998	-10.0932
▁Vorteil	-10.0936
▁Dorf	-10.0944
▁Westen	-10.0946
▁Papier	-10.095
▁Kombination	-10.095
▁sorgfältig	-10.0954
▁einverstanden	-10.0956
▁gutes	-10.0957
▁Erhöhung	-10.0958
kon	-10.0961
▁Empfehlungen	-10.0962
▁Süden	-10.0971
▁Englisch	-10.0972
ac	-10.0976
verfahren	-10.0983
▁acht	-10.0984
▁Königreich	-10.0986
▁Pe	-10.1
▁Daher	-10.1001
▁historische	-10.1004
▁Zahlen	-10.1007
lu	-10.1008
iv	-10.1009
▁»	-10.1013
▁Beihilfen	-10.1016
▁geschieht	-10.1019
▁praktisch	-10.1024
▁außerordentlich	-10.1028
▁zugänglich	-10.103
▁manchmal	-10.1039
▁Architektur	-10.104
liste	-10.1042
mi	-10.1043
sk	-10.1043
arbeiten	-10.1044
▁gehalten	-10.1048
▁treten	-10.1052
we	-10.1054
▁gewählt	-10.1057
▁Gegenteil	-10.1061
▁Tagung	-10.1061
▁Auftrag	-10.1063
▁unternommen	-10.1066
▁Laufe	-10.107
▁Portugal	-10.1074
▁stimmt	-10.1086
▁abzu	-10.1088
▁höhere	-10.109
ör	-10.1092
▁Ex	-10.1095
▁jüngsten	-10.1096
▁Risiken	-10.11
▁sobald	-10.11
▁anerkannt	-10.1101
▁langen	-10.1101
▁Süd	-10.1108
▁West	-10.1113
▁zählen	-10.1113
del	-10.1119
▁Kopf	-10.112
▁mittels	-10.1121
▁kaufen	-10.1125
▁Ro	-10.1126
▁spricht	-10.1133
▁Grundrechte	-10.1135
▁Entwicklungen	-10.1136
▁Farben	-10.1138
▁einzelne	-10.1139
▁Fisch	-10.114
▁+	-10.1141
▁Voraussetzungen	-10.1146
ven	-10.1146
▁installiert	-10.1146
▁Feld	-10.1148
▁Mitteln	-10.1159
wa	-10.1162
▁übernommen	-10.1164
▁Planung	-10.1166
...""	-10.1167
dienst	-10.1175
▁jungen	-10.1175
▁Qualitäts	-10.1176
▁Abschnitt	-10.1179
▁Star	-10.1185
ker	-10.1187
za	-10.1187
▁sage	-10.1188
▁Landschaft	-10.12
▁ernst	-10.1202
▁nationaler	-10.1204
▁Zustand	-10.1207
▁einzigen	-10.1209
▁Fotos	-10.1215
▁Minderheiten	-10.1216
▁Definition	-10.1219
▁Wind	-10.1224
▁Teilnahme	-10.1226
▁Pflicht	-10.1227
▁damals	-10.1228
▁fordert	-10.1233
▁bewegen	-10.1234
▁Bahnhof	-10.1245
▁Hauptstadt	-10.1246
▁Hälfte	-10.125
▁Jugend	-10.1253
▁22	-10.1255
▁Grunde	-10.1258
▁Experten	-10.126
Erstens	-10.1266
▁Justiz	-10.1267
▁27	-10.1271
fa	-10.1271
▁Überzeugung	-10.1272
▁Phase	-10.1273
▁Nur	-10.1277
▁Männer	-10.1279
▁Her	-10.1279
▁vorgeschlagenen	-10.1284
Einige	-10.1285
▁Wettbewerbs	-10.1286
▁wodurch	-10.1293
▁guter	-10.1295
▁andererseits	-10.1306
▁Rest	-10.1306
▁abhängig	-10.1306
▁anbieten	-10.1308
▁sonst	-10.1314
▁echte	-10.1315
▁have	-10.1315
▁betont	-10.1317
▁Veranstaltung	-10.1318
qui	-10.1321
rad	-10.1321
Programm	-10.1323
▁zugleich	-10.1329
▁laut	-10.1331
bedingungen	-10.1331
gruppe	-10.1333
▁Aktion	-10.134
▁vorschlagen	-10.1342
▁teilen	-10.1348
TV	-10.1349
▁Fraktionen	-10.1349
the	-10.1353
▁Y	-10.1355
les	-10.1356
▁Presse	-10.1359
▁Touristen	-10.136
▁Austausch	-10.136
organisationen	-10.136
▁Farb	-10.1363
low	-10.1364
bringen	-10.1372
▁sieben	-10.1372
▁präsentiert	-10.1373
bahn	-10.1381
▁verstärkt	-10.1383
▁Freunde	-10.1391
▁Zivil	-10.1396
▁Ad	-10.1397
▁betroffenen	-10.1399
▁Politiker	-10.1408
▁ergeben	-10.1411
▁international	-10.1413
▁Geschäft	-10.1415
anlage	-10.1416
angebot	-10.1423
▁Konflikt	-10.1425
▁Entwicklungs	-10.1432
▁Mitgliedern	-10.145
anz	-10.1451
▁einge	-10.1453
▁Effizienz	-10.1453
lin	-10.1455
▁hervorragende	-10.1462
▁freie	-10.1467
▁Absicht	-10.1467
▁Willen	-10.1468
▁Tod	-10.1469
PL	-10.1471
▁Not	-10.1478
▁Links	-10.1485
ug	-10.1488
▁Strom	-10.1496
▁private	-10.1497
▁Erholung	-10.1507
ow	-10.1535
▁traditionellen	-10.1536
▁Freude	-10.1543
▁Ni	-10.1548
▁basiert	-10.1553
ial	-10.1558
▁begann	-10.1566
▁fällt	-10.1568
op	-10.1571
▁Bio	-10.1571
▁siehe	-10.158
▁erscheinen	-10.1587
▁Lizenz	-10.1587
fe	-10.159
▁grenzüberschrei	-10.1591
▁Linux	-10.1595
▁Tiere	-10.1601
▁erhältlich	-10.1602
▁Haut	-10.1602
möglichkeiten	-10.1605
▁entstanden	-10.1607
▁Mittelmeer	-10.1611
▁seitens	-10.1612
sion	-10.1613
Neben	-10.1618
▁Methode	-10.1618
▁reagieren	-10.165
▁Wald	-10.1653
▁20.	-10.166
▁reicht	-10.1661
▁Port	-10.1663
▁ausgezeichnete	-10.1668
Veröffentlichung	-10.1669
▁Dimension	-10.1676
▁finde	-10.1676
▁Me	-10.1679
▁hervor	-10.1682
▁Schwerpunkt	-10.169
▁gefördert	-10.169
▁Internationalen	-10.1692
welt	-10.1699
▁*	-10.1699
sp	-10.17
▁Programms	-10.1702
▁World	-10.1705
▁produziert	-10.1706
▁Stück	-10.1716
▁Meeres	-10.1717
▁willkommen	-10.1727
▁kleiner	-10.1735
▁Or	-10.1739
▁Unterschiede	-10.1742
▁Methoden	-10.1748
▁Darüber	-10.1748
ian	-10.1757
con	-10.1758
▁Liebe	-10.1758
ide	-10.1761
▁Fähigkeit	-10.1762
▁Messe	-10.1772
▁Verbot	-10.1773
das	-10.1776
▁Frei	-10.1778
erweise	-10.178
▁berechtigt	-10.1782
heim	-10.1783
▁Wahrheit	-10.1791
tion	-10.1791
▁ländlichen	-10.1791
▁Signal	-10.1801
▁Unterschied	-10.1803
▁grundlegende	-10.1803
▁künftig	-10.1807
▁beschränkt	-10.1812
▁behandeln	-10.1813
▁Verhältnis	-10.1814
Ob	-10.1822
ya	-10.1824
▁Tal	-10.1824
▁angeht	-10.184
isieren	-10.1856
▁Inseln	-10.1859
▁verändert	-10.1862
▁sichern	-10.1864
▁nötig	-10.1866
▁tut	-10.1867
gruppen	-10.1874
▁Generation	-10.1877
res	-10.1882
▁kulturelle	-10.1884
▁dritten	-10.1884
▁Veranstaltungen	-10.1885
▁Gästen	-10.1885
▁Einklang	-10.1885
▁Norden	-10.1889
▁Studie	-10.1893
▁nochmals	-10.1898
▁Klimawandel	-10.1899
▁kontextuell	-10.1904
DE	-10.1908
▁Anliegen	-10.1911
▁sorgt	-10.1916
▁Beweis	-10.192
▁möglichen	-10.1921
▁bereitgestellt	-10.1925
ür	-10.1928
▁Zug	-10.1928
▁Ra	-10.1931
▁berühmten	-10.1932
▁sicherstellen	-10.1935
▁Datenschutz	-10.1938
▁begonnen	-10.1941
▁Su	-10.1942
▁Ausnahme	-10.1943
▁Gründung	-10.1944
St	-10.1948
Lassen	-10.1949
▁vielmehr	-10.1952
▁Mutter	-10.1956
▁umgeben	-10.1959
▁politisch	-10.196
▁Fälle	-10.1961
buch	-10.1962
▁zustimmen	-10.1962
▁Verkauf	-10.1962
Berücksichtigung	-10.1963
▁allgemein	-10.1964
len	-10.1965
▁po	-10.1965
▁Gleichgewicht	-10.1971
▁Motor	-10.1972
▁Ost	-10.1974
▁verlieren	-10.1981
.)	-10.1984
▁Stunde	-10.1986
▁Umständen	-10.1988
▁regionale	-10.1988
stehen	-10.1989
▁höchste	-10.1993
▁staff	-10.1995
ard	-10.2003
▁vorher	-10.2006
▁Maß	-10.2021
▁Strukturfonds	-10.2026
isiert	-10.2034
▁Nachfrage	-10.2036
leben	-10.204
▁fand	-10.2042
▁rein	-10.2043
▁führenden	-10.2045
▁Original	-10.2047
▁Agenda	-10.2049
▁Marken	-10.2052
▁besseren	-10.2055
▁ex	-10.2059
barkeit	-10.206
▁1997	-10.2062
▁positiven	-10.207
▁extrem	-10.2074
▁ergriffen	-10.2079
▁Hinweis	-10.2081
▁Rad	-10.2083
▁21.	-10.2087
▁Theater	-10.2088
▁ehemaligen	-10.2091
om	-10.2093
▁Haftung	-10.2094
▁DVD	-10.2095
iger	-10.2097
▁Tour	-10.2103
▁Schaden	-10.2107
▁dir	-10.2112
▁Verfügbarkeit	-10.2115
▁Ca	-10.2117
25	-10.2118
▁Tier	-10.2125
▁befassen	-10.2127
▁derzeitigen	-10.2128
▁Bundes	-10.2129
▁Lager	-10.2131
vi	-10.2139
▁sinnvoll	-10.2139
▁Grenze	-10.2141
▁vorgenommen	-10.2144
▁schließen	-10.2145
▁General	-10.2147
▁breite	-10.2149
▁Apartments	-10.2152
Ist	-10.2153
▁zentral	-10.216
▁Einstellung	-10.2166
▁Zimmern	-10.2172
▁wiederum	-10.2173
▁Angebote	-10.2178
▁Verhalten	-10.218
▁van	-10.2189
▁Amerika	-10.219
▁Garantie	-10.2192
▁Beratung	-10.2194
Den	-10.2196
▁eröffnet	-10.2198
▁Kunde	-10.2212
▁City	-10.2219
▁Rumänien	-10.222
▁Schäden	-10.2222
▁Schweden	-10.2223
▁Spiele	-10.2224
zentrum	-10.2226
▁Nachrichten	-10.223
▁Alter	-10.2232
▁betreffen	-10.2233
▁genauso	-10.2234
ini	-10.2238
gel	-10.2243
▁ziemlich	-10.2246
▁Kollege	-10.2272
▁verlangt	-10.2283
2-	-10.2285
▁Grundsätze	-10.2286
ari	-10.2293
▁4.	-10.2299
est	-10.2306
▁Geräte	-10.2306
Denn	-10.2307
▁Datenbank	-10.2307
▁Dokumente	-10.2314
sche	-10.2317
▁läuft	-10.2318
ju	-10.232
▁Wo	-10.2322
▁weg	-10.2322
▁Empfehlung	-10.2323
24	-10.2327
ue	-10.2327
▁Teilen	-10.2327
▁Drogen	-10.2327
tage	-10.2339
nahme	-10.2341
▁Com	-10.2342
▁but	-10.2343
▁gespeichert	-10.2354
▁landwirtschaft	-10.2355
▁Bi	-10.2356
▁Mindest	-10.2362
▁Arbeitsmarkt	-10.2363
»	-10.2368
▁Link	-10.2368
15	-10.2369
▁konkreten	-10.2369
▁Badezimmer	-10.2377
▁niemand	-10.238
▁Fahrzeug	-10.2389
▁Morgen	-10.2389
Selbst	-10.2391
▁Identität	-10.2393
▁Kind	-10.2401
▁voraus	-10.2408
▁Diskussionen	-10.2408
▁weiteres	-10.2409
▁interessante	-10.2414
▁Kontroll	-10.2418
frage	-10.2418
▁Adresse	-10.242
▁definiert	-10.2422
material	-10.2424
▁We	-10.2427
▁entlang	-10.2427
▁wiederholt	-10.2429
führung	-10.243
▁Ton	-10.2433
▁na	-10.2433
▁bemüht	-10.2439
▁schafft	-10.2439
▁jährlich	-10.244
▁Allgemeinen	-10.2442
▁verlangen	-10.2446
▁starken	-10.2448
▁bezieht	-10.2452
>	-10.2456
▁gestern	-10.2457
▁Eigenschaften	-10.2458
▁Maßnahme	-10.246
▁11.	-10.2465
▁Ba	-10.2468
▁Kamera	-10.2472
▁falsch	-10.2487
setzen	-10.2489
▁Leitlinien	-10.2489
▁Grad	-10.2489
▁zählt	-10.2493
▁reichen	-10.2495
hof	-10.25
▁Küste	-10.25
ischer	-10.2501
▁deiner	-10.2504
▁x	-10.2505
ance	-10.251
produkte	-10.2513
ll	-10.2515
▁Vermittlung	-10.2518
Nachdem	-10.2521
▁rasch	-10.2526
▁unmittelbar	-10.2526
tische	-10.2528
▁lautet	-10.2528
▁erweitert	-10.2536
sländern	-10.2539
▁Gestaltung	-10.2544
▁Bedenken	-10.2546
▁liefern	-10.255
▁Eltern	-10.2554
ip	-10.2554
ado	-10.2567
▁trotzdem	-10.2569
▁Element	-10.2569
De	-10.257
dem	-10.2575
▁seien	-10.2576
▁Agrar	-10.2578
è	-10.2579
sta	-10.2589
▁stand	-10.2589
▁dritte	-10.2591
▁3.	-10.2593
▁italienischen	-10.2597
▁hoher	-10.2603
▁bedarf	-10.2603
bare	-10.2608
▁wenden	-10.2609
fach	-10.261
Dazu	-10.2615
▁Ausstattung	-10.2618
▁Pool	-10.2619
▁Betriebs	-10.2619
ah	-10.2619
▁organisiert	-10.2621
▁Zoll	-10.2622
▁Sprach	-10.2622
▁gewährt	-10.2623
▁Dauer	-10.2626
preis	-10.263
ada	-10.2633
sländer	-10.2635
▁welchen	-10.2637
gebiet	-10.2639
▁keiner	-10.2643
▁Immobilien	-10.2644
40	-10.265
istischen	-10.2653
▁außergewöhnlich	-10.2655
▁Verträge	-10.2655
▁Genehmigung	-10.2659
▁Regulierung	-10.2663
sabkommen	-10.267
▁umfassenden	-10.2674
▁Sanktionen	-10.2679
▁Ferien	-10.2691
nde	-10.2691
elle	-10.2696
▁senden	-10.2699
Zur	-10.2699
▁Landwirte	-10.2705
▁Eisenbahn	-10.2713
▁Per	-10.2718
▁geschrieben	-10.2724
▁Herz	-10.2725
▁teilnehmen	-10.2729
▁erzeugt	-10.2734
▁Forum	-10.2738
▁Bahn	-10.2738
▁grundsätzlich	-10.2745
bad	-10.2746
ag	-10.2754
▁Institution	-10.2754
wagen	-10.2755
ov	-10.276
Schlussfolgerung	-10.2766
▁Roma	-10.2766
ator	-10.2767
ts	-10.2768
▁führte	-10.2771
ica	-10.2775
service	-10.2775
▁ausgerichtet	-10.2776
▁beträgt	-10.2776
▁entdecken	-10.2779
ong	-10.278
▁Glas	-10.2781
▁Freizeit	-10.2783
position	-10.2786
▁Voraussetzung	-10.2789
▁perfekt	-10.2803
▁Antworten	-10.2806
▁schön	-10.2806
gemeinschaft	-10.2807
rechte	-10.281
eu	-10.2813
sort	-10.2816
▁Wien	-10.2817
▁gebaut	-10.282
karte	-10.2825
▁Büro	-10.2827
Angesichts	-10.2834
▁wesentliche	-10.2837
▁Wirklichkeit	-10.2849
▁Asien	-10.2852
▁Harmonisierung	-10.2856
▁Export	-10.2856
▁Casino	-10.2858
q	-10.2869
▁höher	-10.2876
▁Ru	-10.2877
▁Stellung	-10.2877
▁Festlegung	-10.2878
▁besitzen	-10.2882
▁kurzem	-10.2883
▁gelegt	-10.2884
▁Ausführung	-10.2887
▁Schule	-10.2888
qualität	-10.2895
▁Vi	-10.2901
▁jegliche	-10.2901
US	-10.2903
▁Dann	-10.2904
▁bedeuten	-10.2906
out	-10.2907
▁Code	-10.2909
▁he	-10.2911
zahl	-10.2912
skonferenz	-10.2913
''	-10.2913
▁Materialien	-10.2913
▁Friedens	-10.2915
▁Werbe	-10.2919
gesellschaften	-10.2923
▁Übersetzung	-10.2925
▁good	-10.2928
▁abgelehnt	-10.293
▁grundlegenden	-10.2931
Dennoch	-10.2933
▁Erwartungen	-10.2933
▁Strategien	-10.2939
▁Mittelpunkt	-10.2948
▁derartige	-10.2948
▁Ratsvorsitz	-10.2951
struktur	-10.2952
–	-10.2957
▁entschlossen	-10.296
▁öffnen	-10.2962
▁zweifellos	-10.2969
tisch	-10.297
▁sofern	-10.2976
straße	-10.2976
▁laufen	-10.2981
▁hilft	-10.2984
▁schönsten	-10.2987
▁jemand	-10.299
▁entscheidend	-10.2993
wasser	-10.2993
▁geprüft	-10.2996
▁niemals	-10.2997
▁Gericht	-10.3004
igt	-10.3005
60	-10.3006
Pro	-10.3016
▁Agrarpolitik	-10.3018
▁zusätzlichen	-10.3024
▁einerseits	-10.3025
▁wider	-10.3025
▁Kategorie	-10.303
▁Essen	-10.303
▁Details	-10.3031
▁Studenten	-10.3032
▁weshalb	-10.3033
▁durchzuführen	-10.3033
16	-10.3034
▁Umgang	-10.3036
▁Ambiente	-10.305
ou	-10.3053
▁Kaffee	-10.3055
▁Cor	-10.3056
▁Welche	-10.3059
▁voller	-10.3062
mon	-10.3069
▁schwierigen	-10.3086
▁Zahlung	-10.3086
▁zuerst	-10.309
nnen	-10.309
▁wichtiges	-10.3091
▁Do	-10.3093
ER	-10.3098
▁35	-10.31
▁Übereinstimmung	-10.3103
Un	-10.3106
▁bekannten	-10.3106
▁kurze	-10.3106
tt	-10.3111
geben	-10.3118
▁vollständige	-10.3119
▁inzwischen	-10.3121
pi	-10.3122
▁Microsoft	-10.3127
bus	-10.3131
ay	-10.3137
einander	-10.3138
▁Sicherung	-10.3145
▁gestaltet	-10.3152
ros	-10.3155
▁Einheit	-10.3156
EG	-10.3157
▁Afghanistan	-10.3159
▁Nahrungsmittel	-10.316
▁inter	-10.3161
Adresse	-10.3163
▁abgestimmt	-10.3164
unter	-10.3166
nt	-10.3178
▁fühlen	-10.3179
▁leiden	-10.318
▁Open	-10.3192
▁neuesten	-10.3193
line	-10.3193
▁Dusche	-10.3196
Q	-10.3198
▁angemessene	-10.3199
▁spanischen	-10.3204
▁Blut	-10.3207
setzung	-10.321
▁erheblich	-10.321
ice	-10.3218
▁alt	-10.3221
▁reden	-10.323
▁hinzu	-10.323
▁can	-10.3233
▁Balkon	-10.3237
▁Marketing	-10.3241
▁weltweiten	-10.3242
▁co	-10.3243
▁umzusetzen	-10.3244
▁Kommunikations	-10.3247
▁gerichtet	-10.3248
▁Regime	-10.3258
▁schreiben	-10.326
▁Mensch	-10.3266
▁verändern	-10.3266
▁erreichbar	-10.3268
if	-10.3269
preise	-10.3269
▁München	-10.3274
▁Schulden	-10.3275
chi	-10.3276
▁betreffenden	-10.3277
▁verursacht	-10.3283
▁richten	-10.3289
ins	-10.3298
▁1996	-10.3298
▁Ausstellung	-10.33
▁gelöst	-10.3305
▁5.	-10.3305
▁anwesend	-10.3307
handel	-10.331
▁ruhigen	-10.3311
port	-10.3312
▁Warum	-10.3315
▁Hu	-10.3316
▁sichtbar	-10.3318
▁Normen	-10.332
▁eigenes	-10.3323
▁Google	-10.3324
▁ausgezeichneten	-10.3325
▁menschlichen	-10.3331
▁aufzunehmen	-10.3331
▁funktionieren	-10.3334
netz	-10.3337
▁Ausgangspunkt	-10.3337
▁Center	-10.335
all	-10.3353
▁ursprünglichen	-10.3355
▁ausgeführt	-10.336
▁tief	-10.3361
▁trifft	-10.3364
▁fehlt	-10.3368
▁Eis	-10.337
▁Anfragen	-10.3373
▁Delegation	-10.3373
▁Nahen	-10.3378
▁individuelle	-10.3381
▁Lassen	-10.3385
versorgung	-10.3393
ap	-10.3396
ru	-10.3402
▁Blog	-10.3405
cht	-10.3406
one	-10.3412
▁volle	-10.3413
▁beraten	-10.3415
▁heutige	-10.3419
▁Red	-10.343
politischen	-10.3438
▁Mac	-10.344
▁Top	-10.3445
▁verkauft	-10.3447
▁legt	-10.3447
▁Viertel	-10.3447
▁höchsten	-10.3448
▁Je	-10.3449
▁Mangel	-10.345
▁Konsens	-10.345
▁Vorgehen	-10.3452
▁verhindert	-10.3453
▁Gerichtshof	-10.3453
▁musste	-10.3453
▁sur	-10.3453
▁wirksam	-10.3458
▁Pre	-10.3459
▁Plenum	-10.3462
▁starten	-10.3463
▁Gewicht	-10.3464
▁gezogen	-10.3473
▁ausgesprochen	-10.3476
▁erinnert	-10.348
▁erlauben	-10.3482
▁ange	-10.3483
▁unterzeichnet	-10.3484
▁Verwaltungs	-10.3485
▁Audio	-10.3485
▁Werkzeug	-10.3485
▁innovative	-10.3485
▁Sal	-10.3485
▁Schul	-10.3491
verkehr	-10.3495
▁Heute	-10.3501
▁erlebt	-10.3506
▁gratulieren	-10.3508
▁bekämpfen	-10.3508
Zudem	-10.3509
gar	-10.3513
▁Gegen	-10.3517
▁Bestellung	-10.352
mat	-10.3524
▁Mobilität	-10.3526
▁offenen	-10.3531
▁riesigen	-10.3531
Ihre	-10.3532
▁erfolgreiche	-10.3533
▁Zuständigkeit	-10.3535
▁achten	-10.3537
▁begrüßt	-10.3538
▁au	-10.3538
▁verurteilt	-10.354
▁Beschreibung	-10.3541
▁anschließend	-10.3545
▁ungefähr	-10.3545
▁Browser	-10.3547
maschinen	-10.3548
▁anstatt	-10.3548
▁si	-10.3549
▁Dazu	-10.3553
▁Fi	-10.3554
▁Live	-10.3557
▁gewonnen	-10.3557
▁Doppel	-10.3559
▁Burg	-10.356
Dann	-10.3562
▁ausgeschlossen	-10.3565
▁Radio	-10.3566
▁übernimmt	-10.3566
▁Ausgabe	-10.3566
▁Wellness	-10.357
bildung	-10.3573
▁Pi	-10.3574
▁verschiedener	-10.3575
▁Format	-10.3576
▁NATO	-10.358
▁laden	-10.3581
dy	-10.3582
ette	-10.3586
od	-10.3587
pf	-10.3587
▁einzu	-10.359
▁einzigartige	-10.359
▁18.	-10.3592
▁Verarbeitung	-10.3592
▁sp	-10.3593
▁passiert	-10.3596
▁Sand	-10.3597
▁langsam	-10.3597
▁Verbesserungen	-10.3598
mer	-10.3602
▁künftigen	-10.3603
▁Vision	-10.3611
▁your	-10.3614
kultur	-10.3614
▁Anbieter	-10.3616
▁soweit	-10.362
▁Sauna	-10.3621
▁Typ	-10.3625
▁buchen	-10.3626
▁verdient	-10.3633
▁Gemeinde	-10.3634
hol	-10.3635
technologie	-10.3636
reichen	-10.3638
▁fordere	-10.3638
▁öffentlich	-10.3639
▁ausge	-10.3642
▁Strukturen	-10.3644
▁Services	-10.3645
▁bezug	-10.3646
PT	-10.3649
▁angesehen	-10.365
lose	-10.3653
▁Leistungs	-10.3654
▁Vater	-10.3656
▁Drittländern	-10.3658
▁reduziert	-10.3659
▁Zwei	-10.366
▁uneingeschränkt	-10.3664
▁aufgefordert	-10.3664
arten	-10.3665
▁Verantwortlich	-10.3667
▁angemessen	-10.3667
▁sehe	-10.3671
sel	-10.3672
▁Beziehung	-10.3672
▁hervorheben	-10.3673
▁Bearbeitung	-10.3674
▁Geschmack	-10.3675
▁annehmen	-10.3676
Klicken	-10.3681
▁unmöglich	-10.369
▁König	-10.3693
▁schlecht	-10.3695
paket	-10.3701
▁geboren	-10.3704
▁UNO	-10.3705
▁geprägt	-10.3708
▁Kilometer	-10.3711
▁Kapitel	-10.3711
▁Religion	-10.3715
Strategie	-10.3718
uk	-10.3719
▁verabschiedet	-10.3719
▁zugunsten	-10.372
▁Kontinent	-10.3721
▁Angst	-10.3722
▁Bucht	-10.3724
▁Zunächst	-10.3729
Jetzt	-10.3731
cia	-10.3731
namen	-10.3737
▁Sta	-10.3738
cken	-10.3739
▁Schönheit	-10.3742
▁Gegend	-10.3745
region	-10.3748
▁unverzüglich	-10.3748
▁finanziert	-10.3754
▁traditionelle	-10.3755
▁notwendige	-10.3757
▁Ausführungen	-10.3771
▁Küsten	-10.3772
▁konzentriert	-10.3777
▁Tra	-10.3778
▁kostet	-10.3784
▁Krankheiten	-10.3784
ny	-10.3787
tan	-10.3787
▁durchführen	-10.3787
Leider	-10.3788
▁Umfeld	-10.3788
▁Pass	-10.38
▁Serie	-10.3813
mel	-10.3814
▁einfacher	-10.3815
▁verstanden	-10.3816
▁beglückwünschen	-10.3818
▁vorbereitet	-10.3822
▁Farbe	-10.3824
▁Zentralbank	-10.3825
▁qualitativ	-10.3829
▁Fleisch	-10.3829
zer	-10.3838
▁verehrte	-10.384
▁ausgesetzt	-10.384
▁Übereinkommen	-10.3846
▁fertig	-10.3852
pp	-10.3856
23	-10.3861
▁bestätigen	-10.3863
▁location	-10.3863
▁bestehende	-10.3865
▁natürlichen	-10.3873
▁Denn	-10.3875
▁schnelle	-10.3877
▁Ta	-10.3878
ris	-10.3879
▁Vorschlägen	-10.388
elt	-10.3886
▁verbringen	-10.3891
▁Schw	-10.3891
▁Standort	-10.3892
srecht	-10.3892
▁Grand	-10.3896
▁zufolge	-10.3897
▁vi	-10.3905
▁sodass	-10.3915
▁zuständigen	-10.3916
▁par	-10.3916
▁herrscht	-10.3918
▁Geschäfte	-10.3923
▁Steuern	-10.3924
uch	-10.3925
▁Mess	-10.3932
öl	-10.3934
schau	-10.3937
▁Automobil	-10.3938
ick	-10.3952
▁zentralen	-10.3952
▁bestimmen	-10.3955
▁Fähigkeiten	-10.3957
à	-10.3966
log	-10.3967
▁Verringerung	-10.3971
▁mögliche	-10.3972
▁nachhaltigen	-10.3973
▁bezahlen	-10.3976
sport	-10.3976
▁Verlust	-10.3979
▁dich	-10.3981
▁Enterprise	-10.3981
▁Zwischen	-10.3991
70	-10.3993
▁Arbeitsplätzen	-10.3993
▁Meine	-10.3994
▁entscheidende	-10.3997
▁Entlastung	-10.4002
▁Costa	-10.4003
▁serviert	-10.4005
▁beruht	-10.4007
▁Vorstellung	-10.4007
▁Fahrt	-10.4011
▁Dienstleistungs	-10.4022
▁früheren	-10.4022
nehmen	-10.4027
▁=	-10.4033
Europa	-10.4034
▁liefert	-10.4034
▁auszu	-10.4035
▁erhebliche	-10.4036
baren	-10.4037
ons	-10.4037
▁britische	-10.4039
▁Fl	-10.4046
▁Alternative	-10.4052
lauf	-10.4055
▁Prinzipien	-10.4057
▁Arbeitsplatz	-10.4057
▁Q	-10.4058
ron	-10.4059
▁Viele	-10.4059
▁To	-10.4066
äu	-10.4066
▁Gewinn	-10.4067
cker	-10.4074
ys	-10.4076
▁Mut	-10.4076
▁hängt	-10.408
▁fort	-10.4082
0.000	-10.4083
▁Geschwindigkeit	-10.4083
Gleichzeitig	-10.4086
▁Aktien	-10.4089
ub	-10.4094
▁KMU	-10.4094
amp	-10.4095
▁angepasst	-10.4102
AS	-10.4103
▁Hohen	-10.4103
▁Kontext	-10.4107
▁verleihen	-10.4112
▁''	-10.4117
Meiner	-10.412
▁Sonne	-10.4121
13	-10.4122
▁Einbeziehung	-10.4124
▁vieler	-10.4131
▁para	-10.4134
▁Bulgarien	-10.4135
▁Schlafzimmer	-10.4139
▁Beispiele	-10.4141
ring	-10.4152
▁Pflanzen	-10.4154
AR	-10.4154
▁effektiv	-10.4156
schlag	-10.4159
▁grosse	-10.4161
▁kurzen	-10.4167
▁Sonnen	-10.4167
let	-10.4176
▁eingereicht	-10.4177
ight	-10.4179
▁Fischer	-10.4181
systems	-10.4186
informationen	-10.4188
▁16.	-10.4192
ib	-10.4193
▁Wohnung	-10.4194
wo	-10.4199
▁7.	-10.4199
RO	-10.4201
▁sauber	-10.4208
▁geboten	-10.421
▁Rechtsgrundlage	-10.4214
kel	-10.4216
▁Alt	-10.4219
gut	-10.4222
wechsel	-10.4224
▁aufnehmen	-10.4225
▁kontrolliert	-10.4228
ud	-10.4228
lä	-10.4228
stoff	-10.4232
▁weitgehend	-10.4235
▁pre	-10.4239
▁entsteht	-10.4241
▁Kroatien	-10.4243
AT	-10.4255
▁kämpfen	-10.4259
stelle	-10.4261
▁Konto	-10.4262
▁Werke	-10.4263
▁Kräfte	-10.4263
▁Handeln	-10.4263
Sollte	-10.4265
institutionellen	-10.4268
▁Punkten	-10.4273
17	-10.4273
▁Werbung	-10.4275
ano	-10.4278
▁Stahl	-10.4279
leistung	-10.4281
▁mm	-10.4281
▁Gerichte	-10.4282
▁klein	-10.4282
▁Krankheit	-10.4283
programme	-10.4283
cher	-10.4285
▁beschrieben	-10.4285
▁17.	-10.4285
▁Tri	-10.4288
▁komfortable	-10.4293
▁Kompetenz	-10.4295
▁stolz	-10.4297
räume	-10.4299
▁geäußert	-10.4305
▁ersetzt	-10.4307
gehen	-10.4308
lan	-10.4311
▁ferner	-10.4314
▁einfachen	-10.4315
▁Faktoren	-10.4318
▁welchem	-10.4318
▁Sammlung	-10.4319
▁überzeugen	-10.4321
▁En	-10.433
▁Gewährleistung	-10.4332
einrichtungen	-10.4333
▁gespielt	-10.4334
tar	-10.4344
▁erleichtern	-10.4345
tum	-10.4347
▁Des	-10.4347
staat	-10.435
▁Fluss	-10.4352
▁Wünsche	-10.4353
▁"„	-10.4358
fahren	-10.4359
wesen	-10.4372
▁gezwungen	-10.4374
▁vereinbart	-10.4378
rt	-10.4379
▁Glück	-10.4389
▁Verbreitung	-10.439
▁geltenden	-10.4391
▁Sp	-10.4393
▁Milch	-10.4395
▁staatlichen	-10.4401
▁hochwertige	-10.4402
▁Val	-10.4403
tur	-10.4404
▁Schloss	-10.4405
▁Beiträge	-10.4405
▁Weitere	-10.4409
▁hinzufügen	-10.4413
▁wollten	-10.4417
▁Wachstums	-10.442
band	-10.442
▁sa	-10.4429
▁Super	-10.4431
▁Har	-10.4436
▁Ki	-10.4443
▁westlichen	-10.4445
voll	-10.4454
geräte	-10.4454
▁nahezu	-10.4455
▁Ziffer	-10.4455
▁Leitung	-10.4462
▁Bemerkungen	-10.4465
▁Volks	-10.4468
▁Zypern	-10.4468
"	-10.4469
▁page	-10.4472
▁vorlegen	-10.4473
val	-10.4475
▁offene	-10.4476
istische	-10.4476
▁Wegen	-10.4481
▁Provinz	-10.4484
▁einig	-10.4485
hm	-10.4486
▁Freiheiten	-10.4486
▁Multi	-10.4492
▁solange	-10.4493
▁vorbei	-10.4496
licher	-10.4497
▁Opposition	-10.4497
▁verringern	-10.4504
▁Registrierung	-10.4505
vers	-10.4506
▁amerikanische	-10.4507
▁Ankunft	-10.4507
▁Erzeugnisse	-10.4511
▁letztlich	-10.4512
▁Bord	-10.4513
://	-10.4515
▁Anwender	-10.4518
▁Partnern	-10.4519
▁Während	-10.4521
▁menschliche	-10.4523
▁bemühen	-10.4527
hr	-10.4528
▁150	-10.4529
mail	-10.4531
▁Autobahn	-10.4534
zo	-10.4537
tic	-10.4542
▁chinesischen	-10.4544
▁verteilt	-10.4548
führer	-10.4551
zeichen	-10.4562
▁Kredit	-10.4565
▁beendet	-10.4568
TA	-10.457
▁größer	-10.4572
▁Außenpolitik	-10.4572
▁Patent	-10.4583
Ma	-10.4583
▁echten	-10.4586
▁Rezeption	-10.459
▁entwickelten	-10.4591
ON	-10.4594
"")	-10.4594
▁Dach	-10.4596
ley	-10.4597
▁Beschluss	-10.46
▁Gi	-10.46
▁Schiff	-10.4602
▁spezifischen	-10.4603
verwaltung	-10.4605
▁Ware	-10.4606
▁bedeutende	-10.4608
▁wahr	-10.4611
22	-10.462
80	-10.4625
▁4-	-10.4626
21	-10.4631
▁ruhig	-10.4634
▁höheren	-10.4637
eck	-10.4649
▁Fest	-10.465
gl	-10.4653
punkte	-10.4656
▁ha	-10.4656
▁Umweltschutz	-10.4656
▁nützlich	-10.4663
▁ne	-10.4663
▁lokale	-10.4672
▁knapp	-10.4674
fest	-10.4682
durch	-10.4689
▁our	-10.4693
gebiete	-10.4696
▁Vereinbarungen	-10.4698
▁Übernachtung	-10.4699
▁Symbol	-10.4704
▁Betrag	-10.4707
▁wann	-10.4707
▁Einige	-10.471
▁Gespräche	-10.4714
▁Deutschen	-10.4715
▁Ungarn	-10.4717
ost	-10.4722
Datei	-10.4727
licht	-10.4728
▁Fernseh	-10.473
ting	-10.4734
▁behalten	-10.4737
14	-10.4737
ite	-10.4741
▁Subsidiarität	-10.4741
steuer	-10.4743
▁2020	-10.4744
ordnung	-10.4744
▁organisieren	-10.4744
cy	-10.4746
▁Webseiten	-10.4747
nis	-10.4747
version	-10.4749
▁Chancen	-10.4751
▁Korruption	-10.4752
▁installieren	-10.4754
Bericht	-10.4756
text	-10.4756
ato	-10.476
lösung	-10.4765
▁Anschluss	-10.4765
▁Elektro	-10.4767
▁Studio	-10.4775
▁BIP	-10.4784
▁Fax	-10.4789
▁französische	-10.479
▁15.	-10.479
ep	-10.4794
▁optimale	-10.4797
▁Detail	-10.4798
▁übrigens	-10.4798
▁mitten	-10.4802
▁verbinden	-10.4802
▁Hostels	-10.4808
▁wiederholen	-10.4812
bl	-10.4816
▁langfristige	-10.482
▁13.	-10.4821
pass	-10.4822
▁beschäftigen	-10.4824
Sollten	-10.4829
All	-10.483
▁Deutsch	-10.4832
▁nunmehr	-10.4834
▁Zwecke	-10.4837
▁Verhandlungs	-10.484
▁Schiffe	-10.484
▁6.	-10.4841
halten	-10.4842
▁Vorhaben	-10.4847
▁errichtet	-10.4855
last	-10.4861
▁Auge	-10.4865
linie	-10.4866
▁1995	-10.4867
▁einheitlichen	-10.4871
▁Komponenten	-10.4875
▁integriert	-10.4878
▁Übertragung	-10.4879
▁Tür	-10.488
ku	-10.4888
▁manche	-10.4891
▁Sorgen	-10.4891
▁auftreten	-10.4891
▁Gefahren	-10.4902
▁Boot	-10.4904
▁Marktes	-10.4915
▁jenen	-10.4918
▁Gu	-10.4918
▁Respekt	-10.4926
▁direkte	-10.4929
▁betreffend	-10.4931
▁dürfte	-10.4941
▁Gleichstellung	-10.4942
▁my	-10.4943
▁Besorgnis	-10.4944
haltung	-10.4954
▁Termin	-10.4954
hu	-10.4958
▁vorstellen	-10.4958
ai	-10.4959
kurs	-10.4959
▁Wohlstand	-10.4959
teile	-10.4961
▁bezahlt	-10.4965
▁Ausmaß	-10.4967
▁Verbindungen	-10.497
▁Führer	-10.4972
▁rechtlichen	-10.4978
tik	-10.4979
▁Mrd	-10.498
▁Revolution	-10.4981
von	-10.4985
▁aktive	-10.4988
by	-10.4996
shilfe	-10.5
ero	-10.5004
▁Steuerung	-10.5004
▁reduzieren	-10.5006
ras	-10.5008
▁führende	-10.501
ori	-10.5011
▁Group	-10.5014
▁Vorsitz	-10.5014
karten	-10.5015
▁Poker	-10.5021
▁Mini	-10.5027
OR	-10.5028
▁modern	-10.503
sprogramm	-10.5031
▁erhielt	-10.5034
▁direkten	-10.5037
▁pa	-10.5038
▁Bis	-10.504
▁Wi	-10.5047
▁IP	-10.5048
▁Gut	-10.5048
ps	-10.5048
▁verstärken	-10.5049
▁verkaufen	-10.505
▁aussprechen	-10.505
▁Gegenstand	-10.5052
▁letztendlich	-10.5055
▁Bemerkung	-10.5057
▁12.	-10.5062
▁Frankfurt	-10.5066
▁Darstellung	-10.5066
▁Speicher	-10.5067
▁Bedrohung	-10.5074
ez	-10.5075
▁jener	-10.5075
▁Bereitstellung	-10.5076
▁zerstört	-10.5087
90	-10.5091
▁Projekten	-10.5091
▁Befugnisse	-10.5092
geschäft	-10.5093
▁spezifische	-10.5096
▁Erfüllung	-10.5098
▁Real	-10.5105
▁Ausflüge	-10.5106
▁Verlauf	-10.5112
Sp	-10.5118
▁Einkommen	-10.5119
▁entspannen	-10.5121
▁gefährdet	-10.5124
our	-10.5127
▁genannte	-10.5128
▁ISO	-10.5134
geht	-10.5136
▁Lieferung	-10.514
▁schlägt	-10.5145
mb	-10.5152
▁vorhandenen	-10.5152
▁wirksame	-10.5153
▁stehenden	-10.5157
▁st	-10.5157
ph	-10.5158
▁angewandt	-10.5159
era	-10.516
▁begrenzt	-10.5165
▁individuellen	-10.5166
▁Berufs	-10.5168
▁komme	-10.517
▁rechtzeitig	-10.5171
zusammenarbeiten	-10.5172
spräsidentschaft	-10.518
▁Städten	-10.5181
og	-10.5183
pen	-10.5192
▁ma	-10.5194
▁Innen	-10.5195
car	-10.5195
▁Gesellschaften	-10.5204
▁zuständig	-10.5207
beschreibung	-10.5208
▁Spaß	-10.5208
Ihr	-10.5208
▁ursprünglich	-10.5209
▁Charta	-10.5211
▁dargestellt	-10.5213
▁Versammlung	-10.5216
▁Ist	-10.5217
Du	-10.5219
Jeder	-10.522
=	-10.5222
▁Verletzung	-10.5222
ante	-10.5225
▁äußern	-10.5225
▁Amt	-10.5229
▁Freunden	-10.5229
▁bestimmter	-10.523
▁Brief	-10.5232
▁Mitgliedschaft	-10.5234
▁Eigentum	-10.5236
▁Mi	-10.5237
abkommen	-10.524
krieg	-10.5242
▁32	-10.5243
▁Einwohner	-10.5244
reisen	-10.5252
▁Hof	-10.5253
▁nahm	-10.5255
▁angegebenen	-10.526
▁Tochter	-10.5261
35	-10.5263
▁Metall	-10.5264
▁russischen	-10.5265
This	-10.5265
▁palästinensisch	-10.527
▁empfohlen	-10.5277
▁Männern	-10.5283
Ebenso	-10.5284
eb	-10.5285
problem	-10.5294
▁Mon	-10.5295
▁vermitteln	-10.5299
▁Alpen	-10.5299
▁Traum	-10.5301
▁Sektoren	-10.5307
SA	-10.5309
):	-10.531
▁Wandel	-10.5312
▁beigetragen	-10.5314
▁Autor	-10.5317
▁Kar	-10.5323
▁Support	-10.5324
▁empfangen	-10.5325
▁Optionen	-10.5329
ziel	-10.5339
format	-10.5348
▁Websites	-10.5348
▁Untersuchungen	-10.5349
▁Abkommens	-10.5349
RE	-10.535
▁individuell	-10.5352
fu	-10.5357
▁überprüft	-10.5363
▁Flugzeug	-10.5366
IN	-10.5367
▁parlamentarisch	-10.5368
▁Erstellung	-10.537
▁Mission	-10.5372
hält	-10.5375
ding	-10.5377
oli	-10.5377
cu	-10.5378
▁Freitag	-10.5379
▁Mitarbeitern	-10.538
test	-10.5393
▁Drei	-10.5397
▁kamen	-10.5399
▁eingehalten	-10.5404
frei	-10.5405
▁Lehrer	-10.5405
▁Kur	-10.5406
▁Redner	-10.5408
▁Ku	-10.541
▁letzter	-10.5412
▁beteiligen	-10.5413
▁stammen	-10.5415
▁gearbeitet	-10.5417
▁Te	-10.5418
▁langfristig	-10.542
hersteller	-10.5422
▁inklusive	-10.5423
han	-10.5424
▁Menü	-10.543
▁genügend	-10.543
▁Air	-10.5431
reise	-10.5432
▁Wissenschaftler	-10.5432
▁fuer	-10.5441
▁High	-10.5442
▁hinweg	-10.5442
▁Abhängigkeit	-10.5444
▁zukünftige	-10.5444
▁Nachricht	-10.5444
▁Beschäftigungs	-10.5451
▁freundlich	-10.5451
Sa	-10.5452
ska	-10.5453
09	-10.5458
svorschlag	-10.5458
▁last	-10.5465
▁angegeben	-10.5468
▁Pan	-10.547
▁Heimat	-10.5471
▁ausgezeichnet	-10.5474
▁Wa	-10.5482
▁perfekte	-10.5487
▁Gar	-10.5489
▁großem	-10.549
▁nachdrücklich	-10.5492
rück	-10.5493
▁beobachten	-10.5495
dienste	-10.5496
gibt	-10.55
▁effiziente	-10.5501
▁10.	-10.5501
▁Kurz	-10.5502
▁pour	-10.5502
▁Brasilien	-10.5503
way	-10.5504
ria	-10.5507
forschung	-10.5507
ET	-10.5508
ging	-10.5515
▁Parkplatz	-10.5516
▁Reduzierung	-10.5523
▁aktivieren	-10.5523
▁strategischen	-10.5523
wahl	-10.5528
▁Bush	-10.553
▁eingestellt	-10.5532
▁anzu	-10.5532
ola	-10.5534
▁Stoffe	-10.5537
▁bislang	-10.5538
▁wunderschönen	-10.5538
▁Vorschlags	-10.5539
▁gekennzeichnet	-10.554
▁sprach	-10.5548
Bahn	-10.5548
▁elektronischen	-10.5549
▁entscheidender	-10.5549
ban	-10.5551
▁Anstieg	-10.5552
Sehr	-10.5552
▁Kongress	-10.5554
▁verboten	-10.5555
▁45	-10.5556
99	-10.5558
▁Deutsche	-10.5559
▁1990	-10.5563
Server	-10.5564
weise	-10.5565
▁Best	-10.5567
▁militärische	-10.5567
ence	-10.5572
▁Staates	-10.5572
▁Stimmen	-10.5573
▁anbelangt	-10.5579
▁Glaubwürdigkeit	-10.5579
▁Wetter	-10.5581
ella	-10.5585
▁künftige	-10.5586
▁spezialisiert	-10.5588
▁Madrid	-10.5588
anten	-10.5589
▁ähnlich	-10.5591
▁ernsthaft	-10.5593
Vielen	-10.5594
tischen	-10.5601
▁Ga	-10.5601
▁Sozialdemokrat	-10.5601
▁Kontrollen	-10.5601
▁sozialer	-10.5603
ran	-10.5606
IS	-10.5606
▁eventuell	-10.5613
ziehen	-10.5619
oni	-10.5622
▁Beschlüsse	-10.5623
▁Fahr	-10.5623
▁Konsequenzen	-10.5629
▁Par	-10.5629
funktion	-10.563
▁Wieder	-10.563
Zunächst	-10.5631
▁has	-10.5632
▁Urteil	-10.5633
▁verbindet	-10.5633
burg	-10.5634
▁Bett	-10.5634
▁existiert	-10.5636
zahlen	-10.564
wettbewerbsfähig	-10.5642
▁entwickelte	-10.5645
▁einzigartigen	-10.5647
▁had	-10.5647
▁14.	-10.5653
▁Feuer	-10.5653
▁institutionelle	-10.5653
▁Santa	-10.5656
sicht	-10.5657
Projekt	-10.5658
▁Schulen	-10.5664
▁http	-10.5668
▁8.	-10.5669
amt	-10.5671
sam	-10.5675
▁erfolgreichen	-10.5676
▁AKP	-10.5676
▁elegante	-10.568
▁allzu	-10.5684
▁gestattet	-10.5685
akt	-10.5687
▁Brand	-10.5688
▁PHP	-10.5691
▁Zusatz	-10.5691
▁Satelliten	-10.5692
▁Schüler	-10.5692
▁Käufer	-10.5695
▁Erinnerung	-10.5696
▁Email	-10.5704
Ziel	-10.5704
Service	-10.5709
▁beantworten	-10.5711
▁Donnerstag	-10.5714
▁verteidigen	-10.5714
▁schicken	-10.5714
▁Überlegungen	-10.5716
▁strategische	-10.5719
nom	-10.572
▁Entspannung	-10.5723
▁400	-10.5723
▁Politiken	-10.5724
▁Resort	-10.5725
▁Natürlich	-10.5727
▁gewissen	-10.5728
▁Sohn	-10.573
▁John	-10.573
▁erkannt	-10.5731
tritt	-10.5741
▁Wochenende	-10.5743
▁weist	-10.5745
▁mittleren	-10.5748
▁Parameter	-10.575
rn	-10.575
tet	-10.5752
ji	-10.5752
länder	-10.5754
▁Problems	-10.5756
strategie	-10.5756
▁una	-10.5758
pol	-10.5762
station	-10.5763
▁besucht	-10.5766
▁Gang	-10.5767
eln	-10.5771
ord	-10.5773
▁Preisen	-10.5776
alen	-10.5779
▁Kollegin	-10.578
▁klaren	-10.578
▁Armee	-10.578
-/	-10.5783
treffen	-10.5784
▁Spezial	-10.5786
ure	-10.5787
▁Belgien	-10.5793
▁Anlass	-10.5798
▁Wiederaufbau	-10.5798
▁Gesetzes	-10.5805
▁Chi	-10.5808
▁praktische	-10.5813
laufen	-10.5818
eg	-10.5821
▁Si	-10.5825
▁Potenzial	-10.5826
▁untersucht	-10.583
ary	-10.5832
▁Widerspruch	-10.5835
▁Reinigung	-10.5835
jahr	-10.5837
▁wohnen	-10.5839
schein	-10.5841
▁min	-10.5842
▁leichter	-10.5847
▁Grenz	-10.585
hen	-10.585
sehen	-10.5852
▁Min	-10.5854
▁inmitten	-10.5855
▁höchst	-10.5859
▁Augenblick	-10.5859
IP	-10.586
tru	-10.5861
▁offiziellen	-10.5861
ika	-10.5863
▁Zeitung	-10.5864
dorf	-10.5865
▁Martin	-10.5867
ng	-10.5868
▁sichere	-10.5868
▁Verteilung	-10.5869
▁Veränderung	-10.5872
▁unabhängige	-10.5872
▁26	-10.5877
▁vorzulegen	-10.5883
%	-10.5884
▁Station	-10.5889
▁tra	-10.5891
▁Kandidaten	-10.5892
▁vous	-10.5892
▁Zucker	-10.5901
▁betreiben	-10.5901
▁investieren	-10.5908
▁Pu	-10.591
▁Herkunft	-10.5921
▁berichtet	-10.5922
▁Apartment	-10.5924
dienstleistungen	-10.594
▁einzusetzen	-10.5943
▁renoviert	-10.5943
ral	-10.5946
▁Saison	-10.5947
▁Zudem	-10.5948
TE	-10.5952
▁up	-10.5957
▁bar	-10.5962
▁konkret	-10.5965
▁Marke	-10.5966
▁Gerechtigkeit	-10.5967
bei	-10.5967
Version	-10.5974
▁gemütliche	-10.5978
▁Direkt	-10.5979
▁28	-10.5987
Beifall	-10.599
▁erstmals	-10.5991
▁gelingt	-10.5997
Ferner	-10.6
▁Bars	-10.6
transport	-10.6007
▁Grünen	-10.6012
▁Handy	-10.6012
▁Kontakte	-10.6014
▁Gehminuten	-10.6014
▁Trans	-10.6014
▁Sterne	-10.6017
▁vorgestellt	-10.6018
ec	-10.6022
▁mussten	-10.6024
staaten	-10.6025
are	-10.6035
▁Praktiken	-10.6036
▁erwähnen	-10.6036
▁Van	-10.6037
▁unterscheiden	-10.6038
▁one	-10.6038
▁Krisen	-10.6038
▁Erlebnis	-10.6039
▁breakfast	-10.6041
▁breiten	-10.6041
▁ersetzen	-10.6045
▁Konzert	-10.6047
▁Reich	-10.6049
▁ländliche	-10.6052
▁stärkere	-10.6053
▁bekommt	-10.6056
▁Mängel	-10.6059
▁Katastrophe	-10.606
▁aufgebaut	-10.606
ura	-10.6061
▁Katalog	-10.6062
▁betrieben	-10.6063
Software	-10.6066
▁Ablehnung	-10.6074
▁Allianz	-10.6074
lösungen	-10.6076
partei	-10.608
nden	-10.6085
▁versichern	-10.6086
▁Luxus	-10.6086
werte	-10.609
▁hierbei	-10.609
ellen	-10.609
▁Einkaufs	-10.6091
jährige	-10.6091
seiten	-10.6091
steht	-10.6093
▁Gerät	-10.6097
▁staatliche	-10.6098
ies	-10.6102
▁Fahrzeuge	-10.6103
▁Einstellungen	-10.6105
▁Regen	-10.6108
▁Schl	-10.6109
▁Paul	-10.611
▁interessant	-10.6112
▁Sonntag	-10.6117
ill	-10.6118
▁Spitzen	-10.6122
▁Ruf	-10.6123
▁Quellen	-10.6124
ther	-10.6129
▁hervorgehoben	-10.6131
▁unterstreichen	-10.6134
Zimmer	-10.6136
▁tritt	-10.6136
▁Reservierung	-10.6137
▁2011	-10.6138
▁go	-10.614
▁begleitet	-10.6143
rang	-10.6144
▁einbezogen	-10.6144
betrieb	-10.6146
▁zukünftigen	-10.6147
▁Rand	-10.615
▁Vorausschau	-10.6152
▁umfassend	-10.6156
reg	-10.6157
▁It	-10.6158
dig	-10.6158
▁bed	-10.6159
▁Schweizer	-10.616
▁Via	-10.6161
▁behaupten	-10.6164
▁umfangreiche	-10.6165
▁Seine	-10.6166
▁unterliegen	-10.6169
box	-10.617
▁Massen	-10.6172
▁Heizung	-10.6173
▁herum	-10.6175
▁Vielen	-10.6178
▁enorme	-10.6178
▁deswegen	-10.6181
▁fördert	-10.6182
Je	-10.6183
▁Wer	-10.6183
▁Positionen	-10.6186
macht	-10.6192
▁Prozesse	-10.6195
▁Luxemburg	-10.6195
▁konfrontiert	-10.6197
▁kleines	-10.6202
▁illegalen	-10.6207
▁(19	-10.6211
▁richtet	-10.6212
▁Ben	-10.6212
ement	-10.6213
ges	-10.6214
▁kontaktieren	-10.6215
steigen	-10.6217
sausschusses	-10.622
▁une	-10.622
ati	-10.6221
ona	-10.6224
ssysteme	-10.6228
typ	-10.6229
▁aufzu	-10.623
Frühstücksbuffet	-10.623
▁Frist	-10.6231
bett	-10.6236
▁gefallen	-10.6239
IA	-10.6241
▁machte	-10.6247
▁EADS	-10.6248
▁Programmen	-10.6249
▁getragen	-10.6253
▁könnt	-10.6257
▁Volkswirtschaft	-10.6261
▁Peter	-10.6262
▁Ansichten	-10.6262
▁Planeten	-10.6265
▁Plattform	-10.6268
▁Rund	-10.6269
team	-10.627
▁Zielen	-10.6271
situation	-10.6271
unt	-10.6272
▁Hilfs	-10.6272
▁Länge	-10.6279
Mo	-10.6281
▁Herbst	-10.6285
▁Öffnung	-10.6291
▁mitteilen	-10.6292
▁rooms	-10.6293
▁solches	-10.6294
▁spät	-10.6295
sätze	-10.6298
▁ähnliche	-10.6301
tri	-10.6302
ack	-10.6302
▁Wissens	-10.6304
▁Klasse	-10.6308
▁geraten	-10.6308
▁entdeckt	-10.631
jo	-10.6312
▁Eingang	-10.6317
ball	-10.6318
▁Haushaltsplan	-10.632
▁anti	-10.6321
▁optimal	-10.6322
mäßig	-10.6323
▁angebracht	-10.6324
▁erhoben	-10.6325
▁Ze	-10.6326
richtlinie	-10.6327
▁abstimmen	-10.6329
▁professionelle	-10.6333
▁Freizügigkeit	-10.6334
▁kombiniert	-10.6337
▁korrekt	-10.6339
▁Perspektive	-10.634
▁Kanada	-10.6341
Wo	-10.6342
for	-10.6345
▁selten	-10.6347
▁anschließen	-10.6349
ologie	-10.6354
red	-10.6355
▁Fußball	-10.6361
www	-10.6361
▁stellte	-10.6364
▁Montag	-10.6364
▁bisherigen	-10.6366
▁Passwort	-10.6368
bt	-10.6368
▁erfreut	-10.637
▁Finanzkrise	-10.6372
▁Kriminalität	-10.6377
▁geregelt	-10.6377
▁out	-10.6378
▁Ebenen	-10.6379
bank	-10.6383
▁which	-10.6383
ön	-10.6385
lass	-10.6387
politische	-10.6387
▁Media	-10.6388
▁Maria	-10.6389
▁Rückkehr	-10.6389
▁Inn	-10.6392
▁geeignete	-10.64
Seine	-10.64
▁Stiftung	-10.6402
▁Freund	-10.6405
Finde	-10.6405
▁vorgesehenen	-10.6409
▁angewendet	-10.6414
▁Nachbarschaft	-10.6417
▁überein	-10.6418
▁lieber	-10.642
Vielleicht	-10.642
▁Pakistan	-10.642
sprache	-10.6421
CD	-10.6424
▁Besitz	-10.6427
of	-10.6429
▁German	-10.643
▁las	-10.643
▁neun	-10.6434
▁vorliegende	-10.6434
▁kostenlose	-10.6436
fläche	-10.6437
▁Dem	-10.6439
▁eingegangen	-10.644
▁Regional	-10.6442
▁Za	-10.6443
▁Fe	-10.6444
▁Regierungs	-10.6447
▁stammt	-10.6448
▁Tätigkeiten	-10.645
Dank	-10.6452
▁Weiteren	-10.6457
▁verfügbaren	-10.6457
▁zugrunde	-10.6458
Ä	-10.6461
▁eingeleitet	-10.6464
ual	-10.6466
▁Abschaffung	-10.647
▁vorgeschlagene	-10.6471
-1	-10.6471
▁kontrollieren	-10.6472
Me	-10.6479
▁9.	-10.6484
▁herunterladen	-10.6485
▁erteilt	-10.6488
▁ergibt	-10.6488
Staaten	-10.6489
▁Bestimmung	-10.6492
▁geplant	-10.6492
▁dankbar	-10.6496
▁Widerstand	-10.6499
▁Kabel	-10.65
häuser	-10.6501
haft	-10.6502
▁Bereitschaft	-10.6507
▁Erst	-10.6509
▁Entfernung	-10.651
▁personenbezogen	-10.651
▁Manager	-10.6511
▁Bauern	-10.6511
SP	-10.6514
▁teile	-10.6514
▁Mor	-10.6518
▁Vereinfachung	-10.6519
AL	-10.6522
▁Know	-10.6524
urlaub	-10.6525
▁Fahrer	-10.6528
▁Existenz	-10.6531
tz	-10.6536
mission	-10.6536
▁behoben	-10.6541
für	-10.6547
▁aktualisiert	-10.6547
raten	-10.6549
schl	-10.6558
▁ergänzt	-10.656
cal	-10.6562
▁Volkes	-10.6562
▁festzulegen	-10.657
▁Energien	-10.657
▁Mikro	-10.6571
krise	-10.6572
▁Volksgesundheit	-10.6572
▁anzuzeigen	-10.6575
▁gefragt	-10.6576
▁Hindernisse	-10.6577
▁wirkt	-10.6579
▁Sachen	-10.658
▁My	-10.6582
▁Konzern	-10.6583
Ro	-10.6585
schiff	-10.6588
▁Mode	-10.6592
▁car	-10.6592
Mein	-10.6594
▁EZB	-10.6594
▁Stärke	-10.6602
▁Leiter	-10.6603
pre	-10.6605
Mitgliedstaaten	-10.6605
▁anhand	-10.6609
acht	-10.6609
gra	-10.6611
▁internen	-10.6611
▁WLAN	-10.6618
▁komplette	-10.6618
▁Konflikte	-10.6618
▁Chinas	-10.6619
▁sogenannten	-10.6621
▁schlagen	-10.6623
▁Betten	-10.6623
▁Bas	-10.6624
▁Balkan	-10.6627
▁Hardware	-10.6628
gestellt	-10.6629
▁größeres	-10.663
Dem	-10.663
how	-10.6632
zweck	-10.6636
▁Pflege	-10.6636
▁Regierungschefs	-10.6637
▁Abendessen	-10.6642
▁Erstens	-10.6642
▁Schatten	-10.6645
▁Dokumentation	-10.6646
▁militärischen	-10.6651
▁läßt	-10.6653
▁Pläne	-10.6653
▁präsentieren	-10.6655
▁Dritten	-10.6655
▁lag	-10.666
ita	-10.6663
▁gebeten	-10.6663
▁besonderer	-10.6665
szeit	-10.6665
▁Newsletter	-10.6666
▁Großteil	-10.6668
▁Katastrophen	-10.6668
▁Budget	-10.6669
planung	-10.6671
▁House	-10.6671
▁dans	-10.6671
▁Nachbarn	-10.6672
▁Förder	-10.6672
▁Ger	-10.6674
Se	-10.6676
*	-10.6678
▁Parkplätze	-10.6679
▁gestärkt	-10.6686
▁Suiten	-10.6689
▁humanitäre	-10.6697
▁Erhaltung	-10.6698
▁England	-10.6699
ations	-10.6701
grad	-10.6701
ius	-10.6702
▁verdienen	-10.6705
▁hingegen	-10.6706
▁Show	-10.6707
▁beabsichtigt	-10.6711
▁froh	-10.6711
fallen	-10.6712
▁eignet	-10.6714
▁Barroso	-10.6721
▁gewähren	-10.6721
▁Verkaufs	-10.6724
▁angekündigt	-10.6727
Al	-10.673
▁Mandat	-10.6735
▁Hi	-10.6735
▁jetzigen	-10.6735
▁Ste	-10.6737
▁sucht	-10.6741
▁Zuge	-10.6742
▁momentan	-10.6743
▁befasst	-10.6746
▁Organ	-10.6747
sausschuss	-10.6751
sfreiheit	-10.6753
▁Eurozone	-10.6753
▁est	-10.6754
zeiten	-10.6755
▁hilfreich	-10.6756
▁effektive	-10.6756
tätigkeit	-10.6761
▁Gemeinsame	-10.6764
mmer	-10.677
▁Bra	-10.677
▁einheitliche	-10.6772
gesellschaftlich	-10.6774
LO	-10.6775
▁Vo	-10.6775
▁Dokumenten	-10.6776
18	-10.6782
laden	-10.6786
▁Häuser	-10.6787
▁ehrlich	-10.6798
▁Übergang	-10.6806
ara	-10.681
▁Wärme	-10.6812
▁scheinen	-10.6815
▁Premierminister	-10.6816
▁Ratifizierung	-10.6825
▁zieht	-10.6829
▁Beteiligten	-10.683
▁Tu	-10.6837
▁Nachhaltigkeit	-10.6839
top	-10.6841
wende	-10.6845
▁formuliert	-10.6845
ax	-10.6846
reform	-10.685
▁Unternehmer	-10.6851
▁Medizin	-10.6851
ST	-10.6852
▁Filter	-10.6854
▁Empfang	-10.6855
▁Album	-10.6855
▁ho	-10.6856
▁natürliche	-10.6857
▁Binnenmarktes	-10.686
▁Gegner	-10.6861
vis	-10.6862
▁Vorlage	-10.6864
▁beschränken	-10.6865
▁Front	-10.6866
▁Kulturen	-10.6867
garten	-10.6869
ans	-10.6869
ink	-10.687
▁Zusammen	-10.687
▁Straßburg	-10.6871
98	-10.6872
serv	-10.6873
07	-10.6875
▁Power	-10.6877
▁Faktor	-10.6877
▁Street	-10.6882
▁zurückzuführen	-10.6883
▁besorgt	-10.6884
▁hervorragenden	-10.6884
▁Ausrüstung	-10.6888
▁verletzt	-10.689
ht	-10.6896
▁Miet	-10.6897
▁PDF	-10.6902
▁erarbeitet	-10.6906
▁Vom	-10.6907
name	-10.6908
ete	-10.6908
▁Schlacht	-10.6909
▁Pakete	-10.691
▁teil	-10.6911
▁hohem	-10.6911
▁Flüchtlinge	-10.6913
dor	-10.6915
ank	-10.6916
▁Betreiber	-10.692
▁außen	-10.6923
stück	-10.6924
▁Kriegs	-10.6929
lig	-10.6931
gerät	-10.6932
blick	-10.6936
▁Aktionsplan	-10.6939
▁Wild	-10.694
▁Hamburg	-10.694
▁kosten	-10.6945
▁mehrfach	-10.6948
lat	-10.6954
▁Märkten	-10.6957
▁Nummer	-10.6957
ala	-10.6961
▁effizient	-10.6961
▁"19	-10.6962
▁gewünschten	-10.6963
ries	-10.6967
app	-10.6968
teilen	-10.6969
film	-10.6971
▁Ju	-10.6974
▁abschließend	-10.6975
▁hart	-10.6976
sitz	-10.698
reich	-10.6982
ruf	-10.6985
ata	-10.6985
▁Zentral	-10.6986
hl	-10.6986
▁Ursachen	-10.6988
Drittens	-10.6991
▁Schuld	-10.6991
▁clean	-10.6991
▁Weltkrieg	-10.6994
▁berühmte	-10.6996
▁bedanken	-10.6997
▁Organe	-10.7
▁Versorgung	-10.7002
▁Berge	-10.7003
fern	-10.7004
code	-10.7006
▁Bildschirm	-10.7006
▁externen	-10.7007
▁rechten	-10.7016
▁Euch	-10.7017
▁Ti	-10.7018
▁Lehr	-10.702
▁nutzt	-10.7022
▁Gottes	-10.7025
fang	-10.7027
nach	-10.703
▁Innenstadt	-10.7031
▁rechtliche	-10.7033
▁Muster	-10.7034
führen	-10.7035
▁1994	-10.7036
▁Ur	-10.7037
▁Rechner	-10.7038
kla	-10.7038
▁Modul	-10.7039
▁genauer	-10.7042
▁Videos	-10.7049
▁Abfall	-10.7052
▁Au	-10.7052
▁unentgeltlich	-10.7054
▁vereint	-10.7055
▁Benutzung	-10.7059
wald	-10.706
▁schlechte	-10.7063
▁speichern	-10.7064
pu	-10.7064
▁Wähler	-10.7067
▁Hohe	-10.7069
▁unbe	-10.7074
▁konsequent	-10.7077
▁wonach	-10.708
▁unabhängigen	-10.7082
▁plus	-10.7083
▁Erzeuger	-10.7084
ß	-10.7084
▁generell	-10.7091
kunst	-10.7092
▁halb	-10.7092
▁enthaltenen	-10.7092
DI	-10.7092
▁hast	-10.7098
▁Tabak	-10.7101
▁reagiert	-10.7103
▁Lauf	-10.7105
▁erweitern	-10.7106
▁hundert	-10.7108
▁überaus	-10.7109
▁Objekt	-10.7109
▁time	-10.7113
▁ergänzen	-10.7117
▁hoffentlich	-10.712
avi	-10.712
▁Bezeichnung	-10.7124
▁Anmeldung	-10.7125
▁Prag	-10.7126
▁IN	-10.7128
▁nieder	-10.7128
▁umsetzen	-10.7129
▁verwende	-10.7135
▁eingeschränkt	-10.7136
45	-10.714
ID	-10.7141
▁Allerdings	-10.7141
▁Free	-10.7142
Ar	-10.7145
▁ließ	-10.7145
▁Digital	-10.7145
▁einzuführen	-10.7145
▁Zahlungs	-10.7149
▁Situationen	-10.715
▁Festival	-10.7152
ama	-10.7154
▁ta	-10.7154
▁sozial	-10.716
lang	-10.7161
Bar	-10.7164
▁ko	-10.7166
PC	-10.7166
▁Entwickler	-10.7167
▁Ob	-10.7167
▁Generationen	-10.7168
▁Himmel	-10.7169
tsch	-10.7172
▁wahren	-10.7172
▁schwierige	-10.7174
▁Ägypten	-10.7175
▁Serbien	-10.7176
▁USB	-10.718
ett	-10.7181
▁Bestätigung	-10.7183
▁Michael	-10.7183
▁Grundlagen	-10.7188
▁Eigen	-10.7192
lager	-10.7195
DA	-10.7196
▁Wechsel	-10.7197
▁Dritte	-10.7198
▁ausgewählt	-10.7198
▁Reisen	-10.72
▁normalerweise	-10.7203
▁Kreditkarte	-10.7204
▁Vorstand	-10.7205
▁antworten	-10.7207
▁Datum	-10.7207
bra	-10.7207
▁post	-10.7209
▁verringert	-10.7209
▁Modernisierung	-10.721
höhe	-10.7212
▁wünsche	-10.7212
01	-10.7214
jährigen	-10.7215
▁aktuell	-10.7219
▁zeichnet	-10.7219
▁stattfindet	-10.7223
branche	-10.7225
▁Publikum	-10.7226
▁Betreuung	-10.723
▁Bu	-10.7233
▁wunderschöne	-10.7233
Trotz	-10.7238
▁erfordern	-10.7239
▁por	-10.7241
▁geehrte	-10.7242
▁hierfür	-10.7244
grund	-10.7247
▁bewältigen	-10.7253
▁chinesische	-10.7253
▁laufenden	-10.7263
▁festgelegten	-10.7264
mark	-10.7266
▁Inflation	-10.727
van	-10.727
SE	-10.7272
▁3-	-10.7273
lau	-10.7276
06	-10.7278
ff	-10.7279
▁italienische	-10.7279
▁Modelle	-10.7284
▁mittel	-10.7291
▁Maschine	-10.7292
▁vornehmen	-10.7292
▁behauptet	-10.7293
tenden	-10.7293
schw	-10.7296
smittel	-10.7299
▁Museen	-10.7301
▁ad	-10.7301
wege	-10.7311
beauftragten	-10.7311
▁zugelassen	-10.7312
▁Konstruktion	-10.732
▁sichergestellt	-10.7322
▁Ausblick	-10.7326
weisen	-10.7328
▁rufen	-10.7329
▁bedroht	-10.733
▁begründet	-10.7334
▁Tausende	-10.7335
rechts	-10.7336
bas	-10.734
▁enger	-10.734
lle	-10.734
▁heißen	-10.7347
▁Wartung	-10.7348
▁vieles	-10.735
▁voran	-10.7352
▁Versionen	-10.7353
▁integrierte	-10.7355
fen	-10.7356
▁Transfer	-10.7356
Des	-10.7356
▁bauen	-10.7361
▁Referenz	-10.7361
zone	-10.7366
tlich	-10.7369
▁Col	-10.7372
▁Sound	-10.7375
stell	-10.7376
set	-10.7378
▁Phänomen	-10.7381
▁Überblick	-10.7382
▁offenbar	-10.7383
ld	-10.7384
MA	-10.7386
leitung	-10.7389
▁ruhige	-10.739
▁offizielle	-10.739
▁Währungsunion	-10.7395
▁derzeitige	-10.7397
▁mittlerweile	-10.7398
▁überwinden	-10.7399
gebieten	-10.7403
nummer	-10.7406
iere	-10.7408
ast	-10.7409
▁gedacht	-10.7413
schi	-10.7415
▁Umsatz	-10.7416
▁Revision	-10.7416
▁berechnet	-10.742
LT	-10.742
▁Weiter	-10.7422
lar	-10.7422
IC	-10.7423
▁Mexiko	-10.7424
▁Last	-10.7425
met	-10.7425
▁grossen	-10.7425
Wirtschaftskrise	-10.7426
▁Kaiser	-10.7426
▁Branchen	-10.7426
swert	-10.7429
▁spanische	-10.7431
une	-10.7432
tr	-10.7433
▁selben	-10.7433
Gruppe	-10.7435
▁normalen	-10.7436
lei	-10.7443
spräsident	-10.7446
▁modified	-10.7446
▁Belarus	-10.7446
▁Kopenhagen	-10.745
▁Dom	-10.745
▁Niederlanden	-10.7452
fähigkeit	-10.7455
int	-10.7456
▁selber	-10.7458
AP	-10.7465
▁überlassen	-10.7466
▁bekannte	-10.7466
▁hand	-10.7469
▁Urlaubs	-10.7475
▁produzieren	-10.7475
▁Kreis	-10.7476
ham	-10.7479
aktivitäten	-10.748
▁Satz	-10.7482
Energieeffizienz	-10.7483
▁Speisen	-10.7483
▁bewegt	-10.7484
ob	-10.7485
Vi	-10.7493
▁Fernsehen	-10.7495
▁türkischen	-10.7498
▁frühen	-10.7499
▁Branche	-10.75
64	-10.7501
▁Zahlungen	-10.7501
▁Ausbau	-10.7502
▁Terror	-10.7508
4-	-10.7521
000	-10.7522
▁Lateinamerika	-10.7529
▁Ci	-10.7533
▁Lernen	-10.7534
ning	-10.7536
▁Argument	-10.7536
▁Persönlichkeit	-10.7539
▁Todesstrafe	-10.7539
▁klassischen	-10.754
▁Spar	-10.7544
räumen	-10.7546
geschichte	-10.7546
04	-10.7549
▁Ve	-10.7553
▁Beseitigung	-10.7556
▁verständlich	-10.7557
▁Sol	-10.7557
▁gesetzlichen	-10.7561
modell	-10.7562
gemeinschaftlich	-10.7562
skosten	-10.7564
▁Orte	-10.7565
▁Jahrzehnten	-10.7565
▁früh	-10.7566
▁Wesentlichen	-10.7566
kra	-10.7567
▁bestellen	-10.7568
▁Arbeitgeber	-10.7569
▁untersuchen	-10.7569
▁gegenwärtige	-10.757
museum	-10.7572
▁beenden	-10.7573
ili	-10.7574
▁Übrigen	-10.7577
▁Zusammenhalt	-10.7577
▁unmittelbarer	-10.758
▁mo	-10.759
▁leiten	-10.7592
▁erzeugen	-10.7594
▁Finnland	-10.7595
▁Händler	-10.7596
Bereich	-10.7597
itz	-10.7601
SC	-10.7601
()	-10.7601
ef	-10.7602
pt	-10.7603
san	-10.7605
Andererseits	-10.7605
sstrategie	-10.7605
▁bereitet	-10.7607
▁avec	-10.7608
▁diesbezüglich	-10.7611
▁spreche	-10.7611
als	-10.7612
gas	-10.7613
eine	-10.7613
FI	-10.7613
▁keinem	-10.7615
▁Arbeiter	-10.7617
pack	-10.7619
termin	-10.7619
▁Debatten	-10.7621
▁Kategorien	-10.7624
▁Prüf	-10.7624
var	-10.7626
▁verweisen	-10.7628
act	-10.763
Mar	-10.7631
gu	-10.7631
pl	-10.7632
▁gleichermaßen	-10.7633
wi	-10.7634
Li	-10.7634
▁Hauptbahnhof	-10.7636
▁For	-10.7638
▁Lohn	-10.7642
Aufgrund	-10.7642
grenzen	-10.7643
▁Effekt	-10.7644
▁Bildungs	-10.7645
▁hierzu	-10.7647
kar	-10.7658
▁lebt	-10.766
mus	-10.7661
▁Samstag	-10.7664
▁Schwarz	-10.7665
▁Temperatur	-10.7665
▁illegale	-10.7669
Benutzer	-10.7671
▁anzubieten	-10.7671
▁Tauch	-10.7672
ille	-10.7672
ces	-10.7673
2000	-10.7673
▁via	-10.7678
▁gesichert	-10.7679
▁herrlichen	-10.7679
▁.....	-10.7684
▁erklärte	-10.7684
▁Jetzt	-10.769
▁dis	-10.7693
auch	-10.7694
▁frage	-10.7695
▁Investoren	-10.7696
▁Senkung	-10.7699
▁Tonnen	-10.77
▁Visa	-10.7701
▁Schreiben	-10.7704
Tatsächlich	-10.7705
▁digitalen	-10.771
▁steigen	-10.771
Restaurant	-10.7712
▁Nun	-10.7716
▁griechischen	-10.7718
200	-10.772
lt	-10.772
▁zer	-10.7721
▁präzise	-10.7721
▁kon	-10.7723
▁auffordern	-10.7723
▁Ergänzung	-10.7724
▁fa	-10.7724
lor	-10.7727
schnitt	-10.7729
▁angeblich	-10.7731
▁PPE	-10.7732
▁Ball	-10.7735
gr	-10.7738
▁Richter	-10.7738
▁Berliner	-10.7739
▁Intervention	-10.774
▁Voll	-10.7743
08	-10.7744
▁il	-10.7746
▁Bücher	-10.7747
26	-10.7747
▁just	-10.7751
▁sah	-10.7752
▁Chr	-10.7753
▁Jung	-10.7755
▁aufbauen	-10.7755
▁Linien	-10.7758
▁Betriebssystem	-10.7759
▁digitale	-10.776
▁Flash	-10.7763
gan	-10.7764
▁30.	-10.7768
▁Los	-10.7775
▁Geburt	-10.7783
▁wirken	-10.7783
▁Quelle	-10.7786
▁zulassen	-10.7787
▁Bewusstsein	-10.7787
▁Bibliothek	-10.7793
rent	-10.7794
fo	-10.7794
kal	-10.7795
bu	-10.7795
chten	-10.7797
▁Renten	-10.7797
▁Sub	-10.7802
ish	-10.7805
Stunden	-10.7805
off	-10.7807
He	-10.7808
▁Drittel	-10.7809
▁Hol	-10.7813
▁denjenigen	-10.7816
▁Stock	-10.7819
▁super	-10.782
rand	-10.7827
ile	-10.7829
▁Sehr	-10.7832
▁kontinuierlich	-10.7832
▁Jugendlichen	-10.7833
▁freut	-10.7833
▁hinein	-10.7839
▁schweren	-10.7842
▁geliefert	-10.7844
Lo	-10.7846
ía	-10.7847
Ha	-10.785
ktor	-10.7856
SV	-10.7856
halt	-10.7857
▁Umweltfragen	-10.7859
▁Dingen	-10.7859
▁bestand	-10.7862
▁Atom	-10.7864
ative	-10.7865
▁Profil	-10.7866
▁Verein	-10.7868
▁eingebracht	-10.7868
с	-10.7869
▁Pension	-10.7872
▁getrennt	-10.7872
▁Cal	-10.7873
kette	-10.7874
▁Beim	-10.7877
rate	-10.7878
▁Auseinandersetz	-10.788
LE	-10.7882
▁Sieg	-10.7883
▁beinhalten	-10.7883
ré	-10.7884
▁integrierten	-10.7886
rie	-10.7886
▁Strecke	-10.7887
dal	-10.7887
▁Mail	-10.7887
▁Produktivität	-10.7891
▁ber	-10.7892
▁müsste	-10.7892
▁bedauerlich	-10.7893
tour	-10.7895
▁schätzen	-10.7895
▁Doppelzimmer	-10.7898
kunden	-10.7901
▁Panorama	-10.7901
▁Ke	-10.7905
▁Internationale	-10.7907
▁Hinweise	-10.7908
▁Vorgehensweise	-10.7908
konferenz	-10.7914
▁25.	-10.7916
▁Leider	-10.7919
▁elektronische	-10.7919
▁ba	-10.7921
oren	-10.7923
▁gewöhnlich	-10.7926
▁weltweite	-10.7928
▁Ablauf	-10.7929
▁Schicksal	-10.7933
▁there	-10.7937
▁tr	-10.7938
▁Betriebe	-10.794
▁Französisch	-10.794
stoffe	-10.7942
▁negativen	-10.7942
▁ehemalige	-10.7943
Bis	-10.7944
▁Beurteilung	-10.7944
Ent	-10.7946
▁erworben	-10.7948
iß	-10.7948
plätze	-10.7951
▁teilt	-10.7952
MS	-10.7953
▁Monte	-10.7954
▁Update	-10.7957
▁Mechanismen	-10.7958
stil	-10.7959
▁negative	-10.7959
sstaatlichkeit	-10.7959
iti	-10.796
▁festzustellen	-10.797
▁Bedürfnissen	-10.7972
▁senken	-10.7973
alität	-10.7976
har	-10.7978
▁mögen	-10.7982
leistungen	-10.7983
tieren	-10.7983
CS	-10.7988
verletzungen	-10.7989
▁Tool	-10.7989
▁Vertrages	-10.7991
▁Investitions	-10.7991
▁III	-10.7992
griff	-10.7993
▁enthalt	-10.7993
▁Verwirklichung	-10.7998
▁mangelnde	-10.7999
▁Beachtung	-10.8003
▁gelangt	-10.8003
▁Schnee	-10.8005
▁Finanzielle	-10.8006
▁anzunehmen	-10.801
Kohäsionspolitik	-10.8013
wand	-10.8016
▁Saint	-10.802
31	-10.8021
holz	-10.8026
Beim	-10.8027
zeug	-10.8027
rei	-10.8029
▁Anhörung	-10.8031
landschaft	-10.8033
ult	-10.8036
▁hervorragend	-10.8036
▁Zauber	-10.8038
▁Mehrwertsteuer	-10.8038
▁Eröffnung	-10.8039
▁brachte	-10.8048
nes	-10.8048
▁kümmern	-10.8049
fel	-10.805
hä	-10.8051
Fi	-10.8051
Sobald	-10.8052
press	-10.8053
▁Archiv	-10.8058
▁Güter	-10.8058
▁ansprechen	-10.8059
▁dauert	-10.8062
niveau	-10.8063
▁Kirchen	-10.8063
▁Tee	-10.8064
lie	-10.8065
▁Baby	-10.8069
▁Fläche	-10.8069
▁Mil	-10.8072
AC	-10.8073
▁Gelder	-10.8073
▁Mädchen	-10.8078
gekommen	-10.808
dar	-10.8084
▁Schengen	-10.8091
▁aktiviert	-10.8092
▁realer	-10.8093
▁egal	-10.8094
maschine	-10.8098
▁Beach	-10.8098
▁Würde	-10.8098
rum	-10.8102
5-	-10.8104
bericht	-10.8108
▁lo	-10.8111
▁Wirksamkeit	-10.8114
▁eigener	-10.8114
▁enge	-10.8116
ationen	-10.8118
▁Außenminister	-10.8118
sy	-10.8119
sentwurf	-10.8124
▁geringer	-10.8124
▁gewidmet	-10.8125
musik	-10.8129
▁Nachmittag	-10.8129
▁wert	-10.813
▁Neue	-10.8131
▁bedeutenden	-10.8131
ble	-10.8132
▁Verfahrens	-10.8132
falls	-10.8135
▁get	-10.8136
▁Versand	-10.8139
lassen	-10.8143
▁Rot	-10.8143
▁Errichtung	-10.815
▁Betracht	-10.815
▁""...	-10.815
▁Aussage	-10.8151
▁Fo	-10.8157
▁Argumente	-10.8162
▁Amerikaner	-10.8165
▁new	-10.8169
▁verantwortungs	-10.817
▁aufgestellt	-10.8173
▁zweitens	-10.8177
▁soeben	-10.8177
▁che	-10.8179
▁vertraut	-10.8181
▁Mitentscheidung	-10.8189
▁schnellen	-10.8199
▁beeinflussen	-10.8199
träger	-10.8199
gänge	-10.8199
▁Journalisten	-10.82
schreiben	-10.8209
▁Truppen	-10.8209
▁Kennzeichnung	-10.821
dateien	-10.8213
▁anzuwenden	-10.8214
str	-10.8214
▁ausgegeben	-10.8214
▁Übernahme	-10.8214
setzt	-10.8216
▁irischen	-10.8222
▁infolge	-10.8222
▁sicheren	-10.8228
▁realisiert	-10.8228
▁einstimmig	-10.8228
▁Arm	-10.8229
▁Ersatz	-10.823
versicherung	-10.823
▁Betrug	-10.8234
▁Jean	-10.8238
▁Kunststoff	-10.824
ration	-10.8242
essen	-10.8245
kor	-10.8245
ME	-10.8246
▁entscheidenden	-10.8246
▁Main	-10.8247
spiele	-10.8247
▁ausüben	-10.8247
▁Ansprüche	-10.8247
neu	-10.8248
▁jedenfalls	-10.8249
▁75	-10.8249
leg	-10.8249
▁gra	-10.8249
▁wachsenden	-10.8251
▁Konvention	-10.8257
▁Präsenz	-10.8259
▁Zuverlässigkeit	-10.8262
▁Vertretern	-10.8263
▁Leit	-10.8263
▁Theorie	-10.8267
▁glaubt	-10.8273
▁älteren	-10.8273
▁müssten	-10.8274
▁Ausarbeitung	-10.8277
▁Dadurch	-10.8282
nie	-10.8282
fl	-10.8285
flug	-10.8288
fonds	-10.8292
▁interne	-10.8294
bach	-10.8296
▁Luftfahrt	-10.8296
86	-10.8297
▁Minute	-10.8299
▁Bier	-10.8299
lesen	-10.8299
▁Fitness	-10.83
Ü	-10.83
ico	-10.83
tschaftswachstum	-10.8301
▁Souveränität	-10.8303
▁typischen	-10.8304
▁angemessenen	-10.8305
freundliche	-10.8309
▁Wohnzimmer	-10.8311
▁Oberfläche	-10.8313
▁Global	-10.8313
▁Can	-10.8315
▁Venedig	-10.8318
▁wesentlicher	-10.8321
Artikel	-10.8322
▁glücklich	-10.8322
▁cm	-10.8323
din	-10.8324
losen	-10.8327
vin	-10.8329
32	-10.8334
▁Obama	-10.8337
▁Card	-10.8337
kreis	-10.8337
▁User	-10.8337
▁On	-10.8338
trag	-10.8339
▁steigern	-10.834
▁Gebühren	-10.8342
▁komplexe	-10.8343
▁Liefer	-10.8343
sto	-10.8343
nu	-10.8346
▁31.	-10.8347
▁festlegen	-10.835
▁Aufzug	-10.8352
bedarf	-10.8355
▁praktischen	-10.8359
Kon	-10.8362
▁vermittelt	-10.8363
▁Player	-10.8363
▁Kann	-10.8365
KOM	-10.8365
det	-10.8367
▁Jeder	-10.837
▁Bewohner	-10.837
▁Konvent	-10.8371
▁Spezialitäten	-10.8374
▁einst	-10.8375
▁übermittelt	-10.8378
ani	-10.8379
▁oftmals	-10.8385
gesetzt	-10.8386
▁Strände	-10.8386
▁wertvolle	-10.8387
▁effizienter	-10.8388
▁Fassung	-10.8389
▁heran	-10.8389
▁Konzentration	-10.8389
▁Ergebnissen	-10.8389
▁Such	-10.839
▁vorzunehmen	-10.839
▁Dänemark	-10.8392
▁Airport	-10.8393
▁Zeitplan	-10.8395
▁ra	-10.8398
kan	-10.84
▁MP	-10.8401
▁wahre	-10.8401
▁maximal	-10.8408
▁us	-10.8411
▁gesammelt	-10.8411
upp	-10.8411
brechen	-10.8412
To	-10.8412
▁Che	-10.8412
▁Durchsetzung	-10.8413
▁Client	-10.8414
▁22.	-10.8416
▁Auflösung	-10.8417
dra	-10.8417
▁Ferienwohnung	-10.8418
▁Autos	-10.842
pel	-10.842
▁angenehm	-10.842
▁Ufer	-10.8423
▁humanitären	-10.8424
▁Philosophie	-10.8424
fahrer	-10.8426
denken	-10.8428
Technologie	-10.8429
▁abgegeben	-10.8431
▁Bade	-10.8433
▁einzelstaatlich	-10.8434
▁Rock	-10.8438
▁stelle	-10.8438
▁nice	-10.8439
▁weisen	-10.8442
▁EG	-10.8444
▁langfristigen	-10.8444
ova	-10.8447
▁Zi	-10.8448
▁falsche	-10.8449
▁reisen	-10.8451
▁Haar	-10.8456
▁schwere	-10.846
▁beantwortet	-10.846
sprozesses	-10.8461
▁Islam	-10.8462
▁längst	-10.8469
▁Tele	-10.8471
▁erwiesen	-10.8473
500	-10.8476
qu	-10.8477
▁ansehen	-10.8477
don	-10.8479
Bo	-10.8482
▁Dialogs	-10.8484
▁great	-10.8487
▁Robert	-10.8487
ij	-10.8488
kenn	-10.8488
▁Lieferanten	-10.8489
▁Vertretung	-10.8491
▁typisch	-10.8494
▁Gen	-10.8495
Also	-10.8497
▁23.	-10.8497
transfer	-10.85
▁gefährlich	-10.8508
▁dargelegt	-10.8511
Bevor	-10.8513
block	-10.8514
▁1992	-10.8515
SI	-10.8518
stellt	-10.852
▁Mari	-10.8525
▁chemische	-10.8527
ender	-10.8528
prozess	-10.8529
▁Gefängnis	-10.8532
Ratschlag	-10.8532
Ko	-10.8533
▁fr	-10.8534
produkten	-10.8535
nicht	-10.8536
bb	-10.8536
▁helpful	-10.8536
▁Objekte	-10.8537
▁Ideal	-10.8539
OS	-10.8542
ED	-10.8544
▁finanzieren	-10.8544
▁wirkliche	-10.8545
▁Shop	-10.8545
▁Obst	-10.855
▁Mer	-10.8553
▁Dringlichkeit	-10.8556
use	-10.8557
▁Räume	-10.8557
Deswegen	-10.856
▁Fern	-10.856
▁entfernen	-10.8563
bewegung	-10.8563
▁Vorstellungen	-10.8566
▁Prozesses	-10.8566
▁Master	-10.8567
▁Mag	-10.8575
hören	-10.8576
▁Spitze	-10.8576
▁kennt	-10.8578
Wichtig	-10.8579
▁Fort	-10.8579
Jede	-10.8583
▁Anträge	-10.8584
king	-10.8584
my	-10.8584
▁extra	-10.8584
▁vorliegen	-10.8588
side	-10.859
▁Vorrang	-10.8592
▁Lang	-10.8594
▁(2	-10.8598
▁48	-10.8598
rot	-10.8599
NA	-10.8601
▁Image	-10.8601
ón	-10.8602
▁angeschlossen	-10.8603
Erst	-10.8603
▁unterbreitet	-10.8605
lon	-10.8606
illa	-10.8607
▁sogenannte	-10.8608
▁Kenntnisse	-10.8609
▁Alkohol	-10.861
▁sammeln	-10.8613
rin	-10.8614
GA	-10.8618
▁verbreitet	-10.8618
▁behält	-10.8624
28	-10.8625
▁Appartements	-10.8625
star	-10.8627
▁hinzugefügt	-10.8629
▁Getränke	-10.8629
vertrag	-10.8629
▁Ehre	-10.8629
kontrolle	-10.863
verkehrs	-10.863
fälle	-10.8631
▁Flughäfen	-10.8632
▁Willkommen	-10.8635
folge	-10.8639
▁Schrift	-10.8641
ida	-10.8641
▁Roman	-10.8644
▁Referendum	-10.8644
▁Heil	-10.8648
▁leistet	-10.8649
ique	-10.8649
vel	-10.8652
▁Übersicht	-10.8653
▁Set	-10.8655
cho	-10.8655
gleich	-10.8656
▁aktiven	-10.866
▁Abbau	-10.8665
▁Ch	-10.8666
▁entstand	-10.8666
▁Georgien	-10.8669
▁Hinter	-10.867
pon	-10.8672
▁Dort	-10.8672
▁genaue	-10.8673
▁versteht	-10.8675
▁vollen	-10.8677
▁plötzlich	-10.8682
▁überwachen	-10.8683
▁anwenden	-10.8683
▁SA	-10.8683
▁Lobby	-10.8685
sicher	-10.8686
tende	-10.8692
▁Pen	-10.8692
▁Lounge	-10.8692
▁pi	-10.8693
▁Unterhaltung	-10.8693
▁Florenz	-10.8694
▁JavaScript	-10.8694
▁Spe	-10.8695
eur	-10.8695
▁Kor	-10.8695
▁Konkurrenz	-10.8698
fluss	-10.8698
▁Prodi	-10.8703
95	-10.8703
▁Volkspartei	-10.8706
▁Fang	-10.8706
genommen	-10.8711
▁ordnungsgemäß	-10.8712
AN	-10.8713
cur	-10.8717
Zwar	-10.8718
▁gebraucht	-10.8718
▁Ausrichtung	-10.8719
▁Taxi	-10.8722
▁Hügel	-10.8724
svorschläge	-10.8725
▁service	-10.8726
gebracht	-10.8726
▁31	-10.8727
▁ECU	-10.8728
▁Vordergrund	-10.8729
▁registriert	-10.8732
▁Zerstörung	-10.8733
▁Weiterentwickl	-10.8733
▁And	-10.8734
▁Gespräch	-10.8735
▁Palette	-10.8735
▁bewerten	-10.8736
su	-10.8738
par	-10.8741
▁Verteidigungs	-10.8743
▁GAP	-10.8743
We	-10.8745
MI	-10.8746
▁trat	-10.8746
▁sitzen	-10.875
▁Versicherungs	-10.875
▁fortgesetzt	-10.8753
“.	-10.8757
▁29	-10.8757
▁Feststellung	-10.8758
▁angenehmen	-10.8758
ous	-10.8759
sperr	-10.8768
lü	-10.8768
▁Köln	-10.8768
▁beseitigen	-10.8769
Dateien	-10.8771
▁(*	-10.8773
▁Glauben	-10.8774
leiter	-10.8774
▁Gran	-10.8774
bit	-10.8776
▁absolute	-10.8776
Annehmlichkeiten	-10.8776
mas	-10.8778
Warum	-10.878
▁Verhältnisse	-10.8781
körper	-10.8787
▁Arbeitnehmern	-10.8787
▁geniessen	-10.8788
svertrag	-10.8789
▁grammatisch	-10.8791
atur	-10.8792
▁Saal	-10.8793
▁Tanz	-10.8796
▁Traditionen	-10.8797
▁Bern	-10.8799
▁views	-10.88
ät	-10.8808
▁Institut	-10.8808
cha	-10.8811
▁250	-10.8812
▁erheben	-10.8813
▁Geschlechter	-10.8815
mos	-10.8816
erei	-10.8817
quellen	-10.8818
▁Anbetracht	-10.8819
▁Schlusselwort	-10.8819
▁geblieben	-10.8823
▁Kuba	-10.8824
link	-10.8824
RS	-10.8825
▁gewählten	-10.8826
▁News	-10.883
▁herunter	-10.883
▁Operation	-10.8835
▁Emissionen	-10.8837
71	-10.8838
alter	-10.8839
▁Erd	-10.8842
▁definieren	-10.8842
▁entdeckst	-10.8842
▁linken	-10.8846
77	-10.8847
▁verarbeitet	-10.8847
ssen	-10.8851
▁Ausweitung	-10.8854
luft	-10.8855
▁verstehe	-10.8856
ms	-10.8857
▁Kampagne	-10.8857
▁Zürich	-10.8858
IL	-10.8862
gebäude	-10.8865
▁südlichen	-10.8867
ev	-10.8869
▁Steuerzahler	-10.887
▁Nizza	-10.8875
▁Listings	-10.8875
▁Akteure	-10.8876
schule	-10.8879
▁Pri	-10.8881
▁aufzubauen	-10.8881
▁As	-10.8882
az	-10.8883
▁Unterkünfte	-10.8886
▁Vereinigung	-10.8886
▁Block	-10.8889
▁NICHT	-10.8894
▁schließt	-10.8894
▁ändert	-10.8895
pos	-10.8898
meister	-10.8899
▁Bonus	-10.8899
▁Safe	-10.8901
▁hinzufugen	-10.8902
Umstrukturierung	-10.8902
AM	-10.8904
bis	-10.8904
▁Jan	-10.8905
▁bearbeiten	-10.8905
▁Asyl	-10.8907
▁Spaziergang	-10.891
▁Runde	-10.8912
pat	-10.8912
▁Mechanismus	-10.8915
▁kleinere	-10.8919
rich	-10.8919
▁gemeinschaft	-10.8921
▁Dynamik	-10.8921
▁Sekunden	-10.8924
▁pe	-10.8929
▁leichte	-10.8931
Team	-10.8931
av	-10.894
aktiv	-10.8941
75	-10.8941
▁1000	-10.8942
elphrase	-10.8944
▁Wander	-10.8945
netze	-10.8945
▁Innovationen	-10.8945
bli	-10.8948
▁aufgezahlt	-10.8949
▁Tieren	-10.8949
▁WC	-10.8952
eten	-10.8953
...""...	-10.8953
▁keineswegs	-10.8953
▁Investition	-10.8954
▁wachsende	-10.8956
EU	-10.8958
kapital	-10.896
▁irgendwelche	-10.8961
▁Tr	-10.8963
El	-10.8964
▁gegebenenfalls	-10.8969
▁Fahrrad	-10.897
▁Demokraten	-10.8973
bro	-10.8976
▁umgehen	-10.8979
▁täglichen	-10.8981
▁amtierende	-10.8982
▁Montage	-10.8983
Nein	-10.8983
Format	-10.8986
89	-10.8987
Con	-10.8988
▁veröffentlichen	-10.8988
anbieter	-10.8989
media	-10.899
69	-10.899
▁typische	-10.899
Pa	-10.8992
▁Dublin	-10.8993
▁Hände	-10.8994
▁Suite	-10.8994
▁Schlaf	-10.8994
▁Hans	-10.8995
▁Mischung	-10.8996
▁nächster	-10.8998
▁günstige	-10.8999
▁Designer	-10.8999
siehe	-10.9001
▁Erhalt	-10.9005
wind	-10.9007
ée	-10.901
▁umgehend	-10.9011
▁Java	-10.9014
▁manchen	-10.9014
OP	-10.9017
▁Klicken	-10.9019
hang	-10.9021
war	-10.9021
▁zulässig	-10.9021
2)	-10.9022
▁innere	-10.9025
ava	-10.9027
dis	-10.9028
flächen	-10.9032
vorschriften	-10.9033
shop	-10.9033
▁DE	-10.9037
NL	-10.9041
▁Vorsitzenden	-10.9044
▁befürwortet	-10.9044
dos	-10.9051
ais	-10.9051
▁Steigerung	-10.9053
rü	-10.9055
▁Kapazität	-10.9056
▁op	-10.9059
ram	-10.9061
▁Erfolge	-10.9063
hand	-10.9063
stra	-10.9068
▁Anzeige	-10.9069
▁Minderheit	-10.9071
▁Erwachsene	-10.9072
Mir	-10.9074
▁stattgefunden	-10.9078
sie	-10.9078
▁gelesen	-10.9079
▁vorgelegten	-10.908
cc	-10.9081
160;	-10.9086
▁herzustellen	-10.9086
las	-10.9086
dia	-10.9087
▁Prozeß	-10.9087
organ	-10.9089
▁Vereinigte	-10.9095
▁24.	-10.9098
▁Vertrieb	-10.9102
tür	-10.9102
▁Kürze	-10.9103
▁Bildern	-10.9105
▁Konjunktur	-10.9105
н	-10.9108
▁Ban	-10.9108
▁Wesen	-10.9109
▁lädt	-10.9109
▁friendly	-10.9118
legung	-10.9118
▁Aufsicht	-10.912
▁total	-10.9124
▁ou	-10.9129
strasse	-10.9129
RA	-10.9132
lag	-10.9132
bre	-10.9133
▁zustande	-10.9135
“)	-10.9136
▁problemlos	-10.9136
▁Spielen	-10.9137
▁Südafrika	-10.9138
▁gegangen	-10.9139
angebote	-10.914
▁Summe	-10.9142
▁Wohnungen	-10.9143
▁Ereignis	-10.9144
isse	-10.9145
▁anerkennen	-10.9146
▁schriftliche	-10.9146
▁ablehnen	-10.9147
lagen	-10.915
schicht	-10.9152
▁vollständigen	-10.9153
teilung	-10.9158
Entschlossenheit	-10.9158
Insbesondere	-10.9159
kommt	-10.916
▁Eingabe	-10.9162
▁Erreichung	-10.9162
▁Mark	-10.9162
▁Menschheit	-10.9163
▁intensiv	-10.9165
▁angenehme	-10.9165
▁Verzeichnis	-10.9166
▁Kyoto	-10.9166
▁essen	-10.9166
weit	-10.9167
▁ausgehen	-10.9169
▁Dis	-10.9169
▁Reparatur	-10.917
▁endgültige	-10.9172
▁Verfolgung	-10.9174
▁zwölf	-10.9174
▁Zulassung	-10.9175
▁dahin	-10.9176
▁fassen	-10.9177
▁hochwertigen	-10.9177
▁parallel	-10.9182
ido	-10.9183
▁eindeutige	-10.9183
lieb	-10.9186
verbot	-10.9189
▁ausgestattete	-10.919
bin	-10.9191
▁only	-10.9192
▁Sektors	-10.9192
▁Fremdenverkehr	-10.9195
TEN	-10.9195
▁Migration	-10.9195
kur	-10.9195
▁erkunden	-10.9195
▁Weiterbildung	-10.9199
▁klassische	-10.9201
▁schrittweise	-10.9203
▁riesige	-10.9206
▁umfassen	-10.9207
▁gesellschaft	-10.9209
05	-10.9213
key	-10.9213
▁Mat	-10.9214
▁Konsultation	-10.9214
tten	-10.9214
▁solide	-10.9214
▁überrascht	-10.9215
kehr	-10.9215
▁IWF	-10.9216
amerikanischen	-10.9217
▁Australien	-10.9219
rechnung	-10.922
zugehen	-10.922
▁österreichische	-10.9221
▁existieren	-10.9223
▁verurteilen	-10.9226
händler	-10.9227
kauf	-10.9227
▁Bürokratie	-10.9227
▁gestatten	-10.9227
▁24-	-10.9229
▁é	-10.9229
BA	-10.9231
ea	-10.9237
▁gering	-10.9243
win	-10.9247
förderung	-10.9249
▁Green	-10.9249
bot	-10.9251
halle	-10.9251
listen	-10.9253
rä	-10.9253
UR	-10.9254
ney	-10.9255
▁Gemüse	-10.9255
ün	-10.9259
▁vereinfacht	-10.926
▁Win	-10.926
▁Nu	-10.9263
▁Streit	-10.9265
▁Niederlande	-10.9266
▁Weine	-10.9267
▁Cha	-10.9269
▁Island	-10.9269
▁innovativen	-10.927
table	-10.9271
▁Western	-10.9273
▁erleichtert	-10.9276
és	-10.9277
▁politisches	-10.9279
idad	-10.928
▁erfasst	-10.9281
Kom	-10.9281
Preis	-10.9282
▁Agenturen	-10.9284
▁öffnet	-10.9285
▁1993	-10.9287
▁gegenseitige	-10.9289
Ka	-10.9289
▁800	-10.9289
zig	-10.929
isierte	-10.929
Besonders	-10.9292
▁more	-10.9292
▁bewahren	-10.9297
▁sparen	-10.9301
▁Bilanz	-10.9305
▁Unsicherheit	-10.9306
▁(""	-10.9307
▁>	-10.9308
▁Gesicht	-10.9308
▁solch	-10.9308
▁Ref	-10.931
▁engagiert	-10.9312
vorschlag	-10.9312
▁Portal	-10.9313
Meines	-10.9313
mes	-10.9314
▁teuer	-10.9315
tagen	-10.9316
▁Pla	-10.9316
▁medizinische	-10.9318
▁Begründung	-10.9318
▁Arzneimittel	-10.932
▁ökologischen	-10.9321
▁erwerben	-10.9322
27	-10.9325
▁Aktualisierung	-10.9326
▁Kra	-10.9327
zentren	-10.9333
▁Bedienung	-10.9335
▁Mur	-10.9335
▁ausreichende	-10.9336
▁Einschätzung	-10.934
▁Besitzer	-10.9341
▁Cap	-10.9341
els	-10.9341
▁Pin	-10.9343
▁passende	-10.9346
mil	-10.9346
fenster	-10.9347
▁Kommentare	-10.9348
▁befürworten	-10.935
▁Abenteuer	-10.9351
▁professionellen	-10.9351
▁geleitet	-10.9351
2.	-10.9352
▁Wei	-10.9352
▁Labor	-10.9354
stellungen	-10.9354
ple	-10.9356
▁beibehalten	-10.9359
keiten	-10.9362
Noch	-10.9362
Ohne	-10.9364
ora	-10.9367
TI	-10.9369
technologien	-10.9369
▁normale	-10.9373
▁dé	-10.9374
ction	-10.938
▁Massage	-10.9384
wirken	-10.9387
▁gestartet	-10.9388
▁schauen	-10.939
▁Koch	-10.9391
▁offiziell	-10.9395
Ex	-10.9399
▁Ausgleich	-10.9401
▁Appartement	-10.9408
▁Slowakei	-10.9409
▁gerechtfertigt	-10.9409
▁Rechten	-10.941
▁Zweiten	-10.9413
▁widmen	-10.9413
68	-10.9415
▁600	-10.9416
▁Cam	-10.9419
100	-10.9419
Zwei	-10.9422
bal	-10.9425
oc	-10.943
personal	-10.943
Co	-10.9432
▁well	-10.9435
▁gebildet	-10.9437
▁Beruf	-10.9438
linien	-10.9441
▁auswählen	-10.9442
Politik	-10.9443
tas	-10.9444
strom	-10.9444
▁günstig	-10.9445
ias	-10.9445
▁Gleichzeitig	-10.9448
▁Check	-10.9448
▁Trend	-10.9449
ech	-10.945
ange	-10.945
▁schwedischen	-10.945
▁Pra	-10.9451
▁best	-10.9452
ings	-10.9453
Vom	-10.9453
▁grünen	-10.9456
mie	-10.9457
▁Back	-10.9457
▁Soldaten	-10.9459
▁langer	-10.946
▁Beförderung	-10.9461
minister	-10.9462
▁Reg	-10.9464
▁unzureichend	-10.9466
▁Kompetenzen	-10.9467
Welche	-10.9467
schläge	-10.9473
5%	-10.9479
▁Cas	-10.948
▁Seele	-10.9481
▁Pat	-10.9483
▁erstreckt	-10.9484
▁stay	-10.9489
klasse	-10.9489
▁freundliche	-10.949
▁ständigen	-10.949
Qu	-10.9496
▁erlassen	-10.9497
not	-10.9501
▁Domain	-10.9501
zulegen	-10.9503
gabe	-10.9505
▁Kreuz	-10.9506
▁gesunde	-10.9506
▁Anmerkungen	-10.9509
▁erteilen	-10.9511
▁Jugendliche	-10.9514
▁Klarheit	-10.9518
33	-10.9521
▁Garantien	-10.9523
▁Karriere	-10.9526
Ba	-10.9531
▁Klang	-10.9532
▁Beamten	-10.9534
▁Gra	-10.9539
schalten	-10.9542
Jedes	-10.9543
▁maßgeblich	-10.9543
datei	-10.9546
▁Ring	-10.9546
schrift	-10.9548
ible	-10.9548
lic	-10.9549
▁Airbus	-10.9549
▁genehmigt	-10.9551
▁Mel	-10.9552
märkte	-10.9552
Mitglied	-10.9554
▁36	-10.9556
▁ausländischen	-10.9556
regelung	-10.9559
▁bestellt	-10.9559
▁mittelalterlich	-10.956
▁enormen	-10.956
ose	-10.956
▁free	-10.9566
Mehr	-10.9567
▁Funktionieren	-10.9568
▁übrig	-10.9571
att	-10.9572
▁Textil	-10.9573
▁Nation	-10.9579
suche	-10.9579
▁bewußt	-10.9582
▁Dreh	-10.9583
▁Systemen	-10.9584
tem	-10.9588
▁vertritt	-10.959
▁Aufgrund	-10.9595
▁effektiver	-10.9595
ula	-10.9596
▁besonderes	-10.9598
ore	-10.9598
▁verursachen	-10.9598
▁Vertriebs	-10.9599
▁Weiß	-10.9599
▁Tro	-10.96
);	-10.9602
▁Nachdruck	-10.9604
▁zweiter	-10.9606
▁Empfänger	-10.9607
▁Universitäten	-10.9616
IE	-10.9617
▁Grünbuch	-10.9619
▁mobile	-10.9621
▁Spiegel	-10.9621
ING	-10.9626
▁Kernel	-10.9626
▁Don	-10.963
▁Bal	-10.963
Ta	-10.9632
▁Rotary	-10.9632
▁Plaza	-10.9637
▁anzupassen	-10.964
▁Filme	-10.9641
▁Erwerb	-10.9641
▁fl	-10.9641
SL	-10.9647
▁Sein	-10.9647
Wird	-10.9648
hor	-10.9648
▁Behörde	-10.9648
▁Wahrung	-10.9649
misch	-10.9649
▁desto	-10.9653
▁geschickt	-10.9656
eh	-10.9658
▁streng	-10.9659
▁!	-10.9659
▁südlich	-10.9659
▁Seminar	-10.9663
No	-10.9665
▁Aspekten	-10.9666
▁geringe	-10.9667
▁Verkäufer	-10.9667
▁Überleben	-10.9668
elemente	-10.9673
board	-10.9674
▁Wichtigkeit	-10.9675
▁blieb	-10.968
▁Spanisch	-10.968
▁close	-10.968
▁beweisen	-10.9683
▁bedienen	-10.9684
hy	-10.9686
stor	-10.9687
▁erörtert	-10.9687
heben	-10.9689
▁begeistert	-10.9689
▁Grün	-10.9692
losigkeit	-10.9692
▁Wiederherstell	-10.9693
▁moderner	-10.9694
freie	-10.9695
▁Spektrum	-10.9696
▁Häfen	-10.9696
▁Anbau	-10.9697
▁technologische	-10.9699
arch	-10.9699
▁ernsthafte	-10.9699
▁respektieren	-10.9703
▁ID	-10.9703
▁gebe	-10.9703
▁Quoten	-10.9703
LI	-10.9704
▁Stadtteil	-10.9705
rl	-10.9706
▁sonstige	-10.9707
typen	-10.9708
sbericht	-10.971
▁Missbrauch	-10.9713
▁Aufhebung	-10.9714
▁Liberalen	-10.9714
▁Krieges	-10.9714
richtung	-10.9715
▁Bosnien	-10.9717
gesetz	-10.9718
schaftlichen	-10.9719
km	-10.9728
wort	-10.973
▁work	-10.973
▁verwendeten	-10.9734
▁Erzeugung	-10.9735
▁War	-10.9738
▁Edition	-10.9739
projekte	-10.974
dre	-10.9742
gelegt	-10.9744
▁David	-10.9745
▁Gepäck	-10.9747
▁cu	-10.9749
▁technisch	-10.975
▁europäisches	-10.975
verbrauch	-10.9751
boot	-10.9751
73	-10.9752
▁centre	-10.9752
▁Aussagen	-10.9754
▁Angel	-10.9756
▁verankert	-10.9756
▁Rubrik	-10.9756
34	-10.9756
▁Ehe	-10.9758
ise	-10.9759
▁kurzer	-10.9759
gewicht	-10.9761
oberfläche	-10.9762
▁Teams	-10.9766
▁Mehrwert	-10.9767
ole	-10.977
▁ständige	-10.9772
▁Netze	-10.978
án	-10.978
29	-10.9781
Rat	-10.9783
▁normal	-10.9785
fahr	-10.9785
▁Skype	-10.9786
▁Prävention	-10.9786
▁ur	-10.9787
▁Tarif	-10.9788
▁Tests	-10.9788
▁erkennt	-10.9789
spielen	-10.979
uck	-10.979
▁lenken	-10.9791
Ganz	-10.9791
▁überwiegend	-10.9793
systemen	-10.9794
▁Statut	-10.9795
▁Logistik	-10.9795
llen	-10.9795
uff	-10.9798
sol	-10.9799
▁bewertet	-10.9799
▁city	-10.98
Präsident	-10.9801
96	-10.9803
▁versehen	-10.9803
▁genetisch	-10.9804
▁Orten	-10.9805
tte	-10.9805
▁ausländische	-10.9807
nutz	-10.9813
▁Europe	-10.9813
▁gemeinsames	-10.9817
▁Funktionalität	-10.9821
▁Inkrafttreten	-10.9821
menge	-10.9822
▁Gemeinden	-10.9822
tions	-10.9823
▁NI	-10.9825
▁Versprechen	-10.9827
▁vergeben	-10.9828
▁alter	-10.9828
▁Chef	-10.9832
züge	-10.9833
▁ursprüngliche	-10.9834
temperatur	-10.9834
▁Sat	-10.9834
▁George	-10.9835
▁auswirken	-10.9838
▁Ursache	-10.9843
▁Parlamente	-10.9843
Daten	-10.9844
mut	-10.9844
▁systematisch	-10.9845
schluss	-10.9845
▁Gemeinschaften	-10.9845
▁unterbrochen	-10.9847
sfonds	-10.9848
▁Trotz	-10.9848
▁wechseln	-10.985
▁Vorredner	-10.9851
▁investiert	-10.9851
wohn	-10.9853
▁vorliegt	-10.9855
▁Verbrauchern	-10.9855
▁Sc	-10.9859
▁Ministerrat	-10.9859
▁realistisch	-10.9861
TS	-10.9862
91	-10.9864
▁könne	-10.9865
tier	-10.9867
▁festen	-10.9872
▁Ostsee	-10.9873
▁Fan	-10.9876
▁Sil	-10.9878
▁Fuss	-10.9881
▁mittlere	-10.9883
hnen	-10.9883
▁konzipiert	-10.9886
▁Acht	-10.9886
▁überwacht	-10.9887
Länder	-10.9888
▁kostenlosen	-10.9891
02	-10.9891
lot	-10.9892
fin	-10.9892
▁organisierte	-10.9893
lia	-10.9894
▁begegnen	-10.9895
▁Werkzeuge	-10.99
AG	-10.99
schaftliche	-10.9906
▁120	-10.9906
bruch	-10.9906
grün	-10.9907
bereiche	-10.9907
▁fortsetzen	-10.9909
waren	-10.9909
▁Br	-10.9909
▁Präsentation	-10.9909
▁Ol	-10.9913
server	-10.9915
uß	-10.9917
▁Plätze	-10.9918
▁öffentlicher	-10.9919
▁armen	-10.9919
CO	-10.9919
▁derselben	-10.9925
▁vorsieht	-10.9925
▁umfangreichen	-10.9927
▁benannt	-10.993
▁Hostel	-10.9932
▁Import	-10.9932
▁etabliert	-10.9934
funktionen	-10.9938
gna	-10.9938
pri	-10.9939
▁;	-10.994
▁Mittelmeerraum	-10.994
▁Konsum	-10.9941
verband	-10.9942
▁Krebs	-10.9942
▁Berater	-10.9943
▁übermitteln	-10.9945
alt	-10.9946
▁bezeichnen	-10.9947
▁Tom	-10.9947
▁ri	-10.995
▁geringen	-10.995
Dadurch	-10.995
werten	-10.9952
▁Finanzmittel	-10.9952
▁bearbeitet	-10.9953
▁Zielsetzungen	-10.9953
▁zunehmende	-10.9955
af	-10.9956
▁Welthandels	-10.9959
▁mar	-10.997
▁Ö	-10.997
▁Erarbeitung	-10.997
▁gewünschte	-10.9971
zugeben	-10.9971
hancengleichheit	-10.9972
▁jüngste	-10.9972
▁Festplatte	-10.9974
▁gehe	-10.9975
▁verabschieden	-10.9978
▁planen	-10.9981
▁Einzelheiten	-10.9983
▁Turnier	-10.9984
inisterpräsident	-10.9986
▁Schau	-10.9987
ware	-10.9988
▁beruhen	-10.9988
▁Eigentümer	-10.9992
▁GNU	-10.9992
boden	-10.9995
▁Herrschaft	-10.9998
▁Mu	-11
▁davor	-11.0004
ville	-11.0004
▁Bed	-11.0004
agentur	-11.0005
▁frisch	-11.0008
CC	-11.0008
rag	-11.0017
tzen	-11.0019
lit	-11.0021
spflicht	-11.0021
▁exklusive	-11.0023
▁breit	-11.0023
▁integrieren	-11.0025
Sein	-11.0027
▁Möbel	-11.0033
▁Karl	-11.0034
▁flexibel	-11.0036
▁Einnahmen	-11.0036
▁kom	-11.0037
48	-11.0042
verbindung	-11.0042
▁Lesen	-11.0044
▁Mittwoch	-11.0045
▁konstruktive	-11.0045
▁Föderation	-11.0046
▁Fri	-11.0047
▁Formulierung	-11.0049
▁Entschädigung	-11.0049
sweise	-11.0052
▁Felder	-11.0053
▁Tragödie	-11.0053
partner	-11.0056
▁Händen	-11.0058
AU	-11.0061
▁Belastung	-11.0062
▁hohes	-11.0062
▁Pop	-11.0063
▁aufgeführt	-11.0064
oll	-11.0066
▁verwaltet	-11.0067
39	-11.0068
▁Rang	-11.0068
gerechnet	-11.0073
▁Cu	-11.0074
▁Wünschen	-11.0074
▁auseinander	-11.0075
▁Ausgrenzung	-11.0076
größe	-11.0077
freiheit	-11.0078
basis	-11.0078
▁MySQL	-11.008
▁Laden	-11.008
▁Werten	-11.0081
▁Problematik	-11.0081
pläne	-11.0082
Per	-11.0083
▁günstigen	-11.0083
▁Professor	-11.0088
lav	-11.0088
Alles	-11.009
▁Sam	-11.009
▁Ed	-11.0096
bie	-11.0098
▁berichten	-11.0101
xi	-11.0101
▁Mein	-11.0101
▁Verlängerung	-11.0102
▁Beobachtung	-11.0103
▁begleiten	-11.011
▁over	-11.0111
▁Photo	-11.0111
▁Rußland	-11.0111
▁zugestimmt	-11.0111
▁Rechnungshof	-11.0112
▁Eintritt	-11.0112
▁arabischen	-11.0117
▁Bay	-11.0117
RI	-11.012
▁empfängt	-11.012
▁gemütlichen	-11.0121
einheit	-11.0122
verbindungen	-11.0122
Gipfel	-11.0122
▁verzichten	-11.0125
Vertrag	-11.0125
▁Ausbeutung	-11.0129
▁externe	-11.0131
▁Alternativen	-11.0133
projekt	-11.0136
▁Schiffs	-11.0136
▁Wand	-11.0137
▁Hostelsclub	-11.0138
ito	-11.014
geführt	-11.0141
▁Studium	-11.0144
papier	-11.0144
▁europaweit	-11.0147
▁Offenheit	-11.0147
▁Projekts	-11.015
▁Meister	-11.0151
▁Orientierung	-11.0153
verarbeitung	-11.0158
▁geteilt	-11.016
Na	-11.016
tiert	-11.0161
▁Beschränkungen	-11.0161
▁Data	-11.0162
get	-11.0165
artikel	-11.0165
▁Marokko	-11.0165
sprinzip	-11.0167
▁abgesehen	-11.0168
▁erarbeiten	-11.017
▁Schi	-11.0171
▁Petition	-11.0175
▁begangen	-11.0179
▁Rückgang	-11.018
Or	-11.0185
durchschnittlich	-11.0186
▁Str	-11.0187
▁maximale	-11.0188
▁1989	-11.0188
▁Royal	-11.0189
▁Dir	-11.0191
▁frische	-11.0194
▁Il	-11.0196
▁Zusätzlich	-11.0197
▁Geschenk	-11.0197
▁Deine	-11.0198
ieß	-11.0201
▁vermutlich	-11.0201
stag	-11.0201
▁29.	-11.0202
schneiden	-11.0202
▁beeinflusst	-11.0206
▁Heim	-11.0207
▁Anreize	-11.0207
▁Ohne	-11.0207
▁ti	-11.0209
ebene	-11.0213
▁Denken	-11.0213
▁eröffnen	-11.0219
▁Blumen	-11.0219
▁Arzt	-11.022
▁unerlässlich	-11.0224
▁mu	-11.0224
▁Armen	-11.0225
▁Laser	-11.0225
▁lieben	-11.0225
▁flexible	-11.0226
sausschuß	-11.0227
▁mi	-11.0227
▁langem	-11.0227
▁stärksten	-11.0228
▁Million	-11.023
▁Pfad	-11.0233
Ebene	-11.0233
▁would	-11.0234
▁Logik	-11.0234
▁anpassen	-11.0238
senden	-11.0238
▁einzig	-11.0238
▁Beschluß	-11.0239
▁gehabt	-11.0242
▁eleganten	-11.0242
▁area	-11.0245
kom	-11.0245
▁kritisiert	-11.0246
▁BSE	-11.0246
CI	-11.0247
▁Arbeitszeit	-11.0249
▁Bre	-11.0252
▁Moskau	-11.0255
▁gefasst	-11.0256
PS	-11.0256
▁Erwägung	-11.0257
maß	-11.0258
▁vielfältige	-11.0259
▁bereiten	-11.0259
▁erweisen	-11.0263
▁Ordner	-11.0266
▁Zugangs	-11.0268
▁vermieden	-11.0269
zubringen	-11.0269
machen	-11.027
▁still	-11.027
▁kostenfrei	-11.0271
etz	-11.0272
▁Umstände	-11.0272
sträger	-11.0272
▁dieselbe	-11.0273
▁Gelände	-11.0275
▁Va	-11.0277
▁genießt	-11.0278
▁Privatsphäre	-11.0278
▁Klassen	-11.0279
▁Alb	-11.028
NE	-11.0281
ami	-11.0281
DS	-11.0282
▁Ursprungs	-11.0286
▁Konvergenz	-11.0287
▁Höchst	-11.0288
wir	-11.0288
▁verstärkte	-11.0296
▁Vier	-11.0299
▁Mengen	-11.0301
Trotzdem	-11.0306
pul	-11.0307
▁Fu	-11.0309
▁26.	-11.0309
▁ernste	-11.031
▁col	-11.0311
PA	-11.0314
▁Unfall	-11.0316
▁Palästinenser	-11.0317
spieler	-11.0318
▁Performance	-11.0319
▁unver	-11.0319
▁28.	-11.0319
nutzung	-11.032
-02	-11.032
▁vorsichtig	-11.0324
▁zugute	-11.0325
cke	-11.0328
▁steigt	-11.0328
▁gebunden	-11.0331
weite	-11.0331
▁Marina	-11.0333
▁Handlung	-11.0333
▁Zunahme	-11.0336
▁Mond	-11.0336
▁Befehl	-11.0337
▁verliehen	-11.0337
schuld	-11.0341
36	-11.0341
▁Tibet	-11.0342
▁vorherige	-11.0342
▁schwieriger	-11.0345
▁Statistiken	-11.0345
▁Kohle	-11.0346
▁eigentliche	-11.0348
▁größter	-11.0349
▁ältere	-11.035
▁umso	-11.0351
▁reich	-11.0351
▁Lern	-11.0352
▁Genießen	-11.0353
té	-11.0353
▁Wohl	-11.0353
▁jeglicher	-11.0357
zz	-11.0359
▁Zusammensetzung	-11.036
▁dieselben	-11.0362
▁üblichen	-11.0362
▁verwiesen	-11.0365
▁wächst	-11.0367
▁eingeräumt	-11.0369
▁eintreten	-11.0373
Bürger	-11.0375
▁Amts	-11.0376
sphase	-11.0378
▁Solar	-11.0379
gebühren	-11.038
-2	-11.038
▁afrikanischen	-11.0382
▁niedrigen	-11.0382
br	-11.0382
▁Resolution	-11.0383
▁erforderliche	-11.0387
▁Taten	-11.0389
▁real	-11.0389
43	-11.0389
▁NRO	-11.0391
smitglied	-11.0392
▁Event	-11.0394
▁Rennen	-11.0397
ical	-11.04
▁Award	-11.0401
▁zukommen	-11.0403
gegangen	-11.0403
▁multi	-11.0403
▁don	-11.0404
▁komfortablen	-11.0404
▁Pferde	-11.0405
▁nützliche	-11.0407
▁Schnell	-11.0407
▁verschaffen	-11.0408
▁beträchtliche	-11.0408
▁deutliche	-11.041
▁ro	-11.041
▁Literatur	-11.0411
▁Wunder	-11.0412
▁eingeladen	-11.0414
▁Terroristen	-11.0416
ade	-11.0418
▁100%	-11.0418
▁Verabschiedung	-11.0424
ütz	-11.0426
cent	-11.0428
weisung	-11.0428
jpg	-11.0434
äre	-11.0435
▁besagt	-11.0435
66	-11.0436
aire	-11.0441
▁fern	-11.0441
igung	-11.0442
▁saubere	-11.0446
▁Home	-11.0446
▁erheblichen	-11.0447
risiko	-11.0448
▁regionaler	-11.0448
▁Lasten	-11.0459
▁zentraler	-11.0459
▁Les	-11.0463
▁komplexen	-11.0464
vent	-11.0465
▁dasselbe	-11.0466
behandlung	-11.0467
▁Centre	-11.0468
▁Baum	-11.047
▁Frühjahr	-11.0475
phase	-11.0477
▁excellent	-11.048
▁rechnen	-11.0485
▁geschätzt	-11.0485
€	-11.0492
▁passt	-11.0493
UNG	-11.0494
▁aussehen	-11.0494
▁Kanal	-11.0495
FT	-11.0496
kl	-11.0497
▁37	-11.0498
55	-11.0498
▁drastisch	-11.0498
▁Fortsetzung	-11.0498
▁Gewinne	-11.05
▁Einwanderer	-11.0503
▁Gipfeltreffen	-11.0504
ness	-11.0504
▁Ferienwohnungen	-11.0505
▁erwähnten	-11.0507
▁Bestellungen	-11.0508
uri	-11.051
eo	-11.0512
wein	-11.0512
gli	-11.0513
viel	-11.0514
▁Schlag	-11.0514
konzept	-11.0515
▁Ber	-11.0515
▁Fakten	-11.0517
küste	-11.0517
rom	-11.052
sprogramme	-11.0521
▁sterben	-11.0522
ym	-11.0522
▁1991	-11.0522
formen	-11.0524
▁Zone	-11.0525
PE	-11.0526
▁zurzeit	-11.053
Gerade	-11.053
▁Kr	-11.0531
isches	-11.0532
Regierung	-11.0532
▁Sha	-11.0535
plattform	-11.0536
▁durchzusetzen	-11.0537
▁einführen	-11.0538
▁zwanzig	-11.054
▁erbaut	-11.054
▁Beobachter	-11.0541
▁Charme	-11.0542
▁gegenseitigen	-11.0543
▁gründlich	-11.0543
▁irische	-11.0543
▁part	-11.0545
▁Merkmale	-11.0548
stehende	-11.0549
▁Legislativ	-11.055
▁basieren	-11.0552
▁markiert	-11.0555
ture	-11.0556
▁Defizit	-11.0558
▁Rhein	-11.0559
74	-11.056
▁interessanten	-11.0562
▁russische	-11.0562
▁abgeben	-11.0563
▁Party	-11.0565
▁about	-11.0566
▁Training	-11.0567
▁Salz	-11.0568
▁Extra	-11.0571
▁33	-11.0571
▁Optimierung	-11.0572
▁Weltwirtschaft	-11.0573
▁wünscht	-11.0575
▁vernünftige	-11.0576
▁Las	-11.0576
Zusätzlich	-11.0577
▁Syrien	-11.0578
▁Besteuerung	-11.0579
▁beteiligten	-11.0581
verhalten	-11.0586
▁ru	-11.0588
▁Anbindung	-11.0588
▁wachsen	-11.0592
▁Beste	-11.0593
▁angenommenen	-11.0594
▁gültig	-11.0597
▁Handlungen	-11.0601
▁Ausübung	-11.0601
▁gemeinsamer	-11.0603
aktion	-11.0605
▁gebilligt	-11.0606
▁comfortable	-11.0606
Dort	-11.0608
▁Anwesenheit	-11.0615
▁Pack	-11.0616
▁other	-11.0616
äch	-11.062
▁heutzutage	-11.062
▁Drittstaaten	-11.062
ausschusses	-11.0622
▁Ausnahmen	-11.0623
▁fühlt	-11.0624
geschaltet	-11.0624
▁bemerkt	-11.0624
▁place	-11.0625
▁tatsächlichen	-11.0625
▁Express	-11.0625
volle	-11.0626
HO	-11.0627
▁Abgeordneter	-11.0627
TO	-11.0628
▁bekräftigt	-11.0629
▁Zweitens	-11.0631
tiv	-11.0633
bon	-11.0633
tain	-11.0638
▁Akt	-11.064
81	-11.0643
spar	-11.0646
therapie	-11.0647
▁Fremd	-11.0648
▁löschen	-11.0649
▁Fehl	-11.0653
fertig	-11.0653
▁erläutert	-11.0657
▁Wälder	-11.0658
sti	-11.0662
▁spielte	-11.0662
▁12.00	-11.0666
arbeiter	-11.0666
▁Verluste	-11.0667
gy	-11.0667
▁auswärtige	-11.0668
▁Deutschlands	-11.067
ativ	-11.0671
CA	-11.0671
▁passieren	-11.0674
▁Genuss	-11.0676
▁gezielt	-11.0678
▁bisschen	-11.068
analyse	-11.0681
rik	-11.0683
▁Straf	-11.0683
mischen	-11.0684
▁Putin	-11.0686
leiste	-11.0689
▁Maastricht	-11.069
▁überarbeitet	-11.0691
herr	-11.0694
▁RE	-11.0697
ves	-11.07
gg	-11.07
GE	-11.0702
▁Erbe	-11.0702
ism	-11.0703
▁Gewinner	-11.0705
38	-11.0706
dro	-11.071
emissionen	-11.0711
▁belegt	-11.0718
▁Ya	-11.0721
▁Minibar	-11.0721
▁luxuriöse	-11.0723
IM	-11.0725
▁retten	-11.0726
▁nachhaltig	-11.0727
schritt	-11.0727
▁Rezession	-11.0728
▁unterscheidet	-11.0728
▁Ärzte	-11.0728
▁Office	-11.0733
aff	-11.0734
til	-11.0738
▁Anreise	-11.074
fried	-11.074
▁eure	-11.074
▁Brücke	-11.0743
gewinn	-11.0743
▁Pflichten	-11.0744
ox	-11.0747
▁gegenseitig	-11.0747
▁gehandelt	-11.0747
isierten	-11.0749
▁Platten	-11.0749
▁fehlen	-11.0753
ritt	-11.0754
▁Heiligen	-11.0754
▁respektiert	-11.0757
filter	-11.0757
geld	-11.0761
unk	-11.0767
▁angelegt	-11.0767
mis	-11.0768
▁Osteuropa	-11.0768
▁beschleunigen	-11.0776
▁gestiegen	-11.0778
▁pas	-11.0779
▁Kloster	-11.0781
▁Mallorca	-11.0781
▁Men	-11.0783
▁endgültigen	-11.0787
yl	-11.0788
▁einstellen	-11.0792
ois	-11.0792
▁Angabe	-11.0794
▁Mobiltelefon	-11.0795
▁demokratischer	-11.0798
Rezeption	-11.0798
▁religiösen	-11.08
▁reine	-11.0801
▁Camp	-11.0801
▁Dennoch	-11.0803
einheiten	-11.081
▁some	-11.0813
▁beschließen	-11.0814
▁Fin	-11.0816
▁empfiehlt	-11.0819
verschmutzung	-11.0824
sbehörden	-11.0826
put	-11.0827
▁ausgehend	-11.0835
▁Washington	-11.0838
ated	-11.0839
▁Var	-11.0842
▁Bühne	-11.0843
▁funktionierende	-11.0844
▁füllen	-11.0845
▁ruhiger	-11.085
IG	-11.0851
▁Distribution	-11.0853
▁schlechter	-11.0853
▁Kap	-11.0855
▁Vertrauens	-11.0857
▁Gentoo	-11.0858
farben	-11.0858
▁höchster	-11.086
▁beinahe	-11.0861
▁Inhaber	-11.0862
▁beschreibt	-11.0864
hat	-11.0864
▁Jede	-11.0864
card	-11.0867
▁ausgelöst	-11.0867
▁Cookies	-11.087
elf	-11.0872
▁Budapest	-11.0877
strich	-11.0877
▁Abteilung	-11.0882
▁University	-11.0882
▁Stufe	-11.0882
▁einmalige	-11.0884
▁2.0	-11.0884
ello	-11.0884
ffer	-11.0888
▁Demo	-11.089
stehenden	-11.089
ulation	-11.0892
DO	-11.0901
erstattung	-11.0903
felder	-11.0904
▁negativ	-11.0908
▁Kühl	-11.0908
▁bekam	-11.0908
War	-11.0909
legt	-11.091
saal	-11.091
▁Lärm	-11.0911
▁like	-11.0911
▁Th	-11.0915
▁Gr	-11.0915
vermögen	-11.0915
Unternehmen	-11.0917
▁ju	-11.0917
▁Türen	-11.0918
sebene	-11.0918
▁detaillierte	-11.0919
lies	-11.092
▁beider	-11.0921
muster	-11.0923
ave	-11.0923
time	-11.0924
ali	-11.0925
▁Aktivität	-11.0925
▁kleineren	-11.0928
▁Rücken	-11.093
PO	-11.093
▁derart	-11.0932
gue	-11.0936
Serie	-11.0938
▁Mund	-11.0941
finanzierung	-11.0942
▁Auslegung	-11.0942
▁verpflichten	-11.0945
▁Abschluß	-11.0946
▁zielt	-11.0946
▁Blue	-11.0948
wirkung	-11.0949
▁ausführlich	-11.0949
haben	-11.0949
▁Forscher	-11.0949
▁Russlands	-11.095
▁gelegene	-11.095
▁night	-11.0951
▁Log	-11.0952
▁erstes	-11.0955
tom	-11.0955
▁geeigneten	-11.0957
▁Thomas	-11.0958
tern	-11.0962
▁ST	-11.0963
▁komfortabel	-11.0964
▁nehme	-11.0964
anforderungen	-11.0966
▁grüne	-11.0967
▁tolle	-11.0967
▁Anhänger	-11.0968
ky	-11.0972
2002	-11.0974
Fischereipolitik	-11.0977
▁Inhalten	-11.0978
03	-11.0979
▁Voraus	-11.0982
FA	-11.0983
▁gelingen	-11.0985
ith	-11.0986
▁Tempo	-11.0986
ont	-11.0989
▁erschienen	-11.099
▁Aufforderung	-11.099
produkt	-11.0993
mobil	-11.0993
▁Hör	-11.0993
▁form	-11.0993
nov	-11.0995
ando	-11.0996
▁Versuche	-11.1
▁Energiequellen	-11.1
fassung	-11.1
▁kurzfristig	-11.1003
▁Hektar	-11.1003
▁USD	-11.1004
iden	-11.1006
88	-11.1006
UM	-11.1007
79	-11.1011
Seite	-11.1011
▁Besteller	-11.1012
regierung	-11.1012
rig	-11.1013
▁gelassen	-11.1013
97	-11.1014
▁vernünftig	-11.1015
gezogen	-11.1017
wärts	-11.1023
▁Klimawandels	-11.1024
▁vergleichen	-11.1028
▁Heimatland	-11.1029
▁27.	-11.1029
▁vergleichbar	-11.103
▁gr	-11.103
stätte	-11.1032
ländern	-11.1033
▁organisierten	-11.1034
▁übergeben	-11.1036
▁ausgedehnt	-11.1037
▁automatische	-11.1037
ath	-11.1037
suchen	-11.104
UN	-11.1041
sverhandlungen	-11.1043
▁technischer	-11.1043
▁aufge	-11.1045
row	-11.1046
}	-11.1047
holen	-11.1047
▁Börse	-11.105
ichtraucherzonen	-11.1051
ographie	-11.1053
▁klarer	-11.1053
kin	-11.1054
▁einnehmen	-11.1057
▁1980	-11.1058
streit	-11.1059
szusammenarbeit	-11.1059
ionen	-11.1059
▁Mont	-11.106
▁Tel	-11.106
▁übersetzt	-11.1069
chte	-11.107
nik	-11.1072
liegen	-11.1073
▁Schutzes	-11.1075
▁nutzbar	-11.1076
ausschuss	-11.1077
prüfung	-11.1077
▁derjenigen	-11.1077
▁Bel	-11.108
▁Führungs	-11.1083
▁34	-11.1086
▁verzeichnen	-11.1088
▁englischen	-11.109
▁they	-11.1091
▁vorbehalten	-11.1091
▁Großen	-11.1092
87	-11.1093
▁qui	-11.1094
▁herrliche	-11.1094
▁wartet	-11.1095
▁überlegen	-11.1095
tragen	-11.1095
▁sicherer	-11.1096
▁Metro	-11.1097
Rechtsvorschrift	-11.1097
▁liegenden	-11.1097
▁Schließlich	-11.1098
▁Desktop	-11.1101
▁verwirklichen	-11.1101
▁Alters	-11.1104
Ö	-11.1104
▁getötet	-11.1106
▁Taiwan	-11.1106
stunden	-11.1113
▁gewinnt	-11.1115
▁angebotenen	-11.1122
nischen	-11.1123
ziehung	-11.1124
▁eingerichtete	-11.1126
▁original	-11.1129
▁Währungs	-11.1134
ähr	-11.1134
▁vorübergehend	-11.1136
abteilung	-11.1139
▁Mauer	-11.1139
▁insofern	-11.114
▁Beschwerden	-11.1141
▁vereinbarten	-11.1145
ären	-11.1146
▁teilzunehmen	-11.1146
reiche	-11.1146
▁regeln	-11.1146
sammlung	-11.1146
schließ	-11.1146
▁Adria	-11.1146
▁sonstigen	-11.1148
▁Entdeckung	-11.1148
▁geplanten	-11.1149
▁vorgehen	-11.115
▁Autoren	-11.1151
▁stattdessen	-11.1151
▁optimiert	-11.1152
ffen	-11.1152
▁inneren	-11.1153
basierte	-11.1153
inger	-11.1154
▁Aluminium	-11.1155
▁allmählich	-11.1155
▁Kalender	-11.1155
▁ausführen	-11.1156
▁bewiesen	-11.1162
schlüssel	-11.1163
▁ausgearbeitet	-11.1163
▁fanden	-11.1165
▁gelernt	-11.1165
▁aufgerufen	-11.1165
▁ausgebaut	-11.1168
▁Konfiguration	-11.117
▁gekauft	-11.1172
por	-11.1173
versammlung	-11.1177
▁Gebäuden	-11.1181
uv	-11.1182
▁wirksamer	-11.1186
▁Alltag	-11.1187
isation	-11.1189
Beschreibung	-11.119
pin	-11.119
▁endgültig	-11.1192
eller	-11.1195
▁verknüpft	-11.1196
zt	-11.1196
▁geistigen	-11.1198
▁Stabilisierung	-11.12
cor	-11.12
▁Grafik	-11.1201
▁Stern	-11.1202
▁Michel	-11.1207
▁Wertpapier	-11.1211
▁Beratungen	-11.1217
▁medizinischen	-11.1217
▁spätestens	-11.122
▁DER	-11.1221
▁Ehren	-11.1223
rö	-11.1223
lement	-11.1224
▁Mc	-11.1224
▁Präsidium	-11.1225
▁Gegenwart	-11.1225
▁eigenem	-11.1225
bestand	-11.1227
rd	-11.1229
▁Board	-11.1229
LA	-11.123
▁Ä	-11.1231
▁gefährden	-11.1233
▁Trainings	-11.1233
dichte	-11.1234
▁Territorium	-11.1235
▁Wal	-11.1236
-01	-11.1236
▁Jahresbericht	-11.1238
▁te	-11.124
Weitere	-11.1242
▁beruflichen	-11.1242
▁polnischen	-11.1243
tat	-11.1245
▁inakzeptabel	-11.1245
▁Jedes	-11.1248
cio	-11.1248
bezogene	-11.1249
▁unterwegs	-11.125
▁Direktor	-11.1254
▁Ankündigung	-11.1255
▁Menschenrechten	-11.1258
▁industriellen	-11.1259
gipfel	-11.126
▁ratifiziert	-11.126
▁Verletzungen	-11.1265
▁Tabelle	-11.1267
▁Einschränkungen	-11.1267
▁wirklichen	-11.1268
▁Gal	-11.1271
▁tausend	-11.1271
▁Aufruf	-11.1274
ux	-11.1274
design	-11.1275
85	-11.1276
▁lokaler	-11.1278
MP	-11.1284
▁niedrig	-11.1284
▁verbesserte	-11.1284
▁This	-11.1285
glas	-11.1288
▁ärmsten	-11.129
yp	-11.129
fan	-11.129
schlüsse	-11.1293
▁gen	-11.1295
▁späteren	-11.1298
▁(„	-11.1299
▁Gärten	-11.13
-20	-11.1302
▁Grundsätzen	-11.1303
▁Dafür	-11.1304
nähe	-11.1306
▁berufliche	-11.1306
▁behinderten	-11.1309
mengen	-11.131
но	-11.131
▁Rassismus	-11.131
▁(1	-11.1311
▁Porto	-11.1312
83	-11.1312
gemäß	-11.1312
▁Beschäftigten	-11.1313
▁Spannungen	-11.1315
▁Herberge	-11.1316
mont	-11.1317
▁oberen	-11.1317
94	-11.1319
geschwindigkeit	-11.1321
▁Tre	-11.1322
hör	-11.1322
▁Grab	-11.1322
nder	-11.1324
▁Unterdrückung	-11.1325
▁angestrebt	-11.1325
67	-11.1325
▁Wille	-11.1326
ward	-11.1335
USS	-11.1336
▁versch	-11.1338
▁glaubwürdig	-11.134
▁unterbreiten	-11.134
▁unge	-11.1341
▁Segel	-11.1341
Dollar	-11.1342
▁Meiner	-11.1343
▁faire	-11.1344
▁bo	-11.1344
}}	-11.1345
▁folglich	-11.1345
▁ré	-11.1349
TC	-11.1352
▁Verordnungen	-11.1352
▁Regionalpolitik	-11.1352
▁behindert	-11.1354
▁Fund	-11.1355
▁Freihandel	-11.1355
▁Bur	-11.1357
▁dauern	-11.1357
Fluggesellschaft	-11.1358
besuch	-11.1358
▁5-	-11.1358
Weil	-11.1359
▁jemals	-11.1361
▁Finanzen	-11.1362
▁Malta	-11.1367
ario	-11.1368
▁besetzt	-11.1369
▁erneuerbaren	-11.1371
▁Leid	-11.1372
▁Aufträge	-11.1383
haften	-11.1383
▁Produzenten	-11.1383
pil	-11.1384
▁Cre	-11.1384
fisch	-11.1386
37	-11.1387
effekt	-11.139
▁Gebühr	-11.1394
aria	-11.1394
▁Litauen	-11.1396
▁wunderbare	-11.1397
▁Kraftstoff	-11.1398
▁koordiniert	-11.1398
ute	-11.1399
Her	-11.1403
alle	-11.1404
▁beizutragen	-11.1405
▁Clubs	-11.1405
▁jährlichen	-11.1405
▁türkische	-11.1406
fehler	-11.1406
▁beliebigen	-11.1407
▁2012	-11.1407
▁Jugoslawien	-11.1408
bestimmungen	-11.1414
▁sub	-11.1415
▁Entstehung	-11.1416
▁Casa	-11.1418
standards	-11.1419
▁schenken	-11.1422
ments	-11.1426
vision	-11.1426
Neu	-11.1433
▁Anhang	-11.1435
▁Einblick	-11.1437
qua	-11.1439
▁vollem	-11.144
▁Oder	-11.144
▁Leuten	-11.144
spe	-11.1441
▁Schwimmbad	-11.1442
▁Reichtum	-11.1442
pekt	-11.1447
▁Bor	-11.1447
▁Berichten	-11.1449
ßt	-11.1449
For	-11.1451
▁bedauere	-11.1452
▁SO	-11.1455
kurse	-11.1456
▁Therapie	-11.1458
ire	-11.1461
▁vorbereiten	-11.1463
Ra	-11.1464
▁Shi	-11.1464
▁ähnlichen	-11.1466
▁pu	-11.1467
▁Aktiv	-11.1468
▁Eigenschaft	-11.1469
▁non	-11.1471
via	-11.1471
▁bewirken	-11.1472
lett	-11.1473
Design	-11.1476
▁Ausbildungs	-11.1476
EA	-11.1476
roll	-11.1477
▁friedliche	-11.1477
▁stetig	-11.1478
back	-11.1481
▁CA	-11.1482
▁Swiss	-11.1483
▁Hat	-11.1487
▁Einkommens	-11.1487
pool	-11.1487
kreuz	-11.1488
yo	-11.1488
▁transparent	-11.1489
▁hielt	-11.1491
▁Konzepte	-11.1491
▁SE	-11.1492
▁Wörter	-11.1493
▁Ursprung	-11.1494
▁Flächen	-11.1495
regionen	-11.1497
▁ökologische	-11.1499
iva	-11.1505
gegen	-11.1505
mor	-11.1506
▁Kreativität	-11.1509
▁Swimmingpool	-11.1509
▁versteckt	-11.1514
OL	-11.1514
▁Bergen	-11.1514
▁IV	-11.1515
▁großartige	-11.1515
▁Unterlagen	-11.1515
▁Emissions	-11.1516
quelle	-11.1517
▁Spannung	-11.1523
air	-11.1523
▁Vulkan	-11.1523
ierungen	-11.1523
▁dauerhafte	-11.1523
▁Dor	-11.1524
▁Sach	-11.1525
▁Protest	-11.1525
▁Schaf	-11.1529
▁weitaus	-11.153
▁Alm	-11.153
stern	-11.1532
▁Nichtraucher	-11.1533
▁Kurse	-11.1533
▁umgekehrt	-11.1534
eis	-11.1536
84	-11.1538
▁alternative	-11.1538
▁gesch	-11.154
uit	-11.1543
viertel	-11.1544
bilder	-11.1547
austausch	-11.155
▁UND	-11.1551
▁privat	-11.1553
hal	-11.1559
▁Ausschüsse	-11.1561
▁с	-11.1561
▁Nein	-11.1561
▁Motto	-11.1561
41	-11.1563
smitglieder	-11.1564
▁Ganz	-11.1566
Do	-11.1567
lö	-11.157
ausstattung	-11.1572
▁65	-11.1573
▁Unterzeichnung	-11.1576
▁entworfen	-11.1581
▁Realisierung	-11.1583
▁live	-11.1584
▁eigentlichen	-11.1584
▁Kräften	-11.1585
Richtlinie	-11.1586
pflicht	-11.1587
▁Geschäften	-11.1587
sverfahrens	-11.1587
▁55	-11.1592
▁schrieb	-11.1592
orientierte	-11.1593
▁Bewältigung	-11.1596
▁Stamm	-11.1597
Modell	-11.1599
▁Vorbild	-11.1599
▁demokratisch	-11.1599
▁2013	-11.16
platten	-11.1602
▁gelegenen	-11.1604
▁Lokal	-11.1607
▁Trek	-11.1608
▁Fans	-11.1609
▁gefährliche	-11.161
▁Dich	-11.161
▁bezogen	-11.1611
▁inbegriffen	-11.1613
▁Europol	-11.1613
fort	-11.1613
abend	-11.1613
▁angewiesen	-11.1615
lip	-11.1616
▁Ph	-11.1619
dauer	-11.162
▁Tennis	-11.1622
gleichen	-11.1625
▁Palace	-11.1628
▁gewünscht	-11.163
sprachen	-11.1633
steuerung	-11.1635
▁Äußerungen	-11.1635
▁Events	-11.1636
▁engen	-11.1639
Kann	-11.1639
olo	-11.1639
▁Chat	-11.1643
nehmer	-11.1643
▁ausgewählten	-11.1645
tags	-11.1646
▁Sar	-11.1647
höfe	-11.1647
▁Formel	-11.1653
▁erstens	-11.1654
▁Weißbuch	-11.1654
▁fin	-11.1654
kle	-11.1655
▁Game	-11.1658
▁interessieren	-11.1658
kampf	-11.166
▁mitgeteilt	-11.1662
Tra	-11.1663
▁beschreiben	-11.1663
▁Medikamente	-11.1667
4)	-11.1668
WE	-11.1668
▁Hall	-11.1668
▁israelischen	-11.1668
bereit	-11.1669
▁Ap	-11.1669
ité	-11.167
hafte	-11.1671
ih	-11.1671
ful	-11.1672
ford	-11.1673
▁baut	-11.1673
▁Arbeitsgruppe	-11.1675
▁sagten	-11.1676
▁ohnehin	-11.1677
▁Vergnügen	-11.1679
▁verwalten	-11.1679
▁38	-11.1679
ks	-11.168
▁Elite	-11.1682
▁Bezahlung	-11.1683
Code	-11.1683
▁Inc	-11.1685
▁Vermarktung	-11.1685
▁kritischen	-11.1685
▁Busse	-11.1689
▁Besatzung	-11.169
▁nachdenken	-11.1691
scha	-11.1692
zel	-11.1695
ici	-11.1696
▁cha	-11.1696
▁Vorfeld	-11.1697
eil	-11.1699
geschrieben	-11.17
▁Kommentar	-11.1701
▁Griff	-11.1703
ekt	-11.1704
65	-11.1705
▁Sony	-11.171
▁Frank	-11.1711
gegeben	-11.1713
▁Lieblings	-11.1714
▁stabile	-11.1716
▁European	-11.1717
▁Touren	-11.172
▁werfen	-11.1723
sinstrument	-11.1724
sarbeit	-11.1725
▁Palästina	-11.1726
▁ignoriert	-11.1726
▁Visum	-11.1728
bert	-11.1729
schalter	-11.173
▁geschafft	-11.1732
▁strenge	-11.1733
▁Null	-11.1733
anteil	-11.1733
▁Zahn	-11.1737
▁Max	-11.1737
kapazität	-11.1738
Ca	-11.1738
▁rechtfertigen	-11.1742
▁geschmackvoll	-11.1742
▁Hunger	-11.1743
▁industrielle	-11.1744
pflege	-11.1744
zähl	-11.1746
▁Updates	-11.1747
▁Kit	-11.1749
II	-11.175
0,00	-11.1751
▁Festung	-11.1753
▁aktualisieren	-11.1753
europäischen	-11.1756
▁Wahrscheinlich	-11.1757
▁Ag	-11.1757
▁Foundation	-11.1758
▁Beitritts	-11.1759
▁zeitlich	-11.1761
terrasse	-11.1763
konto	-11.1765
▁erweiterten	-11.1765
istisch	-11.1766
▁42	-11.1766
verlust	-11.1767
▁Brot	-11.1767
▁erzählt	-11.1769
sicherung	-11.1769
3-	-11.177
▁einzugehen	-11.1771
atoren	-11.1773
▁erörtern	-11.1774
▁Treibhausgas	-11.1774
▁manuell	-11.1774
▁Jahrzehnt	-11.1774
▁Überarbeitung	-11.1774
liches	-11.1776
▁use	-11.1778
▁fairen	-11.178
▁Info	-11.1781
▁stützen	-11.1781
▁spiegelt	-11.1785
motor	-11.1787
nbsp	-11.179
▁Lehren	-11.1791
▁gebucht	-11.1791
▁zukünftig	-11.1791
▁Gro	-11.1793
▁enttäuscht	-11.1795
▁erläutern	-11.1795
ics	-11.1799
▁Fabrik	-11.18
▁Funk	-11.1802
▁Rahmenbedingung	-11.1803
▁grundlegender	-11.1804
dring	-11.1805
▁Fehlen	-11.1805
vert	-11.1807
▁95	-11.1808
weil	-11.181
Demokratisierung	-11.1811
▁Bananen	-11.1811
▁Para	-11.1811
▁Fünf	-11.1812
ckt	-11.1813
▁erlangen	-11.1813
▁{{	-11.1816
▁Angriffe	-11.1816
▁melden	-11.1816
▁Index	-11.1816
AD	-11.1817
▁EN	-11.182
Standard	-11.182
▁bilateralen	-11.1821
▁day	-11.1822
▁bedingt	-11.1823
schlagen	-11.1823
▁fährt	-11.1824
▁Juden	-11.1826
▁Koordination	-11.1827
▁diverse	-11.1829
▁voneinander	-11.183
▁Kranken	-11.1832
▁wirtschafts	-11.1832
▁Strasse	-11.1835
▁gewisser	-11.1836
ira	-11.1837
▁Scheitern	-11.1837
▁Zivilisation	-11.1838
▁Doppelbett	-11.184
kräfte	-11.1841
lé	-11.1842
sgruppen	-11.1843
▁neueste	-11.1848
▁erinnere	-11.1856
▁beiträgt	-11.1857
▁Abstand	-11.1857
2003	-11.1859
materialien	-11.1862
ted	-11.1863
▁Bezirk	-11.1864
▁Folter	-11.1864
verkauf	-11.1867
44	-11.1867
▁Ter	-11.1868
▁Gerichten	-11.1869
▁Vorgaben	-11.1871
▁globaler	-11.1871
mitglieder	-11.1876
▁erwähnte	-11.1878
werke	-11.1878
▁eingebunden	-11.188
▁Einkauf	-11.1881
▁kommerzielle	-11.1882
touren	-11.1885
▁erfolgte	-11.1885
▁Slowenien	-11.1885
▁ernannt	-11.1885
▁Reserve	-11.1887
Commerce	-11.189
adresse	-11.1896
stechnik	-11.1897
▁Implementierung	-11.1898
wan	-11.1899
book	-11.1899
▁vorhin	-11.19
▁Internetzugang	-11.19
▁Haushalte	-11.1901
▁Seen	-11.1902
▁Halb	-11.1904
treten	-11.1911
▁droht	-11.1912
▁Rahmenprogramm	-11.192
51	-11.1923
▁Zufriedenheit	-11.1923
▁beurteilen	-11.1923
▁Stabilitäts	-11.1924
sis	-11.1925
▁if	-11.1926
▁Pol	-11.1926
▁qualifizierte	-11.1927
agen	-11.193
▁Aufwand	-11.1931
ela	-11.1932
▁örtlichen	-11.1932
szentrum	-11.1933
▁Leidenschaft	-11.1934
▁realisieren	-11.1934
▁Han	-11.1935
ors	-11.1935
▁schützt	-11.1939
▁ermutigen	-11.1939
▁alleine	-11.194
▁Energiepolitik	-11.1941
▁Rio	-11.1941
▁einhalten	-11.1944
▁DIE	-11.1945
▁womit	-11.1946
▁Erziehung	-11.1946
▁Eigentums	-11.1947
SK	-11.1948
▁Fertigung	-11.195
▁messen	-11.1951
Darum	-11.1951
▁Ebenso	-11.1953
CE	-11.1953
▁located	-11.1955
▁unberührt	-11.1955
▁kommerziellen	-11.1956
▁Donau	-11.1956
▁Betroffenen	-11.1957
▁einander	-11.1958
▁Getreide	-11.196
ping	-11.196
▁Gre	-11.1962
▁Attraktionen	-11.1962
dom	-11.1963
nor	-11.1963
dri	-11.1964
▁rasche	-11.1964
messung	-11.1967
Prozess	-11.1968
▁Piazza	-11.1971
marquis	-11.1971
ION	-11.1977
▁Bruder	-11.1978
träge	-11.1978
▁Hin	-11.1978
geräten	-11.1979
▁Berechnung	-11.198
▁Zubehör	-11.1982
▁vertraulich	-11.1982
▁Ausgang	-11.1985
sum	-11.1988
▁Jazz	-11.1988
▁Zuständigkeiten	-11.1988
▁Anreiz	-11.1992
▁begab	-11.1995
kredit	-11.1998
rel	-11.1999
▁jeweilige	-11.2
▁OS	-11.2006
▁dicht	-11.2006
▁bedauern	-11.2009
sniveau	-11.2009
tig	-11.2011
▁Musiker	-11.2012
▁Pfeiler	-11.2013
lern	-11.2013
▁wünschenswert	-11.2014
▁Sex	-11.2014
fällen	-11.2014
gre	-11.2015
▁Human	-11.2017
▁Tools	-11.2021
▁bi	-11.2021
ios	-11.2022
▁vereinfachen	-11.2025
▁Zertifikat	-11.2026
▁ausgelegt	-11.2035
sur	-11.2037
SCH	-11.204
▁Mazedonien	-11.2041
▁Früchte	-11.2041
gno	-11.2041
▁Apple	-11.2043
▁niederländische	-11.2044
ständig	-11.2045
▁Atlantik	-11.2046
▁Pr	-11.205
ient	-11.2051
▁della	-11.2054
/1	-11.2056
▁drücken	-11.206
▁ci	-11.2061
jenige	-11.2063
▁HTML	-11.2067
gro	-11.207
▁EP	-11.2072
gh	-11.2073
Manche	-11.2074
▁Oberflächen	-11.2075
gin	-11.2076
▁Amtszeit	-11.2077
▁Renn	-11.2078
ér	-11.2078
▁Stockholm	-11.2079
▁Verstärkung	-11.2079
▁erkennbar	-11.2079
rechtlichen	-11.2081
mu	-11.2082
▁nett	-11.2082
lam	-11.2083
serklärung	-11.2084
▁Raums	-11.2084
▁Ak	-11.2085
tive	-11.2088
Soweit	-11.2089
▁Fundament	-11.2091
▁Zertifizierung	-11.2092
47	-11.2093
▁einzuhalten	-11.2094
santräge	-11.2094
▁Elektronik	-11.2096
▁its	-11.2096
▁niedriger	-11.2098
▁Veranstaltungs	-11.2098
▁aufrichtig	-11.2098
▁gewann	-11.2101
▁endet	-11.2105
splan	-11.211
▁Kompromiß	-11.2112
▁Schon	-11.2112
stätten	-11.2112
TER	-11.2113
stock	-11.2114
▁kritische	-11.2114
▁angefangen	-11.2122
infrastruktur	-11.2123
▁realen	-11.2125
▁Stimmung	-11.213
sbeziehungen	-11.213
▁unglaublich	-11.2131
▁Surf	-11.2133
▁Strecken	-11.2133
hlen	-11.2133
▁beschleunigt	-11.2133
bringt	-11.2136
▁Kapazitäten	-11.2137
▁any	-11.2138
▁Adobe	-11.2138
▁Kirk	-11.214
▁Einladung	-11.2141
ock	-11.2141
▁exklusiven	-11.2143
▁schreibt	-11.2144
gie	-11.2145
saison	-11.2145
▁?	-11.2147
▁Puerto	-11.215
▁Abs	-11.215
▁zufällig	-11.215
rain	-11.215
standen	-11.2151
lli	-11.2151
▁hell	-11.2151
▁Brenn	-11.2151
▁Beide	-11.2153
▁Stabilitätspakt	-11.2155
▁person	-11.2156
▁Diktatur	-11.2156
▁gutem	-11.2156
▁Tief	-11.2156
▁Hamas	-11.2157
Land	-11.2157
▁technologischen	-11.2158
▁Klick	-11.216
}})	-11.2162
▁Experiment	-11.2164
▁Meinungen	-11.2164
part	-11.2165
▁Instrumenten	-11.2165
▁drängen	-11.2169
▁HD	-11.217
▁kritisch	-11.2173
▁klären	-11.2173
▁grob	-11.2174
sha	-11.2174
▁Jahreszeit	-11.2174
gni	-11.2175
▁harte	-11.2177
Welt	-11.2177
▁Life	-11.2178
▁Wählen	-11.2179
▁zuverlässig	-11.2181
▁namens	-11.2182
space	-11.2182
zustellen	-11.2183
▁Box	-11.2184
sinn	-11.2185
gol	-11.2186
Uns	-11.2189
sprozesse	-11.2191
▁nötigen	-11.2191
▁Wall	-11.2193
Gestatten	-11.2194
▁site	-11.2194
▁angehören	-11.2195
▁bevorstehenden	-11.2196
▁Kamin	-11.2196
dan	-11.2196
day	-11.2199
▁ansonsten	-11.2199
zellen	-11.22
▁Ernährung	-11.22
elli	-11.2202
▁längere	-11.2202
▁Mühe	-11.2204
▁Gepäckraum	-11.2206
▁Spezialisten	-11.2209
▁pla	-11.2209
▁Büros	-11.2213
▁unterhalten	-11.2216
▁Galerie	-11.2217
▁Content	-11.2217
Kurz	-11.2218
▁Einschränkung	-11.2219
Zeit	-11.2219
ace	-11.2223
ship	-11.2226
▁üblich	-11.2227
▁Marktwirtschaft	-11.2228
▁Dritter	-11.223
verein	-11.2232
▁Stuttgart	-11.2232
▁größerer	-11.2233
▁teilgenommen	-11.2238
▁Nahrung	-11.2239
▁schlicht	-11.2239
▁Lehre	-11.2239
▁Kom	-11.2244
49	-11.2245
▁gefällt	-11.2245
▁Ticket	-11.2247
RC	-11.2252
▁Interpretation	-11.2254
▁could	-11.2255
ausgaben	-11.2255
stücke	-11.2256
▁MB	-11.2256
▁testen	-11.2258
▁Kompromisse	-11.2258
▁mündlichen	-11.2261
gehalten	-11.2262
▁analysieren	-11.2266
menü	-11.2266
▁Auftraggeber	-11.2266
▁ka	-11.2267
sing	-11.2267
▁Verfasser	-11.227
▁Assoziierung	-11.2271
▁basierend	-11.2272
▁trocken	-11.2277
▁tiefer	-11.2277
▁tu	-11.2278
▁Zell	-11.2281
▁erstklassige	-11.2281
merk	-11.2284
Klasse	-11.2287
Mails	-11.2288
werfen	-11.2289
▁zeigte	-11.2289
swerte	-11.2292
▁abzielen	-11.2294
▁griechische	-11.2297
▁dauerhaft	-11.2298
▁BE	-11.2298
▁entscheidet	-11.2299
▁gratis	-11.2299
zy	-11.23
▁global	-11.2302
▁verwöhnen	-11.2304
Fr	-11.2305
ull	-11.2306
▁agieren	-11.2307
stoß	-11.2307
Distribution	-11.2309
78	-11.2311
▁gewachsen	-11.2313
▁Kindes	-11.2314
cas	-11.2318
▁vielfältigen	-11.2318
rät	-11.2319
▁halbe	-11.2321
▁Aufklärung	-11.2321
▁anzeigen	-11.2322
▁Turm	-11.2322
Andere	-11.2323
▁Tschechischen	-11.2323
▁PSE	-11.2324
Tag	-11.2324
▁herstellen	-11.2325
42	-11.2325
▁Breakfast	-11.2325
gor	-11.2326
▁Versorgungs	-11.2328
Zimmerservice	-11.2329
ving	-11.2329
▁zurückkehren	-11.2332
rahmen	-11.2334
firmen	-11.2334
ergebnis	-11.2335
т	-11.2336
▁Amerikas	-11.2337
▁Lebensqualität	-11.234
▁Pf	-11.2341
▁View	-11.2341
▁schließe	-11.2342
can	-11.2342
▁Hotelsafe	-11.2343
▁Libanon	-11.2343
▁SAP	-11.2348
▁nördlich	-11.2348
▁Mos	-11.2349
▁oberste	-11.2351
▁Kenn	-11.2352
Niemand	-11.2355
▁Sche	-11.2355
▁Metern	-11.2356
▁Partition	-11.2356
▁Sitzungen	-11.2358
baum	-11.2361
shaushalt	-11.2366
▁gesucht	-11.2368
▁zog	-11.2368
▁Bestand	-11.237
probleme	-11.2371
▁keinesfalls	-11.2371
▁Mitbürger	-11.2373
figur	-11.2374
En	-11.2375
▁Rechenschaft	-11.2377
▁May	-11.2379
▁ausgestellt	-11.238
59	-11.2383
▁Konferenzen	-11.2384
▁Rande	-11.2386
▁Gründer	-11.2387
beratung	-11.2388
▁Hauptziel	-11.2389
gehalt	-11.239
betrag	-11.2391
Test	-11.2394
sko	-11.2397
▁registrieren	-11.2399
Paket	-11.2399
▁Chip	-11.24
▁renovierte	-11.24
Protokoll	-11.24
EM	-11.2401
▁Weltbank	-11.2402
▁Mannschaft	-11.2403
Leistungs	-11.2404
▁bedenken	-11.2404
liefer	-11.2406
▁Black	-11.2409
wunder	-11.2409
Ländern	-11.241
▁versetzt	-11.241
inen	-11.241
▁Echtzeit	-11.2411
▁Einzelnen	-11.2412
▁Ansätze	-11.2415
▁exzellente	-11.2419
OM	-11.2421
▁Vorgänger	-11.2421
72	-11.2422
▁problematisch	-11.2423
▁derartigen	-11.2426
▁SP	-11.2426
▁Anregungen	-11.2428
NET	-11.2429
skontrolle	-11.243
▁Spuren	-11.2431
information	-11.2433
▁Job	-11.2433
▁700	-11.2436
▁Playa	-11.2437
▁Kathedrale	-11.2438
lock	-11.2439
▁str	-11.244
▁erstaunlich	-11.244
Star	-11.2441
▁Kreditkarten	-11.2443
▁Ser	-11.2445
▁Module	-11.2446
▁unverzichtbar	-11.245
▁Ernennung	-11.245
▁spüren	-11.2451
steck	-11.2451
▁zügig	-11.2453
76	-11.2454
alisierung	-11.2456
▁Skript	-11.2456
▁hiermit	-11.2459
▁schlimmer	-11.2461
▁Breite	-11.2461
▁GE	-11.2462
icht	-11.2462
▁Vol	-11.2464
manager	-11.2466
▁Felsen	-11.2466
▁gesetzlich	-11.2466
▁gestellten	-11.2466
2010	-11.2466
▁beeinträchtigt	-11.2467
aufenthalt	-11.2467
status	-11.2468
Haushalt	-11.2473
una	-11.2476
▁Bug	-11.2477
EWG	-11.2478
▁offenkundig	-11.2479
brücke	-11.2479
▁starb	-11.2479
gung	-11.2479
▁Grundstück	-11.248
▁Verlag	-11.2481
ación	-11.2483
▁Ecke	-11.2484
▁Bestell	-11.2487
▁Gute	-11.2488
▁beantragt	-11.249
▁Arbeitskräfte	-11.2492
mitteln	-11.2492
▁br	-11.2493
▁heftig	-11.2496
▁Vorsitzender	-11.2497
▁erneuerbare	-11.2498
▁Subventionen	-11.2498
▁abzielt	-11.2501
tec	-11.2501
▁Gestalt	-11.2503
▁offer	-11.2504
▁li	-11.2504
▁irgendeine	-11.2504
▁Gewerkschaften	-11.2504
reit	-11.2506
▁Bewegungen	-11.2508
ating	-11.2509
▁Verträgen	-11.2509
▁Besuchern	-11.251
behörden	-11.2513
▁Techniken	-11.2513
▁enorm	-11.2514
▁Fernseher	-11.2517
▁tätigen	-11.2519
eva	-11.2519
▁analysiert	-11.2524
EC	-11.2524
▁relevanten	-11.2525
▁Einfuhr	-11.2526
▁Account	-11.2532
▁high	-11.2532
steuern	-11.2532
▁small	-11.2535
▁Verzögerung	-11.2536
▁Arbeitsweise	-11.2536
▁Erkenntnisse	-11.2538
▁Kohäsion	-11.2544
Car	-11.2546
▁falschen	-11.2546
sar	-11.2546
▁Wiener	-11.2549
▁Flugzeuge	-11.255
▁verfasst	-11.2552
sstandards	-11.2557
▁zwingen	-11.2559
Jedoch	-11.2561
▁Canon	-11.2562
▁Cra	-11.2565
Po	-11.2566
▁vorrangig	-11.2566
tim	-11.2567
▁Wohlbefinden	-11.2569
▁Kohärenz	-11.2569
betriebe	-11.2574
volumen	-11.2575
▁iPhone	-11.2575
hard	-11.2578
▁rot	-11.2579
▁Bro	-11.2579
▁Simbabwe	-11.2581
▁aufeinander	-11.2583
▁Erscheinung	-11.2585
▁Halle	-11.2585
▁Statistik	-11.2585
▁gelang	-11.2587
▁schlechten	-11.2588
▁gemessen	-11.2588
med	-11.2589
▁Os	-11.259
▁geltend	-11.259
▁Hunde	-11.2591
▁angeben	-11.2591
▁Albanien	-11.2592
▁modernes	-11.2596
Ri	-11.2597
▁Network	-11.2599
energie	-11.2599
Ad	-11.26
▁Brüder	-11.2601
sagen	-11.2601
▁ausgerüstet	-11.2602
46	-11.2603
▁ungeachtet	-11.2603
▁Tempel	-11.2604
▁einsetzt	-11.2605
▁when	-11.2605
▁gro	-11.2607
profil	-11.2607
▁Gerichtshofs	-11.2609
▁ausgeübt	-11.2609
▁nennt	-11.2609
▁einzigartig	-11.261
▁Randlage	-11.2612
▁1,5	-11.2613
▁Standpunkte	-11.2614
▁verschiedensten	-11.2614
▁nu	-11.2614
▁Instanz	-11.2615
▁einzelner	-11.2618
geb	-11.262
▁getestet	-11.2621
▁64	-11.2621
▁Ei	-11.2625
▁werte	-11.2626
▁Weihnachts	-11.2626
▁Whirlpool	-11.2626
▁nah	-11.2628
▁(3	-11.263
▁verlängert	-11.2632
▁reiche	-11.2633
▁Lebensmitteln	-11.2635
Sta	-11.2636
▁Wahrnehmung	-11.2638
▁Dienstag	-11.264
▁MA	-11.2643
▁setzte	-11.2645
▁ve	-11.2645
▁Silber	-11.2646
führt	-11.2647
▁äußerster	-11.2649
▁Ernährungs	-11.2649
▁bestens	-11.2649
▁BMW	-11.2649
Hotels	-11.2652
▁App	-11.2654
gericht	-11.2654
arm	-11.2657
straßen	-11.2658
▁Mas	-11.2658
▁erzielten	-11.2659
▁Leder	-11.266
▁Oliven	-11.2661
▁Christen	-11.2661
▁Aufenthalts	-11.2663
▁stehende	-11.2663
▁dein	-11.2665
komplex	-11.2666
interessen	-11.2666
▁scharf	-11.2667
▁trennen	-11.2668
smethoden	-11.2668
uth	-11.2669
▁01	-11.2672
▁Sun	-11.2675
ssystems	-11.2675
spannung	-11.2677
▁abgehalten	-11.2679
kern	-11.2679
Dr	-11.268
gon	-11.268
Raum	-11.2684
lier	-11.2688
▁zwingend	-11.2695
▁Einwohnern	-11.2697
ckel	-11.2698
gestaltung	-11.2701
▁lohnt	-11.2702
▁schwedische	-11.2702
▁Reaktionen	-11.2708
▁Fra	-11.2708
anda	-11.271
né	-11.2711
▁Andere	-11.2711
ologische	-11.2713
▁Schlußfolgerung	-11.2713
▁arbeitete	-11.2713
▁wenigstens	-11.2714
▁Ratsvorsitzes	-11.2714
club	-11.2716
feuer	-11.2721
▁Av	-11.2725
▁Rindfleisch	-11.2725
▁Roh	-11.2727
ül	-11.2729
▁Argentinien	-11.273
instrumente	-11.2734
1)	-11.2736
!!	-11.2736
▁Aufnahmen	-11.2739
▁Leser	-11.2739
▁Neues	-11.2742
▁wöchentlich	-11.2742
sorten	-11.2743
▁startet	-11.2743
▁aufweisen	-11.2744
▁met	-11.2745
ressourcen	-11.2745
▁gefährlichen	-11.2754
▁populär	-11.2759
▁brutal	-11.2759
verhältnis	-11.2761
▁gesunden	-11.2761
▁Gummi	-11.2766
▁ethnischen	-11.2769
▁Trennung	-11.2769
tis	-11.2771
iges	-11.2771
▁Übersetzer	-11.2771
▁star	-11.2772
aj	-11.2773
▁mündliche	-11.2775
▁Monats	-11.2776
▁Plus	-11.2776
uz	-11.2777
▁PS	-11.2779
Abkommen	-11.278
▁erreichte	-11.2781
▁freundlichen	-11.2781
ule	-11.2782
ALE	-11.2786
▁vorne	-11.2787
▁Rezept	-11.2788
stufen	-11.2788
▁Höhepunkt	-11.2788
▁zahlreicher	-11.2788
▁denselben	-11.2789
zunehmen	-11.2789
schutzes	-11.2789
▁tiefe	-11.279
würdig	-11.2794
güter	-11.2794
▁geistige	-11.2794
▁Gleich	-11.2798
▁Eisen	-11.2798
300	-11.2806
▁natur	-11.2809
lick	-11.2809
▁Control	-11.2809
Oder	-11.2811
))	-11.2812
vil	-11.2812
▁verstoßen	-11.2812
▁grundlegend	-11.2812
Emissionen	-11.2813
pra	-11.2817
▁gleicher	-11.2818
sky	-11.2818
▁ap	-11.2818
old	-11.2818
▁attraktive	-11.2819
▁verhandeln	-11.2819
▁Protokolls	-11.282
▁deutscher	-11.2822
▁vorherigen	-11.2822
▁greifen	-11.2825
yn	-11.2826
▁Pakt	-11.2827
house	-11.2827
rry	-11.2828
▁verhalten	-11.2831
▁standen	-11.2832
▁beseitigt	-11.2835
Mitglieder	-11.2835
▁Palma	-11.2836
smodell	-11.2838
▁aufgehoben	-11.2838
▁angehen	-11.284
▁Erdbeben	-11.2841
▁Kino	-11.2842
▁Gerichts	-11.2843
▁Far	-11.2845
▁off	-11.2845
▁Ali	-11.2845
▁VER	-11.2845
▁strikt	-11.2847
▁Käse	-11.2848
▁Geburtstag	-11.2853
wahr	-11.2856
▁verehrten	-11.2857
▁Architekten	-11.2859
▁steckt	-11.286
▁Gefangenen	-11.2861
▁einzubeziehen	-11.2865
▁passen	-11.2868
lla	-11.2869
▁Fragestunde	-11.2872
stream	-11.2873
▁Ausfahrt	-11.2875
▁Übergangs	-11.2875
▁Bedingung	-11.2875
▁Ungleichgewicht	-11.2877
▁Track	-11.2877
hafen	-11.2878
Schon	-11.288
▁veranstaltet	-11.2882
▁indirekt	-11.2884
erin	-11.2887
▁Israels	-11.2889
zustand	-11.2889
▁Bri	-11.2889
▁befürworte	-11.2891
meter	-11.2893
▁bekanntesten	-11.2894
rufen	-11.2894
▁Gross	-11.2896
disziplin	-11.29
▁trans	-11.2903
pan	-11.2903
▁France	-11.2905
▁Stu	-11.2905
▁zeitgenössische	-11.2905
▁Träger	-11.2906
▁intensive	-11.2906
▁Schluß	-11.2909
▁Sau	-11.2909
▁Mus	-11.291
▁Abfahrt	-11.2913
▁USS	-11.2915
▁sämtlichen	-11.2915
mangel	-11.2917
ject	-11.2917
▁einzurichten	-11.2918
▁Fracht	-11.2919
▁Plugin	-11.2919
▁portugiesischen	-11.292
Sind	-11.2921
tätig	-11.2928
tta	-11.2929
rak	-11.2933
kammer	-11.2934
▁Höhen	-11.2934
ions	-11.2935
onne	-11.2935
konflikt	-11.2935
ador	-11.2936
iro	-11.2937
▁Beratungs	-11.2941
▁Net	-11.2942
▁Café	-11.2948
▁Tar	-11.2948
▁Gesprächen	-11.2949
stärke	-11.2953
▁errichten	-11.2953
spunkt	-11.2956
▁finanziell	-11.2958
ausstellung	-11.2958
cle	-11.2958
▁Vietnam	-11.2959
▁Ozean	-11.2959
software	-11.2962
EI	-11.2963
▁Verbrauch	-11.2967
▁Mitgliedsländer	-11.2971
▁Transaktionen	-11.2972
▁unnötig	-11.2973
bri	-11.2974
▁Auslieferung	-11.2975
gua	-11.2978
▁zahlt	-11.2979
▁Rechtsrahmen	-11.2981
▁Ausstellungen	-11.2982
schluß	-11.2983
▁beobachtet	-11.2983
▁bewundern	-11.2983
▁bewirkt	-11.2985
▁Viel	-11.2986
▁Mitwirkung	-11.2986
▁Maus	-11.2988
▁Trends	-11.2988
ziele	-11.2988
▁moralische	-11.2989
▁auszuüben	-11.2989
▁sc	-11.2992
▁ältesten	-11.2993
▁wofür	-11.2995
▁Begriffe	-11.2995
katastrophen	-11.2996
cz	-11.2996
spezifische	-11.2996
▁Komm	-11.2997
▁Effekte	-11.2998
formation	-11.3
▁Kol	-11.3001
▁jahrelang	-11.3001
▁dynamische	-11.3002
New	-11.3002
▁top	-11.3004
▁Feder	-11.3004
nas	-11.3005
▁Prof	-11.3006
Gleichbehandlung	-11.3006
▁gewählte	-11.3007
uten	-11.3011
▁Room	-11.3011
▁Also	-11.3013
▁abend	-11.3013
▁akzeptabel	-11.3013
fällt	-11.3014
meisterschaft	-11.3015
forum	-11.3015
▁Dia	-11.3016
▁eingebaut	-11.3016
Indem	-11.3016
▁zerstören	-11.3019
rischen	-11.3019
▁durchsetzen	-11.3019
▁anstelle	-11.3021
▁Wird	-11.3022
▁Son	-11.3024
▁verwirklicht	-11.3025
▁Korea	-11.3027
▁irgendeiner	-11.3027
IR	-11.3027
▁lebenden	-11.3028
Gesundheitswesen	-11.303
grenze	-11.3031
▁löst	-11.3031
▁verschärft	-11.3031
▁Mobile	-11.3033
▁beach	-11.3033
aktionen	-11.3036
▁fair	-11.3036
fertigung	-11.3036
▁Tendenz	-11.3037
▁Verstöße	-11.3038
ppe	-11.3039
▁beitreten	-11.304
▁schlage	-11.304
▁Terminal	-11.3041
▁gefangen	-11.3042
▁zeichnen	-11.3042
▁Anruf	-11.3044
▁Rollen	-11.3046
dler	-11.3048
It	-11.3049
entwurf	-11.3049
veranstaltungen	-11.305
check	-11.3051
skraft	-11.3052
schreibung	-11.3053
light	-11.3055
ра	-11.3056
3)	-11.3057
92	-11.3059
heil	-11.3059
Sicher	-11.306
▁Einfluß	-11.3062
Mittel	-11.3063
lis	-11.3064
▁Ul	-11.3065
▁Libyen	-11.3067
HU	-11.3067
Di	-11.3068
Spiel	-11.307
stände	-11.307
▁schwerer	-11.3071
wieweit	-11.3071
anwendungen	-11.3071
▁vertrauen	-11.3072
▁fehlende	-11.3073
▁schw	-11.3073
▁zunehmenden	-11.3073
tourismus	-11.3076
▁idealer	-11.3078
▁Zuschauer	-11.3079
▁Sowjetunion	-11.3079
rücken	-11.308
▁deinen	-11.3081
tech	-11.3082
▁Haushaltsjahr	-11.3083
pflanzen	-11.3084
▁gäbe	-11.3085
▁Anweisungen	-11.3085
▁Thailand	-11.3086
▁geräumige	-11.3087
▁unsicher	-11.3089
▁Masse	-11.309
▁Corporate	-11.3091
▁befand	-11.3092
▁plant	-11.3094
ats	-11.3095
▁strukturiert	-11.3098
its	-11.3098
büro	-11.3099
handlung	-11.31
▁bist	-11.3102
haupt	-11.3102
ition	-11.3102
▁Central	-11.3103
▁Wikitravel	-11.3103
▁web	-11.3103
▁Besonderheiten	-11.3103
▁Bewertungen	-11.3105
bekämpfung	-11.3105
▁unterliegt	-11.3105
▁Übersetzungen	-11.3106
anti	-11.3107
▁gingen	-11.3108
kos	-11.311
▁idealen	-11.3112
ро	-11.3112
▁Buffet	-11.3112
▁Vielleicht	-11.3115
led	-11.3115
▁Frucht	-11.3116
▁Quartal	-11.3117
zonen	-11.312
▁LateRooms	-11.3121
▁Dan	-11.3122
▁Mitglieds	-11.3122
▁Finger	-11.3126
▁Beendigung	-11.3127
▁doppelt	-11.3127
▁vielfach	-11.313
ließ	-11.3132
srechte	-11.3134
zahlung	-11.3136
och	-11.3137
▁hört	-11.3137
▁Sind	-11.3138
sammenzuarbeiten	-11.3139
▁Ausflug	-11.3139
▁Sortiment	-11.3139
▁gemütlich	-11.314
▁auto	-11.314
▁Vorsicht	-11.314
▁fliegen	-11.3141
▁gerufen	-11.3141
▁Früh	-11.3143
▁Absichten	-11.3144
charakteristisch	-11.3145
▁Komplettpreise	-11.3145
speicher	-11.3149
▁Finanzmärkte	-11.3149
tung	-11.315
EST	-11.3151
▁Zusammenbruch	-11.3151
tek	-11.3152
▁Frequenz	-11.3155
labor	-11.3155
▁access	-11.3157
▁korrigieren	-11.3157
▁vierten	-11.3158
wissenschaften	-11.316
▁their	-11.316
▁korrekte	-11.3165
▁bescheiden	-11.3165
▁kompletten	-11.3168
▁Nachteil	-11.3169
▁Szene	-11.3175
▁Beitrittsländer	-11.3176
▁AC	-11.3178
matisch	-11.3179
▁nette	-11.3181
▁Grill	-11.3181
export	-11.3182
▁friedlichen	-11.3182
▁za	-11.3182
▁breiter	-11.3182
▁Lob	-11.3184
▁definitiv	-11.3187
▁schien	-11.3188
▁ueber	-11.3189
zuweisen	-11.3192
▁Community	-11.3192
▁Perspektiven	-11.3193
▁gelöscht	-11.3193
▁verleiht	-11.3194
zip	-11.3195
▁eingereichten	-11.3196
vid	-11.32
▁Wolf	-11.3201
▁bereitzustellen	-11.3201
▁Siedlung	-11.3202
▁You	-11.3203
▁günstiger	-11.3204
▁Haushaltsplans	-11.3205
aufrechterhalten	-11.3206
▁freier	-11.3208
Ho	-11.3208
▁eingerichteten	-11.3209
opp	-11.321
▁Annäherung	-11.3212
▁Kolo	-11.3213
Liste	-11.3214
▁wirksamen	-11.3215
wachen	-11.3215
▁Ausfuhr	-11.3217
▁restaurant	-11.3217
kinder	-11.3219
ffe	-11.322
▁Single	-11.3224
bet	-11.3226
▁Ereignissen	-11.3226
▁het	-11.3229
▁Governance	-11.323
▁Darum	-11.3233
flüge	-11.3233
▁malerischen	-11.3235
breite	-11.3237
▁EVP	-11.3238
ecke	-11.3239
saustausch	-11.324
▁Schnitt	-11.3241
Systeme	-11.3242
▁Mailand	-11.3242
▁Inneres	-11.3243
qual	-11.3245
logen	-11.3246
▁Mad	-11.3247
▁gewaltige	-11.3251
▁Gibt	-11.3253
▁Release	-11.3254
▁Befreiung	-11.3254
esten	-11.3255
▁reale	-11.3257
▁Binnen	-11.3258
▁Vorsitzende	-11.3258
ogen	-11.3258
▁Instruments	-11.3259
▁einiges	-11.3259
▁berühmt	-11.326
▁Internetseite	-11.326
▁Music	-11.3262
▁kreative	-11.3262
sein	-11.3263
Hierbei	-11.3263
▁deutlicher	-11.3264
▁Anleitung	-11.3266
▁Norwegen	-11.3267
gesandt	-11.3267
▁Abstimmungen	-11.3269
geist	-11.3269
▁Messung	-11.3269
58	-11.327
▁Salzburg	-11.3271
Stattdessen	-11.3273
▁Integrität	-11.3273
0%	-11.3273
▁Kanäle	-11.3273
▁Kal	-11.3273
▁Stra	-11.3274
▁Ausgangs	-11.3277
stimm	-11.3279
▁Betrifft	-11.3279
▁schwarz	-11.3283
sz	-11.3287
ui	-11.3288
▁verschoben	-11.3291
▁widmet	-11.3291
▁Halbinsel	-11.3292
▁Sorgfalt	-11.3292
▁diesmal	-11.3292
Zwischen	-11.3293
▁Erwachsenen	-11.3295
non	-11.3295
▁meint	-11.3296
sc	-11.33
▁breites	-11.3301
TRA	-11.3301
▁mon	-11.3302
Christdemokraten	-11.3302
▁Nachfolger	-11.3302
▁Museums	-11.3302
wärme	-11.3303
▁Premium	-11.3303
erstattern	-11.3304
▁most	-11.3304
▁fügt	-11.3305
list	-11.3306
▁Vorwand	-11.3307
tos	-11.3309
wachsen	-11.3309
▁Abwicklung	-11.331
gemacht	-11.3312
▁Schalt	-11.3312
▁untergraben	-11.3314
▁Arena	-11.3316
halter	-11.3319
....	-11.332
▁ehrgeizige	-11.3321
▁Ce	-11.3322
▁James	-11.3323
aten	-11.3327
▁gesetzliche	-11.3327
▁Leg	-11.3327
▁anbietet	-11.3328
▁Nichtregierungs	-11.3328
geber	-11.3329
bol	-11.3332
▁vorhandene	-11.3332
▁müsse	-11.3333
▁Legitimität	-11.3334
elekommunikation	-11.3339
▁Auftritt	-11.3339
mond	-11.334
▁Erdöl	-11.3341
ray	-11.3341
▁Appell	-11.3343
ologischen	-11.3346
▁genügt	-11.3347
▁Evaluierung	-11.3347
▁umfassender	-11.3347
▁Friedensprozess	-11.3349
messen	-11.3349
märkten	-11.3352
▁bus	-11.3353
kanal	-11.3354
▁verschieben	-11.3356
▁ausgewogenen	-11.3356
Website	-11.3356
▁King	-11.3356
▁Temperaturen	-11.3356
▁starkes	-11.3357
▁Reihenfolge	-11.3359
▁Jahrzehnte	-11.3361
▁Geräten	-11.3361
ufer	-11.3366
▁langjährige	-11.3369
▁durchgesetzt	-11.3371
▁Ros	-11.3371
Produkte	-11.3375
▁vorgeschrieben	-11.3375
▁American	-11.3376
ierende	-11.3378
Fa	-11.338
▁begreifen	-11.338
scht	-11.3381
▁Gegenstände	-11.3382
54	-11.3382
Auto	-11.3383
▁nördlichen	-11.3385
sucht	-11.3388
▁Genf	-11.3389
wick	-11.339
erlebnis	-11.3393
sformen	-11.3394
steigerung	-11.3398
freien	-11.34
▁geholfen	-11.3402
▁Darlehen	-11.3402
▁Grundfreiheiten	-11.3402
▁besticht	-11.3402
haltige	-11.3403
▁ce	-11.3406
▁Warnung	-11.3407
▁erweiterte	-11.3408
▁geklärt	-11.3409
▁Kl	-11.3409
▁erschien	-11.3411
▁Beweise	-11.3411
kam	-11.3411
ín	-11.3414
▁Opfern	-11.3414
▁Erneuerung	-11.3415
▁UNESCO	-11.3415
oo	-11.3415
zusetzen	-11.3415
gal	-11.3416
etti	-11.3417
▁zertifiziert	-11.3419
▁Bedien	-11.3419
▁koordinieren	-11.3421
▁Königs	-11.3422
rungen	-11.3424
▁Autonomie	-11.3426
protokoll	-11.3427
▁ermittelt	-11.3428
▁müßte	-11.3431
▁Verzögerungen	-11.3432
▁verliert	-11.3435
▁geladen	-11.3435
▁Analysen	-11.3437
▁worauf	-11.344
▁wenigsten	-11.3441
bearbeitung	-11.3442
▁Call	-11.3444
rates	-11.3445
▁Effektivität	-11.3446
hren	-11.3446
▁art	-11.3447
bürger	-11.3447
▁"[	-11.3449
▁AB	-11.3449
fahrten	-11.3452
wer	-11.3454
▁traditionell	-11.3454
▁ME	-11.3457
▁namentlich	-11.3458
▁Hard	-11.3461
▁Segment	-11.3461
▁Gene	-11.3462
▁japanischen	-11.3462
▁Disk	-11.3463
▁ermitteln	-11.3465
▁durchgeführten	-11.3465
ader	-11.3465
▁belgischen	-11.3466
üß	-11.3468
▁Jahrestag	-11.347
▁Aufsichtsrat	-11.3471
gio	-11.3471
▁Qui	-11.3473
ua	-11.3474
▁XP	-11.3477
▁verschwinden	-11.3477
ital	-11.3477
▁Besonders	-11.3479
mauer	-11.3479
Beachten	-11.3481
Wählen	-11.3483
auswahl	-11.3483
93	-11.3484
▁Sky	-11.3487
▁religiöse	-11.3488
vier	-11.3491
▁Nuklear	-11.3496
▁44	-11.3496
transatlantische	-11.3502
Gastfreundschaft	-11.3502
▁Indonesien	-11.3502
▁Vermeidung	-11.3502
Folglich	-11.3502
▁zeit	-11.3502
▁Gall	-11.3506
▁who	-11.3507
prä	-11.3507
ally	-11.3507
▁habt	-11.3511
übergreifende	-11.3515
▁Chemie	-11.3515
begriff	-11.3516
▁einziges	-11.3517
▁angeführt	-11.3519
▁Lust	-11.3522
▁junger	-11.3522
▁Flüge	-11.3524
institutionen	-11.3525
▁Cons	-11.3525
▁Km	-11.3525
AI	-11.3526
vollen	-11.3527
häusern	-11.3527
▁Textes	-11.353
▁43	-11.353
▁elegant	-11.3531
▁Miss	-11.3533
▁Gay	-11.3534
▁jo	-11.3534
▁Sel	-11.3534
dauerlicherweise	-11.3535
▁Spielraum	-11.3536
iven	-11.3538
▁Song	-11.3538
▁zugeschnitten	-11.3539
▁jährliche	-11.354
ierenden	-11.354
kü	-11.354
fr	-11.3543
Genau	-11.3543
hnt	-11.3544
▁Eintrag	-11.3548
▁make	-11.3549
messe	-11.3551
erfolg	-11.3551
▁unterstreicht	-11.3552
▁Überraschung	-11.3552
▁Gl	-11.3554
▁chambres	-11.3557
▁Rohr	-11.3563
familie	-11.3563
▁sozusagen	-11.3564
▁häufiger	-11.3564
▁ignorieren	-11.3565
▁Blau	-11.3565
becken	-11.3566
serie	-11.3569
üll	-11.3569
lect	-11.357
▁schöner	-11.3571
▁zutiefst	-11.3571
▁Korrektur	-11.3571
Mark	-11.3575
▁inhaltlich	-11.3575
▁Auftrags	-11.3576
▁Anleger	-11.3579
Bus	-11.358
▁39	-11.358
▁Golfplatz	-11.3581
▁Louis	-11.3582
▁Tabellen	-11.3582
▁mehrerer	-11.3582
tun	-11.3583
▁deutsch	-11.3584
▁Gleichheit	-11.3585
▁zuverlässige	-11.3585
▁beliebten	-11.3587
▁kompliziert	-11.3592
TH	-11.3594
tica	-11.3595
▁Geschäftsreisen	-11.3595
▁betreut	-11.3596
▁Multimedia	-11.3597
▁Rein	-11.3597
NS	-11.3598
haut	-11.3603
▁Rabatt	-11.3603
▁gefertigt	-11.3604
ierbar	-11.3604
▁1970	-11.3605
▁Können	-11.3606
▁Em	-11.3607
▁Hongkong	-11.3609
▁zwangsläufig	-11.3609
äl	-11.3609
▁feiern	-11.361
ENT	-11.361
▁konstruktiven	-11.3611
verteilung	-11.3612
▁weitergegeben	-11.3613
lack	-11.3614
strand	-11.3614
▁Hor	-11.3616
▁Tunesien	-11.3622
▁kg	-11.3622
▁strengen	-11.3622
▁massive	-11.3622
▁mehrmals	-11.3622
▁bereitstellen	-11.3623
Angebot	-11.3623
kirche	-11.3626
▁rechtlich	-11.3628
▁versprochen	-11.3628
▁Jagd	-11.3628
▁Schn	-11.3628
▁Tatsachen	-11.3631
▁biologischen	-11.3637
igkeiten	-11.3637
▁beeindruckende	-11.3639
▁Day	-11.364
▁ungarischen	-11.3643
▁untereinander	-11.3644
▁ac	-11.3646
▁Luftverkehrs	-11.3646
AF	-11.3647
leb	-11.3648
▁Nor	-11.3649
reist	-11.3651
▁Kluft	-11.3651
▁dachte	-11.3653
▁Vista	-11.3653
▁Demokratisch	-11.3654
überwachung	-11.3654
▁Gesichtspunkt	-11.3654
▁exakt	-11.3656
CH	-11.3659
sia	-11.3661
FS	-11.3661
▁Friedrich	-11.3661
rá	-11.3662
▁Fokus	-11.3663
post	-11.3664
▁Menschenhandel	-11.3666
▁Animation	-11.3666
▁Treiber	-11.3669
▁hinzuweisen	-11.3669
srechts	-11.367
anta	-11.3672
▁ser	-11.3673
well	-11.3677
Statt	-11.368
anischen	-11.3681
▁Nächte	-11.3686
▁Streitkräfte	-11.3686
▁Gültigkeit	-11.3687
▁beliebt	-11.3688
ress	-11.3688
▁AS	-11.3689
▁Register	-11.3693
beginn	-11.3693
▁Schild	-11.3694
▁Transit	-11.3694
▁bot	-11.3694
▁Tur	-11.3695
▁Autorität	-11.3695
less	-11.3696
▁bemerken	-11.3698
▁minutes	-11.3699
▁Defizite	-11.37
▁Ram	-11.37
▁Frühling	-11.3701
chef	-11.3704
▁motiviert	-11.3705
▁Fusion	-11.3705
▁Wellen	-11.3706
▁unvergesslichen	-11.3706
sichtig	-11.3707
▁bedeutendsten	-11.3707
aro	-11.3707
▁leistungsstarke	-11.3711
▁spürbar	-11.3711
▁Campingplatz	-11.3712
▁(4	-11.3712
Markt	-11.3715
▁Verkehrsmittel	-11.3717
Tour	-11.3719
▁Stellenwert	-11.3719
ct	-11.3726
▁Privatisierung	-11.3726
Manchmal	-11.373
Zugleich	-11.3731
ART	-11.3732
▁Verhandlung	-11.3733
finden	-11.3737
▁VI	-11.3738
sektors	-11.3739
▁internet	-11.3743
▁Erhebung	-11.3744
▁Regimes	-11.3745
Programme	-11.3748
▁Haben	-11.3748
wehr	-11.3752
▁IM	-11.3752
tradition	-11.3755
PP	-11.3756
▁Konsumenten	-11.3756
▁ausgedrückt	-11.3756
▁School	-11.3756
▁Aktionsprogramm	-11.3757
▁Nachweis	-11.3758
klick	-11.3758
cat	-11.3759
▁Kopie	-11.3761
▁hilfsbereit	-11.3762
▁Level	-11.3765
kö	-11.3765
▁port	-11.3767
▁Erreichen	-11.3768
▁Potential	-11.3769
sson	-11.3769
▁Verpackung	-11.3771
▁vorgebracht	-11.3772
▁finanzieller	-11.3773
▁Logo	-11.3773
▁allgemeiner	-11.3774
▁separate	-11.3774
mix	-11.3775
▁Schwester	-11.3775
▁Vorbereitungen	-11.3776
Ru	-11.3776
▁wozu	-11.3776
▁flach	-11.3778
netzwerk	-11.3779
fund	-11.3781
Internet	-11.3781
asi	-11.3782
▁Krankenhaus	-11.3783
▁fiel	-11.3784
▁pri	-11.3785
▁Fett	-11.3786
▁unabdingbar	-11.3788
▁Dol	-11.3788
▁Viren	-11.3789
▁MS	-11.379
aka	-11.3791
Beide	-11.3791
kommission	-11.3793
▁Generalsekretär	-11.3795
▁fünfzehn	-11.3795
▁Anzeigen	-11.3796
scher	-11.3797
reinigung	-11.3801
smethode	-11.3802
fleisch	-11.3804
vorhaben	-11.3804
▁Report	-11.3805
▁price	-11.3806
kov	-11.3807
▁gescheitert	-11.3807
▁ausgeglichen	-11.3808
▁Vorgang	-11.381
sprachig	-11.3813
▁ausführliche	-11.3814
▁Peking	-11.3815
ière	-11.3819
▁Partnerschaften	-11.3819
rio	-11.382
▁Angesichts	-11.3823
▁Zellen	-11.3823
▁vorangegangenen	-11.3824
ail	-11.3825
▁Label	-11.3826
▁Resultat	-11.3827
gefühl	-11.3827
▁beachtet	-11.3827
▁veröffentlichte	-11.3827
▁äußert	-11.3833
Hinsichtlich	-11.3834
dr	-11.3834
▁Eu	-11.3835
▁verbindlich	-11.3835
▁his	-11.3836
▁Roll	-11.3837
▁bloß	-11.3838
▁überraschend	-11.3838
▁treiben	-11.3839
▁Mix	-11.3839
▁Freien	-11.3839
▁gefolgt	-11.384
▁Bike	-11.3843
▁Abfälle	-11.3843
▁gewiss	-11.3845
▁gewohnt	-11.3846
▁internationales	-11.3847
▁unmittelbaren	-11.3848
einsatz	-11.3849
▁fein	-11.385
▁stärkeren	-11.3851
▁Ganzes	-11.3856
▁Noch	-11.3857
lösen	-11.3858
uni	-11.3859
bilanz	-11.386
▁schwach	-11.3861
▁objektiv	-11.3861
▁Marine	-11.3862
▁Print	-11.3863
operation	-11.3865
▁Aufstellung	-11.3865
▁Nordkorea	-11.3866
▁Golden	-11.3868
▁flexibler	-11.3869
▁englische	-11.387
sanlagen	-11.387
▁vorschlägt	-11.3871
heiten	-11.3875
▁sofortige	-11.3876
▁Begrenzung	-11.3879
▁Errungenschaft	-11.3879
▁Alles	-11.3879
Kein	-11.388
▁eigen	-11.3882
camp	-11.3883
assi	-11.3883
▁Palast	-11.3884
▁back	-11.3884
▁Richard	-11.3888
erfahrung	-11.3889
▁warmen	-11.389
▁Düsseldorf	-11.3892
▁Rekord	-11.3892
senkung	-11.3892
▁hinausgehen	-11.3892
▁j	-11.3895
▁Toleranz	-11.3899
usch	-11.39
lk	-11.3901
tend	-11.3902
stat	-11.3904
Ch	-11.3904
▁schnelles	-11.3906
▁Gaza	-11.3906
▁Basel	-11.3907
▁Lind	-11.3908
▁Ant	-11.3908
▁Key	-11.391
▁biologische	-11.391
prozesse	-11.3911
▁umstritten	-11.3911
▁Impulse	-11.3912
oi	-11.3912
▁Poly	-11.3916
▁primär	-11.3918
▁wahrnehmen	-11.3919
ausschuß	-11.3919
▁Sea	-11.3921
▁Zwecken	-11.3921
▁zumal	-11.3922
▁tout	-11.3923
mü	-11.3923
▁Schottland	-11.3925
▁formell	-11.3927
game	-11.3929
▁Wagen	-11.393
56	-11.393
▁größtenteils	-11.3931
gger	-11.3932
▁è	-11.3932
▁vertraglich	-11.3933
▁Beträge	-11.3934
▁hängen	-11.3935
bereitschaft	-11.3936
▁Flotte	-11.3937
▁profitiert	-11.3938
▁erlangt	-11.3938
sprobleme	-11.3939
▁hinterlassen	-11.3939
rk	-11.3941
cre	-11.3943
▁than	-11.3943
erie	-11.3943
▁Tschetschenien	-11.3944
tausch	-11.3948
▁Vergabe	-11.3948
▁Mol	-11.3952
Neue	-11.3954
▁Tickets	-11.3955
gewalt	-11.3957
pr	-11.3957
▁Wechselkurs	-11.396
fabrik	-11.396
▁Organen	-11.3962
▁frühere	-11.3963
▁Zielsetzung	-11.3964
▁Chemikalien	-11.3964
▁begrenzte	-11.3964
▁verbieten	-11.3965
▁gemeldet	-11.3966
vertreter	-11.3966
▁befreien	-11.3968
österreichischen	-11.3969
▁Serien	-11.3969
▁harmonisiert	-11.397
leute	-11.3971
▁unverbindlich	-11.3972
▁decken	-11.3975
tliche	-11.3976
▁app	-11.3977
▁Drucker	-11.3978
▁Einwände	-11.398
zuführen	-11.3982
GB	-11.3983
Linux	-11.3983
▁blockiert	-11.3984
▁ehe	-11.3984
lio	-11.3985
▁frischen	-11.3985
kus	-11.3986
▁Nieder	-11.399
stan	-11.3991
▁lehnt	-11.3991
iten	-11.3994
▁zugewiesen	-11.3995
▁gesorgt	-11.3997
▁Schwer	-11.3997
▁Wurzeln	-11.3997
▁Joseph	-11.3997
▁schönes	-11.3998
)"	-11.4001
400	-11.4002
▁anspruchsvolle	-11.4003
▁belegen	-11.4003
cer	-11.4003
rede	-11.4003
ufrechterhaltung	-11.4003
▁Parlamentarier	-11.4004
▁Disziplin	-11.4006
▁pur	-11.4007
▁Buchstaben	-11.4008
europäische	-11.401
▁einzustellen	-11.4011
äss	-11.4012
▁national	-11.4013
▁effektiven	-11.4013
▁PRO	-11.4016
macher	-11.4017
▁Prä	-11.4017
▁Konzerte	-11.4018
▁Passagiere	-11.402
aux	-11.402
▁Durchschnitt	-11.402
▁Vermögens	-11.4024
▁Komplex	-11.4024
▁Übereinkommens	-11.4027
ffi	-11.4029
▁Ansprechpartner	-11.403
▁verteidigt	-11.403
▁Kernenergie	-11.403
▁selbständig	-11.4031
▁Source	-11.4031
▁einseitig	-11.4032
▁intelligente	-11.4036
▁absurd	-11.4036
▁tägliche	-11.4038
▁Nationalpark	-11.4038
marken	-11.4038
dern	-11.404
▁Sant	-11.4042
▁Micro	-11.4043
62	-11.4044
DR	-11.4045
UT	-11.4046
eth	-11.4047
bil	-11.4048
▁easy	-11.405
fällig	-11.4051
▁Intel	-11.4051
▁Vorbehalte	-11.4052
▁beantragen	-11.4052
lands	-11.4055
kopf	-11.4056
▁Leipzig	-11.4056
▁logisch	-11.4057
▁Neuigkeiten	-11.4057
etten	-11.4057
▁Bon	-11.4059
Fahr	-11.406
▁scheinbar	-11.4063
nahm	-11.4064
▁Gleiche	-11.4064
▁South	-11.4064
▁effizienten	-11.4065
▁neutral	-11.4068
ergebnisse	-11.4068
▁bedeutsam	-11.4069
▁beeinträchtigen	-11.4069
▁verbreiten	-11.4069
frist	-11.407
▁Diplom	-11.407
▁Liege	-11.4071
▁Layout	-11.4072
Einer	-11.4075
▁Verband	-11.4077
▁Dörfer	-11.4077
▁kompatibel	-11.408
▁Alexander	-11.4083
;"	-11.4085
▁Qualifikation	-11.4089
▁transeuropäisch	-11.409
▁At	-11.4091
HR	-11.4093
nische	-11.4094
▁Foren	-11.4095
Immer	-11.4096
▁Wachstumspakt	-11.4096
sprung	-11.4097
▁Bewerbung	-11.4097
pal	-11.4098
▁geachtet	-11.4103
▁Ly	-11.4104
erzeugnisse	-11.4105
Les	-11.4106
▁Erste	-11.4106
▁Stränden	-11.4108
▁zweimal	-11.4111
5.000	-11.4111
▁beliebige	-11.4112
▁anstreben	-11.4114
▁Kraftfahrzeug	-11.4115
▁Diagnose	-11.4116
berichte	-11.4116
Video	-11.4118
Jo	-11.4119
▁station	-11.412
▁anmelden	-11.412
▁getreten	-11.4123
▁nord	-11.4124
▁anlässlich	-11.4124
Mu	-11.4124
statt	-11.4126
▁Grafiken	-11.4127
▁AN	-11.4128
▁ausgewogene	-11.4129
▁gelegentlich	-11.413
ROM	-11.413
aß	-11.4131
wall	-11.4134
ima	-11.4136
willig	-11.4136
archiv	-11.4136
mt	-11.4138
Entwicklung	-11.4138
länge	-11.4138
61	-11.4139
landes	-11.414
63	-11.4142
uhr	-11.4142
▁Copyright	-11.4143
▁heruntergeladen	-11.4143
▁Immunität	-11.4143
füg	-11.4143
▁unterhalb	-11.4143
rohr	-11.4144
▁mieten	-11.4145
▁Kleidung	-11.4145
reihe	-11.4148
▁bewahrt	-11.4149
▁mod	-11.415
inhaber	-11.4152
▁warm	-11.4153
▁Zufall	-11.4156
geschoss	-11.4156
▁exklusiv	-11.4158
eri	-11.4158
▁galt	-11.4159
zusehen	-11.4159
währung	-11.4162
▁Gelegenheiten	-11.4162
instrument	-11.4163
▁(10	-11.4165
▁Kredite	-11.4165
▁Kommando	-11.4166
abel	-11.4166
dreh	-11.4166
▁Rechtsstaat	-11.4167
▁Haltestelle	-11.4168
▁isoliert	-11.4169
Euro	-11.4171
▁Gewissen	-11.4171
52	-11.4171
Player	-11.4173
▁meistens	-11.4174
fahrzeuge	-11.4176
programmen	-11.4179
verhältnismäßig	-11.418
▁Unterricht	-11.4181
präsidenten	-11.4181
▁fur	-11.4183
▁Franz	-11.4185
lik	-11.4186
▁Geo	-11.4186
▁MO	-11.4189
nger	-11.4191
▁eventuelle	-11.4191
esse	-11.4193
▁Kas	-11.4195
▁Besetzung	-11.4196
enburg	-11.4196
▁intern	-11.4196
kriterien	-11.4198
▁Features	-11.4199
▁Stoff	-11.4199
▁Bill	-11.42
CK	-11.42
▁been	-11.42
cial	-11.4202
▁ordentlich	-11.4202
▁großzügig	-11.4203
Card	-11.4204
▁ga	-11.4204
▁vorkommen	-11.4206
▁Fein	-11.4206
AND	-11.4207
▁Entspannen	-11.4207
▁Oper	-11.4208
▁verwandelt	-11.421
methoden	-11.4211
▁antiken	-11.4212
dic	-11.4214
prüf	-11.4219
▁Behinderungen	-11.4219
Center	-11.422
Shop	-11.4223
▁Doha	-11.4225
Film	-11.4226
sräume	-11.4226
rid	-11.4235
▁Char	-11.4235
insel	-11.4235
▁Ker	-11.4236
▁berührt	-11.4237
▁Hotelzimmer	-11.4237
▁anfangen	-11.4237
▁Fristen	-11.424
▁Fülle	-11.424
rus	-11.4243
▁Inanspruchnahme	-11.4243
▁Paradies	-11.4243
82	-11.4244
▁Portfolio	-11.4244
2009	-11.4251
▁verarbeiten	-11.4252
national	-11.4252
iser	-11.4253
▁Display	-11.4254
▁verfahren	-11.4256
vest	-11.4257
Lösungen	-11.4257
▁visit	-11.4262
▁Gesamtheit	-11.4262
Region	-11.4262
Solange	-11.4263
57	-11.4263
▁belastet	-11.4264
▁85	-11.4265
Egal	-11.4271
▁Substanzen	-11.4274
▁Laufzeit	-11.4276
gramm	-11.4277
▁verbindliche	-11.4278
lem	-11.4279
▁verglichen	-11.4281
▁Umstellung	-11.4282
▁Vortrag	-11.4284
▁bekräftigen	-11.4284
▁klug	-11.4284
▁bedient	-11.4285
▁Tun	-11.4289
▁Dolomiten	-11.4291
char	-11.4291
▁Hunderte	-11.4292
suite	-11.4292
▁Etagen	-11.4293
▁Reden	-11.4294
▁optimalen	-11.4295
schränk	-11.4296
▁Wu	-11.4296
trip	-11.4296
▁Strassen	-11.4298
▁two	-11.43
BI	-11.4301
investitionen	-11.4301
▁Ratspräsidenten	-11.4301
automat	-11.4302
agon	-11.4304
▁betreibt	-11.4304
zieren	-11.4306
▁warme	-11.4307
▁Institute	-11.4307
▁Einheiten	-11.4308
Somit	-11.4308
▁Sozialpolitik	-11.431
Typ	-11.431
▁Residenz	-11.4311
▁first	-11.4311
▁bathroom	-11.4311
▁verhandelt	-11.4311
▁beliebte	-11.4312
BC	-11.4313
▁Säule	-11.4314
▁PR	-11.4314
hne	-11.4315
▁North	-11.4316
▁Schriftsteller	-11.4318
stoffen	-11.4319
sprozeß	-11.432
dokument	-11.432
zuziehen	-11.4321
aw	-11.4323
▁dei	-11.4325
▁Periode	-11.4325
▁stattfand	-11.4325
▁legte	-11.4326
▁Feind	-11.4326
▁Auskunft	-11.4326
▁sexuellen	-11.4327
▁permanent	-11.4328
Com	-11.4328
ehr	-11.4329
▁virtuelle	-11.433
▁ausgeliefert	-11.4331
▁polnische	-11.4334
bereichen	-11.4336
dol	-11.4336
▁makroökonomisch	-11.4338
▁damaligen	-11.4339
Si	-11.4339
strahl	-11.4342
▁Brok	-11.4343
▁Begegnung	-11.4345
▁Moderne	-11.4346
Inter	-11.4347
▁Cala	-11.4347
▁Somit	-11.4348
▁zurückzu	-11.4349
▁Perl	-11.4351
Ebenfalls	-11.4352
▁Umfrage	-11.4352
▁stoppen	-11.4353
▁Phasen	-11.4354
▁elf	-11.4356
behörde	-11.4356
RM	-11.4356
▁illegal	-11.436
▁islamischen	-11.4363
▁Aussichten	-11.4366
▁vorausgesetzt	-11.4366
▁Schließung	-11.4367
▁Meta	-11.4368
▁herausragende	-11.4368
uf	-11.4368
php	-11.4369
▁Aufstieg	-11.4373
▁Valencia	-11.4373
srichtlinie	-11.4374
▁Tipps	-11.4374
▁festgehalten	-11.4374
▁Charles	-11.4375
▁Augenmerk	-11.4375
egel	-11.4377
spiegel	-11.4377
Weiterhin	-11.4378
▁telefonisch	-11.438
▁Schnittstelle	-11.438
▁Schokolade	-11.4383
▁Anzeichen	-11.4385
▁Pharma	-11.4385
▁Kühlschrank	-11.4386
▁Sir	-11.4389
iff	-11.439
UL	-11.4393
blend	-11.4393
▁bekämpft	-11.4394
▁übernahm	-11.4396
▁Passagier	-11.4396
▁stieg	-11.4397
GEN	-11.4397
▁Binnenmarkts	-11.4397
▁Raumfahrt	-11.4397
strukturen	-11.4399
lege	-11.4399
Art	-11.4402
sfragen	-11.4403
▁Halt	-11.4405
▁main	-11.4406
▁Chan	-11.4406
▁nachzudenken	-11.4407
▁Fassade	-11.4407
▁Beihilfe	-11.4408
▁beweist	-11.4408
ehrt	-11.441
▁ökonomischen	-11.441
▁Bürgerrechte	-11.4414
▁Pixel	-11.4414
▁Rechtsetzung	-11.4414
▁Bürgerkrieg	-11.4414
▁Arbeitslosen	-11.4416
eau	-11.4416
SS	-11.4417
▁eingetragen	-11.4419
appen	-11.4419
gestalt	-11.4419
▁dahingehend	-11.4421
▁beliebtesten	-11.4421
▁Börsen	-11.4423
▁Garden	-11.4423
stift	-11.4424
sgrundlage	-11.4426
▁importiert	-11.4428
▁monatlich	-11.4428
sraum	-11.4428
▁Yacht	-11.4429
MT	-11.443
regelungen	-11.443
wendung	-11.4431
▁niedrige	-11.4433
gesch	-11.4433
▁Investment	-11.4434
▁Square	-11.4434
▁regelmäßige	-11.4436
vit	-11.4438
Partner	-11.444
▁beherbergt	-11.4441
▁max	-11.4442
▁Elementen	-11.4444
kampagne	-11.4445
Str	-11.4446
aki	-11.4448
▁identifizieren	-11.4448
▁befreit	-11.4448
themen	-11.4448
uel	-11.445
▁Paar	-11.4452
▁fi	-11.4455
▁Eleganz	-11.4455
▁anwendbar	-11.4455
▁euro	-11.4457
▁Line	-11.4461
▁Bou	-11.4462
▁versichert	-11.4462
▁gezahlt	-11.4462
miet	-11.4463
▁optimieren	-11.4469
▁Dafürhalten	-11.4469
auftrag	-11.4469
▁Airlines	-11.4471
aut	-11.4472
EF	-11.4472
▁dänischen	-11.4472
▁Diensten	-11.4475
geln	-11.4475
▁Zer	-11.4476
▁persönlicher	-11.4478
modul	-11.4479
▁transparente	-11.448
▁Marco	-11.448
As	-11.4481
▁tatsächliche	-11.4481
▁konstant	-11.4482
▁übereinstimmen	-11.4483
show	-11.4487
▁gedruckt	-11.4487
▁japanische	-11.4489
▁Sierra	-11.4491
este	-11.4492
uren	-11.4492
brand	-11.4492
▁legal	-11.4494
▁regelmäßigen	-11.4495
▁umfassendes	-11.4496
▁Spenden	-11.4496
▁Estland	-11.4496
▁orientiert	-11.4499
Mi	-11.45
▁erfreulich	-11.4502
▁Erfolgs	-11.4504
Modul	-11.4505
▁einleiten	-11.4505
▁Redezeit	-11.4505
▁ließen	-11.4505
▁Ac	-11.4506
▁touristischen	-11.4506
▁Bereits	-11.4506
standort	-11.451
schirm	-11.4511
▁späten	-11.4511
▁anderswo	-11.4512
▁Größen	-11.4514
▁Einreise	-11.4514
cli	-11.4516
buffet	-11.4516
▁veranlasst	-11.4517
▁beauftragt	-11.4518
aufnahme	-11.4518
host	-11.4518
ifizierung	-11.4519
regeln	-11.4519
▁Telefonnummer	-11.452
▁Executive	-11.4524
▁haftet	-11.4524
▁Allah	-11.4526
tze	-11.4526
tests	-11.4528
2008	-11.4528
Sofern	-11.4529
▁vorzuschlagen	-11.4531
▁besichtigen	-11.4531
lay	-11.4532
mund	-11.4532
▁Todes	-11.4536
Systems	-11.4537
rische	-11.4537
▁Monopol	-11.4538
wei	-11.4541
srahmen	-11.4542
▁Spam	-11.4545
▁engagieren	-11.4545
▁frühzeitig	-11.4545
amerikanische	-11.4548
▁Einbindung	-11.4548
▁Chile	-11.455
▁wiederhole	-11.4551
▁Schauspieler	-11.4551
▁Völkern	-11.4551
Ne	-11.4552
▁Konflikts	-11.4552
deckung	-11.4553
▁CHF	-11.4554
▁walk	-11.4555
▁Norm	-11.4556
▁wirkungsvoll	-11.4559
▁Rücktritt	-11.456
▁Bestände	-11.4561
▁Erfassung	-11.4562
▁pr	-11.4562
sgrad	-11.4563
nica	-11.4564
▁ausgewählte	-11.4565
▁Übermittlung	-11.4566
▁Shopping	-11.4566
▁Sy	-11.4567
▁abends	-11.4567
gebunden	-11.4569
▁Räumen	-11.4569
auer	-11.4569
▁erneuert	-11.4573
▁gest	-11.4573
▁Probe	-11.4575
titel	-11.4575
▁Konflikten	-11.458
▁Schadens	-11.458
zusammengestellt	-11.4582
einrichtung	-11.4583
was	-11.4586
▁180	-11.4586
▁vorzubereiten	-11.4587
beihilfen	-11.4587
▁Erdgas	-11.4587
bor	-11.4588
▁angehört	-11.4588
index	-11.4588
▁CE	-11.4589
sfindung	-11.4589
▁Gri	-11.459
▁"...	-11.459
AB	-11.4593
▁energisch	-11.4594
▁gemischt	-11.4594
▁erbracht	-11.4595
▁rec	-11.4595
▁much	-11.4595
▁vierte	-11.4596
mir	-11.4597
▁gründen	-11.46
▁Künstlern	-11.4601
MB	-11.4603
▁Haft	-11.4603
IX	-11.4604
▁design	-11.4605
▁Bewirtschaftung	-11.4608
▁Schiffen	-11.4609
▁Mittag	-11.4609
▁GVO	-11.4609
start	-11.461
LD	-11.4614
▁stützt	-11.4615
▁hinzuzufügen	-11.4615
▁passenden	-11.4616
nur	-11.4617
Vielmehr	-11.4617
beauftragte	-11.4619
firma	-11.4619
Aussprache	-11.462
mod	-11.4621
▁Philip	-11.4621
rez	-11.4623
etto	-11.4623
▁Keller	-11.4624
▁intensiver	-11.4626
Gu	-11.4627
▁östlichen	-11.4627
▁fortzusetzen	-11.4629
▁Trocken	-11.4629
▁eingeben	-11.4629
▁Linken	-11.463
▁Geschäftsführer	-11.4631
sgruppe	-11.4631
▁Verstoß	-11.4632
institut	-11.4634
▁Löhne	-11.4636
▁konkreter	-11.4637
▁Südtirol	-11.4639
ric	-11.464
Verfahren	-11.464
kasse	-11.4642
▁immerhin	-11.4645
▁personal	-11.4645
▁Stau	-11.4646
▁qualifizierten	-11.4649
Insofern	-11.465
▁Geschichten	-11.4651
spect	-11.4656
▁wa	-11.4657
▁Konsolidierung	-11.4657
yr	-11.4657
▁Kommissare	-11.4658
bewertung	-11.4658
nah	-11.4658
zie	-11.4661
▁weitem	-11.4662
▁Vergütung	-11.4664
▁see	-11.4664
Familie	-11.4666
▁William	-11.4667
erkennung	-11.4667
▁Listen	-11.4669
BS	-11.467
▁schwarzen	-11.4671
▁fortgeschritten	-11.4671
▁facilities	-11.4671
tle	-11.4671
▁einbringen	-11.4673
Plan	-11.4673
▁Zinssätze	-11.4673
▁Sim	-11.4674
raucherzimmer	-11.4674
▁beglückwünsche	-11.4675
▁Bla	-11.4675
▁Futtermittel	-11.4676
▁Landschaften	-11.4677
▁vernünftigen	-11.4677
▁erfassen	-11.4678
▁Komplexität	-11.4679
▁Geber	-11.4679
apparat	-11.4679
arme	-11.4683
▁verlaufen	-11.4683
Meinungsäußerung	-11.4685
Problem	-11.4686
...)	-11.4686
▁besseres	-11.4687
llo	-11.4687
▁Danach	-11.4691
▁Verurteilung	-11.4692
▁qu	-11.4692
sunternehmen	-11.4693
▁Stich	-11.4697
▁beherrscht	-11.4699
▁Warcraft	-11.4699
▁abzulehnen	-11.4699
▁Ltd	-11.47
▁Point	-11.47
▁Indikatoren	-11.47
zar	-11.4701
▁Komponente	-11.4704
▁Erkenntnis	-11.4704
▁vereinbaren	-11.4705
▁Athen	-11.4706
▁automatisiert	-11.4706
▁Tank	-11.4707
flu	-11.4709
▁gültigen	-11.471
signal	-11.4711
lingen	-11.4712
▁Nehmen	-11.4712
▁eignen	-11.4713
▁auferlegt	-11.4713
▁ES	-11.4714
ander	-11.4717
▁view	-11.4719
▁aufgeworfen	-11.4719
▁Angebots	-11.4721
China	-11.4721
▁Profit	-11.4723
▁Nav	-11.4723
▁Konvents	-11.4723
▁beschädigt	-11.4723
▁Euroraum	-11.4724
▁Carl	-11.4727
▁gründet	-11.4727
▁Volumen	-11.4727
▁vari	-11.4728
▁Netzes	-11.4728
▁transparenter	-11.4728
▁Rücksicht	-11.4729
center	-11.473
geschlossen	-11.4732
störung	-11.4733
orientierten	-11.4734
▁Transaktion	-11.4734
▁Kriterium	-11.4734
▁Minimum	-11.4734
▁fruchtbar	-11.4735
▁Captain	-11.4735
▁DA	-11.4736
▁Tatsächlich	-11.4737
▁Lin	-11.4742
▁Beta	-11.4742
▁Mö	-11.4742
▁führten	-11.4744
▁festhalten	-11.4745
HE	-11.4746
work	-11.4748
▁steigenden	-11.4748
leiten	-11.4749
wood	-11.4749
vereinbarung	-11.4753
▁Übersetzungs	-11.4753
schäden	-11.4754
▁Interview	-11.4754
gelassen	-11.4754
▁rechtmäßig	-11.4755
pla	-11.4755
ele	-11.4755
gab	-11.4758
pot	-11.476
sregeln	-11.4761
bahnen	-11.4762
▁Erleichterung	-11.4763
▁unterstrichen	-11.4763
▁Variante	-11.4764
▁weißen	-11.4766
р	-11.4766
▁fundamental	-11.4766
▁Fre	-11.4767
bü	-11.477
▁Gastronomie	-11.477
programms	-11.477
▁Gesetzgeber	-11.4771
fon	-11.4772
▁dauerhaften	-11.4772
lim	-11.4773
▁Signale	-11.4774
kompetenz	-11.4776
▁steuern	-11.4777
▁Helsinki	-11.4777
▁Saddam	-11.4777
isi	-11.4778
▁Finanzminister	-11.4778
imo	-11.4779
▁Zwangs	-11.4781
Bereits	-11.4781
▁Bol	-11.4782
▁Schwierigkeit	-11.4784
▁Gewährung	-11.4784
▁identisch	-11.4785
haushalt	-11.4785
tausend	-11.4787
bogen	-11.4788
nia	-11.4788
greifen	-11.4789
Management	-11.4789
▁Mega	-11.4791
▁unverändert	-11.4791
▁Atomwaffen	-11.4792
▁vertrieben	-11.4792
▁Fast	-11.4794
▁Professional	-11.4795
▁check	-11.4795
▁Beifall	-11.4796
▁Palm	-11.4797
▁Gor	-11.4798
▁Cla	-11.4798
▁Begeisterung	-11.4798
festival	-11.4799
▁),	-11.4799
bgesehen	-11.4799
▁aufweist	-11.4804
▁abzuschließen	-11.4806
▁unmittelbare	-11.4806
▁Moldau	-11.4806
ets	-11.4811
▁bedürfen	-11.4813
▁ODER	-11.4814
gezeichnet	-11.4814
Haben	-11.4814
▁Auswertung	-11.4814
▁Verknüpfung	-11.4815
▁ersuchen	-11.4817
▁wählt	-11.4817
periode	-11.4818
schreiten	-11.4819
Netzwerk	-11.4819
zin	-11.482
akte	-11.4821
▁ausgestatteten	-11.4823
▁ausmachen	-11.4824
eisen	-11.4824
▁berufen	-11.4825
▁URL	-11.4828
▁Place	-11.4828
▁entlassen	-11.4829
▁Besuchen	-11.4831
▁46	-11.4833
▁Kongo	-11.4835
HA	-11.4837
▁Zeitalter	-11.4838
▁Zeitungen	-11.4844
▁juristische	-11.4844
▁и	-11.4845
▁benötigten	-11.4847
üss	-11.4847
▁Tru	-11.4848
sbereiche	-11.485
Pol	-11.485
Gegenwärtig	-11.4851
▁Innovations	-11.4851
▁Infrastrukturen	-11.4852
▁Termine	-11.4853
▁sichert	-11.4853
▁Upgrade	-11.4856
▁Bundesrepublik	-11.4856
teilnehmer	-11.4856
▁Finanzrahmen	-11.4857
▁angemessener	-11.4861
▁Nigeria	-11.4863
▁direct	-11.4865
▁Wahlkreis	-11.4866
kat	-11.4867
▁westliche	-11.4868
groß	-11.4869
▁Gegebenheiten	-11.487
▁einzuleiten	-11.487
▁Ford	-11.4871
▁Daniel	-11.4872
▁Ausschreibung	-11.4872
▁trug	-11.4873
springen	-11.4875
▁Auflagen	-11.4875
schätzung	-11.4875
▁Politikbereiche	-11.4876
▁fo	-11.4876
▁Präzision	-11.4877
▁voraussichtlich	-11.4877
▁unvergessliche	-11.4878
jet	-11.4878
▁HIV	-11.488
dt	-11.4886
turm	-11.4886
▁Nutz	-11.4888
▁Leiden	-11.489
auto	-11.4891
▁votes	-11.4891
▁Cer	-11.4892
▁Wach	-11.4892
Laut	-11.4892
▁Mord	-11.4892
defizit	-11.4894
max	-11.4894
▁Kla	-11.4896
▁Explorer	-11.4897
▁Folgendes	-11.4897
▁Stellungnahmen	-11.4899
öse	-11.4899
▁Add	-11.4899
▁Chor	-11.4902
▁Rettungs	-11.4903
▁Alarm	-11.4905
▁amtierenden	-11.4906
nar	-11.4906
▁Entschließungen	-11.4907
▁markt	-11.4907
glich	-11.4909
▁Hindernis	-11.4909
▁seitdem	-11.4909
▁abschließen	-11.4913
▁Dossier	-11.4913
▁verteilen	-11.4914
▁Keine	-11.4916
▁68	-11.4916
▁Lan	-11.4917
▁überflüssig	-11.4917
▁stilvolle	-11.4918
▁diversen	-11.4919
horn	-11.492
trat	-11.4921
duc	-11.4922
leitungen	-11.4923
Ausnahmeregelung	-11.4925
zeichnung	-11.4927
▁Nero	-11.4927
▁photo	-11.4927
nig	-11.4927
▁Bit	-11.4929
▁emp	-11.4931
▁Plug	-11.4931
gesehen	-11.4933
GH	-11.4933
▁abgeschafft	-11.4935
▁Kolonial	-11.4935
▁Internetseiten	-11.4936
artig	-11.4936
IK	-11.4937
▁Zinsen	-11.4937
lieferung	-11.4939
Kommission	-11.4942
▁Verschmutzung	-11.4942
▁Lar	-11.4943
▁eigenständige	-11.4945
lässig	-11.4945
▁Birma	-11.4945
ales	-11.4947
▁unzählige	-11.4948
▁architektonisch	-11.4949
▁israelische	-11.4951
▁Koalition	-11.4951
adi	-11.4952
aja	-11.4952
städte	-11.4952
ego	-11.4953
▁anzugehen	-11.4953
▁nahmen	-11.4953
▁schwarze	-11.4953
aya	-11.4954
gui	-11.4956
▁Sicherheitsrat	-11.4958
▁Außengrenzen	-11.4958
▁spannende	-11.4961
▁verweigert	-11.4964
ehn	-11.4967
Funktion	-11.4967
blatt	-11.4969
▁Datenbanken	-11.497
schaften	-11.4971
CR	-11.4971
tiere	-11.4971
▁Maßstab	-11.4971
▁Bandbreite	-11.4972
▁Lande	-11.4973
▁Bewerber	-11.4973
▁Wohnsitz	-11.4973
▁wi	-11.4975
technische	-11.4975
▁pass	-11.4975
DVD	-11.4979
▁Rundfunk	-11.4979
nic	-11.4981
spalt	-11.4984
ös	-11.4984
▁inspiriert	-11.4986
gier	-11.4988
▁Beschaffung	-11.4989
▁Taschen	-11.4989
▁verstärkten	-11.499
▁Sudan	-11.499
▁Genau	-11.499
▁Kämpfe	-11.4991
▁unweit	-11.4992
▁maßgeschneidert	-11.4993
▁Werde	-11.4993
speisen	-11.4994
▁Teilnehmern	-11.4995
▁Pub	-11.4996
stürzt	-11.4998
▁50%	-11.4999
▁Europarat	-11.4999
graf	-11.5001
▁Sevilla	-11.5001
▁künstlerische	-11.5002
▁Vermögen	-11.5002
spur	-11.5004
atten	-11.5004
baut	-11.5005
zahlungen	-11.5006
▁attraktiv	-11.5006
tarif	-11.5007
▁Zutaten	-11.5009
▁wertvollen	-11.5009
▁lehnen	-11.501
▁fürchte	-11.501
Pass	-11.5012
gelb	-11.5012
▁wahrgenommen	-11.5015
ordin	-11.5016
Strafgerichtshof	-11.5017
▁zivilen	-11.5019
▁Applikation	-11.5019
route	-11.502
▁gemeint	-11.5021
▁ewig	-11.5022
▁Besichtigung	-11.5022
emp	-11.5023
▁Pal	-11.5025
zentrale	-11.5027
▁Ass	-11.5029
▁katastrophal	-11.5029
▁PA	-11.5031
▁klares	-11.5032
▁leichten	-11.5034
▁benachrichtigt	-11.5037
▁Ideologie	-11.5037
Hand	-11.5038
▁Kammer	-11.504
▁Ganzen	-11.504
fte	-11.5042
Net	-11.5042
Anwendungen	-11.5043
▁direkter	-11.5044
Werden	-11.5045
▁modernsten	-11.5046
▁bu	-11.5047
▁Mir	-11.5048
lung	-11.5048
▁feiert	-11.5048
▁Zeile	-11.5051
▁Freundschaft	-11.5052
53	-11.5053
▁verweist	-11.5053
▁va	-11.5053
hrung	-11.5054
▁schlimmsten	-11.5054
▁versprechen	-11.5055
▁52	-11.5056
▁Jahrhunderte	-11.5057
▁souverän	-11.5059
▁Ingenieur	-11.5059
eria	-11.5063
mä	-11.5064
Dokument	-11.5068
▁Italienisch	-11.5071
▁unterrichtet	-11.5072
town	-11.5073
▁Ganze	-11.508
▁Akzeptanz	-11.5081
▁bestanden	-11.5081
▁Installations	-11.5081
decken	-11.5084
Mitgliedsstaaten	-11.5085
▁lebenslange	-11.5089
sieg	-11.5091
▁IS	-11.5091
▁Netto	-11.5093
point	-11.5094
▁Parks	-11.5094
▁Deswegen	-11.5095
▁pflegen	-11.5097
▁Herzlich	-11.51
web	-11.5103
▁Nachteile	-11.5103
Jahre	-11.5103
sozial	-11.5104
▁Zwischenzeit	-11.5106
wegen	-11.5107
▁read	-11.5107
▁chemischen	-11.5107
▁Met	-11.5108
kit	-11.5109
▁iPod	-11.511
▁restauriert	-11.511
Wert	-11.511
▁Kam	-11.5112
▁immens	-11.5114
Rechtssicherheit	-11.5116
standard	-11.5116
▁Kosmetik	-11.5117
▁Quark	-11.5119
tina	-11.5122
▁Lettland	-11.5125
▁Adressen	-11.5129
bestände	-11.5129
▁Sender	-11.5129
WA	-11.5129
▁korrigiert	-11.5132
▁gew	-11.5132
schätz	-11.5133
▁Ernst	-11.5133
tation	-11.5133
8-	-11.5135
▁Kapitalismus	-11.5136
freundlichkeit	-11.5137
KE	-11.5137
rock	-11.5138
modus	-11.5139
projekten	-11.5139
▁Einleitung	-11.5139
tico	-11.5139
▁kopieren	-11.514
▁bestraft	-11.514
▁geschenkt	-11.514
▁untergebracht	-11.514
▁kontinuierliche	-11.5141
hing	-11.5142
rc	-11.5143
▁Auslands	-11.5144
schaffen	-11.5145
▁Zuwanderung	-11.5148
5)	-11.5153
▁Richtigkeit	-11.5155
▁gestrichen	-11.5156
▁Host	-11.5157
▁Sozialisten	-11.5158
bücher	-11.5161
▁tschechischen	-11.5164
▁angemeldet	-11.5165
▁zuständige	-11.5165
▁information	-11.5166
übertragung	-11.5167
nimmt	-11.5168
▁sämtlicher	-11.5168
▁Migranten	-11.5169
▁voranzutreiben	-11.5169
▁Gesetzen	-11.517
▁GPS	-11.5173
ej	-11.5173
▁Luftraum	-11.5175
Gra	-11.5177
▁Verhinderung	-11.5177
vorgang	-11.5177
▁fortschrittlich	-11.5177
▁aufrecht	-11.5178
gerichtet	-11.5179
Bu	-11.5182
field	-11.5182
▁Insbesondere	-11.5182
▁Garage	-11.5187
▁feste	-11.5188
▁Virus	-11.5189
komponenten	-11.5191
▁Gedanke	-11.5192
▁Flüchtlings	-11.5192
▁SQL	-11.5194
▁Games	-11.5194
alis	-11.5195
▁Luc	-11.5195
▁komplexer	-11.5195
sbestimmungen	-11.5196
▁Button	-11.5196
▁Genauigkeit	-11.5199
▁English	-11.52
▁Road	-11.5201
▁Naturpark	-11.5203
▁Dresden	-11.5206
▁steil	-11.5208
kontroll	-11.5208
ggio	-11.5208
zukommen	-11.521
▁zugreifen	-11.521
▁dorthin	-11.5211
shi	-11.5211
Teil	-11.5211
friedenstellend	-11.5212
Dafür	-11.5213
gri	-11.5215
▁vergangen	-11.5216
lad	-11.5218
▁Nordirland	-11.5221
▁kommunizieren	-11.5221
▁Bü	-11.5223
▁wunderbaren	-11.5223
▁anzusehen	-11.5224
rechtliche	-11.5224
▁Verpackungs	-11.5225
▁bekanntlich	-11.5226
▁Netzwerke	-11.5226
▁Energieversorg	-11.5226
Datenbank	-11.5227
weiterentwickelt	-11.5229
▁leitet	-11.5231
▁class	-11.5231
pause	-11.5234
▁gezielte	-11.5234
▁ökonomische	-11.5235
▁explizit	-11.5236
▁willkürlich	-11.5236
▁Olympischen	-11.5237
▁Borg	-11.5237
gur	-11.5237
▁Head	-11.5238
▁Weltmarkt	-11.524
▁Störungen	-11.524
halb	-11.524
schnellstmöglich	-11.5241
jan	-11.5241
▁Hass	-11.5243
▁Orchester	-11.5243
rung	-11.5245
▁gründete	-11.5245
PM	-11.5249
richtungen	-11.5249
▁Frankreichs	-11.5251
▁votre	-11.5251
kul	-11.5252
Bi	-11.5252
▁erhöhte	-11.5255
hem	-11.5255
▁lu	-11.5256
wal	-11.5258
▁Gewebe	-11.5259
▁gratuliere	-11.5259
stufe	-11.5259
Frei	-11.5259
Pla	-11.5261
▁Schulz	-11.5262
▁Gipfels	-11.5265
Steuer	-11.5265
▁geräumigen	-11.5268
▁Kreatur	-11.5271
▁Spielern	-11.5272
lizenz	-11.5274
▁denkt	-11.5274
Zusammen	-11.5275
wände	-11.5277
▁Villen	-11.5278
▁bilaterale	-11.5283
temp	-11.5286
sgebiet	-11.5287
▁psychisch	-11.5288
▁Dutzend	-11.5288
bewusst	-11.5289
schieben	-11.5291
▁Haag	-11.5292
▁human	-11.5293
wettbewerb	-11.5294
▁Christian	-11.5294
enberg	-11.5294
▁Benutzern	-11.5295
▁Residence	-11.5296
▁Extrem	-11.5298
▁Funktionsweise	-11.5299
▁römischen	-11.5299
▁Route	-11.5299
▁wirft	-11.5302
over	-11.5302
▁aggressiv	-11.5303
▁mache	-11.5305
▁Gerade	-11.5306
▁open	-11.5306
-4	-11.5307
▁Mittelalter	-11.5308
▁Cri	-11.5309
▁Fels	-11.531
änder	-11.531
▁abzugeben	-11.5314
▁Camping	-11.5314
▁Bonn	-11.5315
▁ungewöhnlich	-11.5316
▁Belange	-11.5321
kabel	-11.5321
preisen	-11.5322
Musik	-11.5324
▁Pie	-11.5325
▁asiatischen	-11.5325
▁mittelfristig	-11.5326
▁multilateralen	-11.5327
▁Hilfen	-11.5329
▁stabil	-11.5329
rau	-11.5329
▁harten	-11.533
hotels	-11.5331
▁East	-11.5333
Keine	-11.5335
то	-11.5335
▁kommende	-11.5335
▁Songs	-11.5335
▁eingehend	-11.5336
▁Einstieg	-11.5336
▁Lied	-11.5338
Abstimmung	-11.5339
▁Soft	-11.534
tant	-11.534
▁Denk	-11.5341
▁versorgt	-11.5341
quer	-11.5342
unterricht	-11.5343
▁Landwirten	-11.5346
▁State	-11.5346
tus	-11.5346
Konferenz	-11.5346
▁Gehäuse	-11.5347
▁Reichweite	-11.5349
Diejenigen	-11.535
▁Sk	-11.5351
▁sexuelle	-11.5351
▁Sh	-11.5351
▁Lieder	-11.5352
room	-11.5354
▁lernt	-11.5355
rm	-11.5355
▁Impuls	-11.5356
▁eingebettet	-11.5356
▁people	-11.5356
zieh	-11.5357
▁Aussteller	-11.5358
Au	-11.5358
MC	-11.5359
▁Staatsangehörig	-11.5359
bucht	-11.536
iana	-11.536
▁verhängt	-11.5364
lehr	-11.5365
▁Zeilen	-11.5366
▁Dienststellen	-11.5367
▁EURO	-11.5368
praxis	-11.5368
OT	-11.5368
▁350	-11.5369
▁Königreichs	-11.537
register	-11.5371
▁Loch	-11.5373
▁vereinbar	-11.5373
▁dürften	-11.5374
▁erwarte	-11.5375
▁abhängen	-11.5375
▁VIP	-11.5375
▁Schulung	-11.5376
sdaten	-11.538
▁Klavier	-11.5387
▁fundierte	-11.5387
▁Genfer	-11.5387
▁Haushaltsmittel	-11.5387
uro	-11.5387
bezogenen	-11.5388
klima	-11.5391
Seiten	-11.5393
▁legislativen	-11.5394
▁Algerien	-11.5394
▁Gletscher	-11.5394
▁verdanken	-11.5394
handels	-11.5394
▁Hel	-11.5395
▁Stress	-11.5396
▁gehörte	-11.5396
assa	-11.54
▁Beibehaltung	-11.5401
▁Sitzungsperiode	-11.5401
▁Sozialpartner	-11.5403
lehrer	-11.5406
kühl	-11.5407
läufe	-11.5407
▁Gate	-11.5408
Bau	-11.5409
Gleichwohl	-11.5411
litz	-11.5411
▁streben	-11.5411
▁Chaos	-11.5412
feindliche	-11.5414
▁Hot	-11.5414
▁air	-11.5414
buchung	-11.5416
schuss	-11.5416
▁Cat	-11.5417
trieb	-11.5417
▁begünstigt	-11.5417
▁zurückkommen	-11.5417
▁Heiz	-11.5419
▁Mitarbeit	-11.5419
nacht	-11.5419
eingang	-11.542
OC	-11.542
▁Glaubens	-11.5421
▁innen	-11.5423
▁Nar	-11.5423
▁Ferienhaus	-11.5424
betreiber	-11.5424
▁städtischen	-11.5426
ansprüche	-11.5428
ssig	-11.5429
▁Rohstoff	-11.543
Gr	-11.5431
osa	-11.5431
▁zubereitet	-11.5432
▁dynamischen	-11.5434
DC	-11.5434
kapazitäten	-11.5434
▁Vis	-11.5438
▁Workshops	-11.5439
▁begrenzen	-11.5439
▁Müll	-11.5441
▁führender	-11.5441
▁erholen	-11.5442
▁dünn	-11.5442
▁Schach	-11.5442
▁diesbezüglichen	-11.5444
view	-11.5446
▁abgedeckt	-11.5447
▁medi	-11.545
nahmen	-11.5452
▁wunderbar	-11.5452
▁old	-11.5453
▁erbringen	-11.5454
geboren	-11.5456
Liebe	-11.5456
▁ausreichen	-11.5456
▁Anders	-11.5461
▁aktiver	-11.5463
▁klarstellen	-11.5466
AK	-11.5466
Mon	-11.5467
opfer	-11.5469
▁Hill	-11.5469
▁Wohlergehen	-11.547
geschäfte	-11.547
▁übertrieben	-11.547
▁Schuh	-11.547
szeiten	-11.5474
seinrichtungen	-11.5477
▁Zustellbetten	-11.5477
▁fantastische	-11.5478
▁Obergrenze	-11.5478
▁Blair	-11.5478
▁stabilen	-11.5479
▁IC	-11.548
▁Nachtleben	-11.548
NO	-11.548
▁really	-11.5482
taten	-11.5483
▁dokumentiert	-11.5485
▁Rechtsprechung	-11.5487
▁Nikon	-11.5488
▁Zurück	-11.5488
▁Universal	-11.5488
osse	-11.5489
▁Kan	-11.5489
linge	-11.549
▁Fertigungs	-11.5491
▁49	-11.5491
ministerium	-11.5492
▁47	-11.5494
▁Operationen	-11.5495
bindung	-11.5496
▁Leucht	-11.5496
▁Kat	-11.5497
▁190	-11.5498
mente	-11.5499
▁Tierschutz	-11.5499
Port	-11.5501
▁Mä	-11.5503
Recht	-11.5503
LU	-11.5504
▁One	-11.5504
▁kan	-11.5506
▁Vel	-11.5507
▁Beamte	-11.5507
Insgesamt	-11.5508
▁them	-11.5511
▁Dein	-11.5513
▁Ungleichheiten	-11.5513
▁Cro	-11.5514
▁Vogel	-11.5516
▁Atem	-11.5517
▁Play	-11.5518
▁Wanderungen	-11.5518
kontakt	-11.552
kol	-11.5523
▁widerspiegelt	-11.5523
smechanismus	-11.5525
wanderung	-11.5525
orte	-11.5526
füllt	-11.5527
rennen	-11.5528
▁Technology	-11.5531
▁durfte	-11.5531
7.	-11.5533
oxid	-11.5533
reißen	-11.5533
▁Rückzug	-11.5534
strafe	-11.5534
▁offener	-11.5536
▁fähig	-11.5536
▁präsent	-11.5536
deln	-11.5536
reden	-11.5538
▁stärkt	-11.5539
▁Engineering	-11.5539
charakter	-11.5539
▁Schneid	-11.554
▁Studios	-11.554
▁Yu	-11.5542
FO	-11.5544
▁Inhalts	-11.5544
▁besuchte	-11.5545
bewegungen	-11.5546
▁kürzer	-11.5546
portal	-11.5547
▁Berichtigung	-11.5549
▁ausgeprägt	-11.5549
▁Hoffnungen	-11.555
!!!	-11.5551
▁GUE	-11.5552
▁wenngleich	-11.5553
▁Gedächtnis	-11.5554
▁Kolumbien	-11.5554
▁Klinik	-11.5554
▁Träume	-11.5555
▁Meilen	-11.5556
▁Wett	-11.5556
▁überleben	-11.5557
▁stecken	-11.5557
▁Pl	-11.5557
info	-11.5558
▁aufhalten	-11.556
▁Freuen	-11.556
▁Uni	-11.556
Programms	-11.5561
▁anzuerkennen	-11.5562
▁strengere	-11.5564
▁Schreib	-11.5564
gne	-11.5565
NGL	-11.5567
Unabhängig	-11.5567
Daraus	-11.5568
▁Mass	-11.5568
▁need	-11.5569
▁Ansprüchen	-11.557
▁apartment	-11.557
▁Tau	-11.5572
marsch	-11.5573
▁unbekannt	-11.5576
▁aufrufen	-11.5576
Verschlechterung	-11.5577
Hinweis	-11.5578
▁KDE	-11.5579
▁book	-11.558
vorschläge	-11.5581
Su	-11.5582
siedlung	-11.5583
▁Container	-11.5584
▁XML	-11.5586
▁leidet	-11.5587
▁älteste	-11.5587
▁aufhören	-11.5589
zia	-11.5589
▁Sternen	-11.5589
▁Beleg	-11.559
schön	-11.559
verpflichtung	-11.5593
▁irgendwo	-11.5593
▁Boots	-11.5593
stark	-11.5593
▁benachteiligt	-11.5594
▁letztes	-11.5596
▁mobilen	-11.5596
Davon	-11.5599
▁fehlerhaft	-11.5601
angriff	-11.5606
▁Nachbar	-11.5608
▁Inspektion	-11.5608
▁seltsam	-11.5608
gig	-11.5609
sburg	-11.5611
▁Ausstellungs	-11.5615
▁Anfänger	-11.5617
▁anonym	-11.5619
bul	-11.5619
▁halben	-11.5619
ketten	-11.5621
▁Tasten	-11.5621
▁Ansehen	-11.5622
▁Begleitung	-11.5622
Beispielsweise	-11.5622
▁untersagt	-11.5623
▁Ferner	-11.5623
▁gesenkt	-11.5624
FF	-11.5624
real	-11.5628
▁erhebt	-11.5628
▁versetzen	-11.5629
▁Flagge	-11.5632
▁Parallel	-11.5633
quote	-11.5635
▁Aufpreis	-11.5635
technischen	-11.5636
zentr	-11.5636
marktes	-11.5636
▁Allein	-11.5637
▁Demokratien	-11.5637
▁Salon	-11.5637
▁Modus	-11.5638
▁tat	-11.5639
Unregelmäßigkeit	-11.5639
▁Kant	-11.5639
spritz	-11.564
Süd	-11.5641
▁Sports	-11.5642
▁freiwillig	-11.5642
kro	-11.5644
▁Toten	-11.5644
▁Skigebiet	-11.5645
▁künstlerischen	-11.5646
ausrüstung	-11.5647
▁Anmerkung	-11.5647
▁Versicherung	-11.5648
▁Laut	-11.5648
▁reichlich	-11.5654
▁Space	-11.5656
▁file	-11.5657
▁bürgerliche	-11.5658
▁Bestrebungen	-11.5662
▁ggf	-11.5663
▁Ökonomie	-11.5663
▁41	-11.5665
wirtschaftliche	-11.5665
▁Security	-11.5667
▁rest	-11.5668
▁bedeutender	-11.5668
▁Harmonie	-11.5669
langen	-11.5669
▁reservieren	-11.567
Tech	-11.5671
Finanz	-11.5673
ize	-11.5673
▁empfindlich	-11.5675
Trans	-11.5675
▁salle	-11.5676
zucht	-11.5677
▁vermieten	-11.5678
▁Zusammenfassung	-11.5678
▁nos	-11.5681
▁sensible	-11.5681
print	-11.5683
▁Dienstes	-11.5683
▁Hochschulen	-11.5683
▁diplomatischen	-11.5684
▁Verhaltenskodex	-11.5686
VA	-11.5686
▁Motoren	-11.5687
▁ausgebildet	-11.5688
▁Klausel	-11.5688
▁Zentren	-11.5688
▁dynamisch	-11.569
▁Aussehen	-11.5691
▁Rü	-11.5692
▁Nokia	-11.5694
▁verwandeln	-11.5694
cks	-11.5694
▁..	-11.5695
▁user	-11.5695
SD	-11.5696
▁Crew	-11.5696
ump	-11.5699
▁Albert	-11.57
▁00	-11.5701
▁Gewerkschaft	-11.5701
chan	-11.5701
▁find	-11.5702
strecken	-11.5702
▁Reit	-11.5703
▁Unterhaltungs	-11.5705
Verhältnis	-11.5705
hel	-11.5706
vie	-11.5706
KA	-11.5707
effizient	-11.5708
brüche	-11.5708
▁Sammel	-11.5709
▁Wäscheservice	-11.5709
▁Trinkwasser	-11.5709
▁rück	-11.571
Inzwischen	-11.5713
▁massiven	-11.5713
▁bit	-11.5714
Ju	-11.5715
zes	-11.5716
einstellungen	-11.572
▁Vizepräsident	-11.5722
-3	-11.5723
▁Renaissance	-11.5725
▁kritisieren	-11.5725
▁signifikant	-11.5725
▁hervorzuheben	-11.5725
▁Italiens	-11.5728
▁Spin	-11.5728
▁ausgeben	-11.5729
▁Magazin	-11.5732
äub	-11.5733
küche	-11.5733
▁tiefen	-11.5734
▁verzeichnet	-11.5735
Web	-11.5736
▁Monti	-11.5737
1/	-11.5739
▁doppelte	-11.5739
▁weiss	-11.574
▁Räumlichkeiten	-11.5741
▁Streben	-11.5741
▁Brücken	-11.5741
▁Flüchtlingen	-11.5742
html	-11.5748
vol	-11.5749
phy	-11.575
feier	-11.5751
iano	-11.5753
dung	-11.5754
▁Enttäuschung	-11.5756
▁Handhabung	-11.5756
▁pragmatisch	-11.5756
▁versorgen	-11.5756
▁Att	-11.5756
▁Mittagessen	-11.5756
▁einhergehen	-11.5757
para	-11.5758
waffen	-11.5758
▁qm	-11.5759
▁pool	-11.576
▁Kara	-11.5761
pflichtig	-11.5764
▁Feiertag	-11.5764
▁gesendet	-11.5767
▁großzügige	-11.5768
hauses	-11.5769
▁{	-11.577
▁Seminare	-11.5771
▁Reis	-11.5771
▁prinzipiell	-11.5772
metall	-11.5772
tzt	-11.5773
▁Gewähr	-11.5774
▁erfahrenen	-11.5775
▁Herstellern	-11.5776
find	-11.5777
MO	-11.5778
▁Sowohl	-11.5778
▁130	-11.578
▁gänzlich	-11.578
▁aufgetreten	-11.5781
▁tri	-11.5781
Industriepolitik	-11.5783
▁Ungleichheit	-11.5783
▁Zelt	-11.5784
polit	-11.5785
DL	-11.5786
TU	-11.5786
▁Anpassungen	-11.5787
rea	-11.5789
▁Dampf	-11.579
▁steigende	-11.579
▁Patten	-11.5791
wich	-11.5792
▁Wasch	-11.5793
▁nachfolgenden	-11.5794
▁irgendwie	-11.5796
▁made	-11.5797
law	-11.5797
▁bestehend	-11.5801
cord	-11.5801
erzeugung	-11.5803
▁wertvoll	-11.5804
▁elektrische	-11.5804
▁Tim	-11.5804
lution	-11.5806
TT	-11.5806
cro	-11.5807
▁Ausbruch	-11.5807
999	-11.5808
gerechte	-11.5808
▁Schwerpunkte	-11.581
stitution	-11.581
▁Bemühen	-11.5811
▁Edinburgh	-11.5811
Up	-11.5811
▁ausgenommen	-11.5813
iver	-11.5814
EX	-11.5815
▁greift	-11.5815
▁attraktiven	-11.5815
▁Tiefe	-11.5817
gerecht	-11.5818
▁Keramik	-11.5819
▁Sicherstellung	-11.5819
▁Sichtweise	-11.582
IO	-11.5821
hall	-11.5823
▁Junior	-11.5825
srate	-11.5825
▁Umstand	-11.5826
▁Wortlaut	-11.5828
▁Abänderung	-11.5828
Not	-11.5828
ific	-11.5829
▁Ermittlung	-11.5831
ografie	-11.5832
sand	-11.5832
▁Shuttle	-11.5833
Krise	-11.5833
spolitiken	-11.5833
▁aufgezeigt	-11.5835
▁einrichten	-11.5835
ifi	-11.5837
▁Spielzeug	-11.5838
weiß	-11.5841
rolle	-11.5842
▁beunruhigt	-11.5843
▁Überwindung	-11.5843
▁Franzosen	-11.5843
ehren	-11.5845
▁analog	-11.5845
union	-11.5847
▁eingenommen	-11.5848
richtlinien	-11.5849
▁Sandstrand	-11.5851
bat	-11.5852
schalt	-11.5853
▁historisch	-11.5853
▁Fahrzeugen	-11.5854
schrank	-11.5854
▁umwelt	-11.5856
▁gepflegt	-11.5856
▁Pause	-11.5856
diskriminierung	-11.5857
▁veraltet	-11.5859
▁Haiti	-11.5859
▁fu	-11.5859
Stream	-11.586
▁Zweig	-11.586
▁gerichtlich	-11.5861
▁vorzugehen	-11.5862
Enterprise	-11.5864
▁leistungsfähige	-11.5865
▁Erb	-11.5867
▁Unterscheidung	-11.5867
▁schweigen	-11.5867
▁fragt	-11.5867
▁Hochschul	-11.5867
▁Häusern	-11.5868
▁gemein	-11.587
▁Inland	-11.587
▁Züge	-11.5871
▁09	-11.5872
ierter	-11.5873
versuch	-11.5873
teilig	-11.5874
▁Vorgänge	-11.5875
Gut	-11.5875
▁verkündet	-11.5883
▁Hochzeit	-11.5884
▁Publikationen	-11.5885
SO	-11.5889
▁Bru	-11.5889
▁food	-11.589
▁Fluggäste	-11.5891
▁Klaren	-11.5893
▁Christ	-11.5898
plätzen	-11.5899
▁(18	-11.5899
▁geschlossenen	-11.5899
▁Eure	-11.5902
▁vorgesehene	-11.5903
gold	-11.5903
▁AL	-11.5904
▁Sto	-11.5906
▁Verdienst	-11.5906
▁Brems	-11.5908
▁Gegenden	-11.5908
▁einladen	-11.5909
ista	-11.591
kut	-11.591
▁large	-11.5911
▁echter	-11.5911
Kamera	-11.5913
gearbeitet	-11.5913
▁ansässig	-11.5915
▁after	-11.5915
▁anhaltende	-11.5915
modelle	-11.5917
▁schwerwiegende	-11.592
800	-11.592
▁behindern	-11.5922
DER	-11.5923
▁Rohstoffe	-11.5925
▁Öko	-11.5926
▁begeben	-11.5927
Eines	-11.5927
▁near	-11.5928
▁besch	-11.5929
▁roten	-11.593
▁Guide	-11.5931
▁Adam	-11.5933
platte	-11.5934
iers	-11.5935
▁betragen	-11.5938
▁Maßstäbe	-11.5938
▁Anna	-11.5941
mächtig	-11.5942
▁kommunistischen	-11.5943
▁Währungen	-11.5945
▁geschah	-11.5947
Air	-11.5947
kr	-11.5948
mütig	-11.5948
▁een	-11.5949
getragen	-11.5949
▁Lade	-11.595
▁Wände	-11.595
▁seinerzeit	-11.5951
ère	-11.5952
fra	-11.5953
Nutzen	-11.5954
▁como	-11.5954
▁demselben	-11.5954
▁automatischen	-11.5955
kunde	-11.5956
▁Public	-11.5957
▁Ausländer	-11.5962
▁Hannover	-11.5962
▁Veranstalter	-11.5962
▁Vormittag	-11.5962
▁geeinigt	-11.5962
▁erzählen	-11.5963
aspekt	-11.5965
▁bevorzugt	-11.5965
▁Instabilität	-11.5966
teams	-11.5966
ident	-11.5967
▁grau	-11.5967
▁).	-11.5967
inter	-11.5968
▁Firefox	-11.5971
▁irgendwann	-11.5971
▁Zeitschrift	-11.5971
▁Weich	-11.5971
▁Fr	-11.5972
folgen	-11.5972
▁ordnungsgemäße	-11.5973
sergebnisse	-11.5975
treiben	-11.5975
thema	-11.5975
▁Gehör	-11.5975
regel	-11.598
bur	-11.598
▁sea	-11.5982
▁Müller	-11.5982
▁2,5	-11.5982
▁aufgegeben	-11.5985
rechtzuerhalten	-11.5987
▁umgewandelt	-11.5987
▁Vollständigkeit	-11.5987
▁schuldig	-11.5987
fänge	-11.5989
▁massiv	-11.599
▁Auszahlung	-11.599
spezifischen	-11.599
▁Pilot	-11.599
fordert	-11.599
▁iranischen	-11.5991
▁Drink	-11.5996
▁unternehmerisch	-11.5997
oy	-11.5997
▁dramatisch	-11.5997
▁1960	-11.5998
▁Werken	-11.5999
▁miss	-11.6
KO	-11.6001
▁Run	-11.6001
▁Sur	-11.6001
▁Verweis	-11.6002
▁Vorzüge	-11.6002
▁Roth	-11.6003
diensten	-11.6005
▁Siemens	-11.6006
hle	-11.6009
▁sta	-11.6009
rop	-11.6009
EE	-11.601
Direkt	-11.601
fre	-11.6011
lash	-11.6012
▁Fotografie	-11.6013
▁Auftreten	-11.6014
▁virtuellen	-11.6015
▁Aufteilung	-11.6015
▁aufgegriffen	-11.6017
mmern	-11.6017
urteil	-11.6018
▁cor	-11.6019
▁mittelständisch	-11.6019
▁Stadium	-11.6019
alismus	-11.6019
▁Pferd	-11.6021
▁Engel	-11.6022
▁schlug	-11.6024
▁positiver	-11.6026
dach	-11.6027
▁geheim	-11.6027
kommunikation	-11.6027
word	-11.6028
▁komplizierte	-11.6029
▁aufgeführten	-11.6029
Wirtschaft	-11.603
sabkommens	-11.603
▁Zo	-11.6031
Bild	-11.6032
▁erreichten	-11.6032
änderung	-11.6033
▁NO	-11.6034
▁Klärung	-11.6035
▁verlängern	-11.6035
▁Autovermietung	-11.6035
▁elementar	-11.6035
▁beträchtlich	-11.6036
▁Unrecht	-11.6037
▁entnehmen	-11.6038
▁möge	-11.6039
▁Pet	-11.6039
▁Sieger	-11.6039
kenntnisse	-11.6039
▁Fischereisektor	-11.6041
▁feine	-11.6041
▁einbeziehen	-11.6043
▁verläuft	-11.6046
räum	-11.6048
International	-11.6048
▁Werden	-11.6049
▁Übereinkunft	-11.6051
▁Gehirn	-11.6051
▁Liter	-11.6051
▁Automatisierung	-11.6051
▁begrenzten	-11.6052
▁sal	-11.6053
▁Reifen	-11.6054
▁geringere	-11.6055
▁formal	-11.6057
▁anschauen	-11.6058
▁Hyper	-11.6059
▁Ausschüssen	-11.6059
▁Pont	-11.6059
staatliche	-11.6062
▁portugiesische	-11.6064
▁Aufstockung	-11.6067
träglich	-11.607
▁gesteuert	-11.6072
▁Emp	-11.6075
spot	-11.6075
▁Montenegro	-11.6075
▁double	-11.6075
▁theoretisch	-11.6077
▁Arbeitsprogramm	-11.6077
▁Handlungs	-11.6077
▁charmante	-11.6079
▁dringlich	-11.6079
▁Angestellten	-11.6079
▁Ana	-11.6079
rein	-11.6081
▁too	-11.6083
Haus	-11.6083
▁realistische	-11.6083
▁bedaure	-11.6083
▁08	-11.6084
load	-11.6085
HS	-11.6087
FE	-11.6088
▁Planet	-11.6088
▁White	-11.609
▁widerspiegeln	-11.6092
▁Matt	-11.6092
wiesen	-11.6092
▁intensiven	-11.6094
sdienste	-11.6094
anspruch	-11.6096
▁51	-11.6097
▁Torre	-11.6099
▁ermordet	-11.61
▁restriktiv	-11.61
▁Freilassung	-11.61
Stellen	-11.6101
▁entziehen	-11.6103
lagern	-11.6103
▁Standorten	-11.6104
▁Informatik	-11.6108
▁Toskana	-11.6108
▁verhaftet	-11.6108
▁Tagungen	-11.6108
▁juristischen	-11.6108
[...]
