{
  "src_word2id": {
    "<pad>": 0,
    "<s>": 1,
    "</s>": 2,
    "<unk>": 3,
    "\u2581the": 4,
    ",": 5,
    "\u2581of": 6,
    "\u2581and": 7,
    "\u2581to": 8,
    "\u2581\"": 9,
    ".\"": 10,
    ".": 11,
    "\u2581in": 12,
    "\u2581a": 13,
    "s": 14,
    "\u2581is": 15,
    "\u2581that": 16,
    "\u2581for": 17,
    "\u2581on": 18,
    "-": 19,
    "\u2581": 20,
    "\u2581with": 21,
    "\u2581be": 22,
    "\u2581are": 23,
    "\u2581this": 24,
    "\u2581as": 25,
    "\u2581it": 26,
    "\u2581I": 27,
    "\u2581we": 28,
    "\u2581by": 29,
    "\u2581have": 30,
    "\u2581not": 31,
    "\u2581you": 32,
    "\u2581which": 33,
    "\u2581will": 34,
    "'": 35,
    "\u2581from": 36,
    "\u2581The": 37,
    "\u2581at": 38,
    "\u2581or": 39,
    "\u2581has": 40,
    "\u2581an": 41,
    "\u2581(": 42,
    "\u2581can": 43,
    "The": 44,
    "\u2581our": 45,
    "\u2581European": 46,
    "\u2581all": 47,
    "\u2581was": 48,
    "\u2581also": 49,
    ":": 50,
    "\u2581-": 51,
    "\u2581your": 52,
    ")": 53,
    "\u2581but": 54,
    "\u2581its": 55,
    "\u2581would": 56,
    "\u2581their": 57,
    "\u2581more": 58,
    "\u2581been": 59,
    "\u2581one": 60,
    "ing": 61,
    "\u2581should": 62,
    "\u2019": 63,
    "\u2581Commission": 64,
    "\u2581must": 65,
    "In": 66,
    "\u2581very": 67,
    "\u2581other": 68,
    "\u2581there": 69,
    "\u2581new": 70,
    "\u2581they": 71,
    "\u2581do": 72,
    "I": 73,
    "\u2581only": 74,
    "\u2581like": 75,
    "\u2581President": 76,
    "\u2581time": 77,
    "\u2581about": 78,
    "ed": 79,
    "\u2581so": 80,
    "\u2581these": 81,
    "\u2581who": 82,
    "\u2581Mr": 83,
    "\u2581We": 84,
    "\u2581up": 85,
    "\u2581Union": 86,
    "\u2581us": 87,
    "\u2581if": 88,
    "e": 89,
    "\u2581no": 90,
    "\u2581any": 91,
    "\u2581\"\"": 92,
    "t": 93,
    "\u2581people": 94,
    "\u2581into": 95,
    "\u2581Parliament": 96,
    "\u2581out": 97,
    "\u2581Europe": 98,
    "\u2581were": 99,
    "\u2581well": 100,
    "\u2581such": 101,
    "\u2581report": 102,
    "\u2581States": 103,
    "\u2581what": 104,
    "\u2581need": 105,
    "\u2581Member": 106,
    "\u2581countries": 107,
    "\u2581It": 108,
    "\u2581than": 109,
    ";": 110,
    "\u2581his": 111,
    "\u2581This": 112,
    "\u2581when": 113,
    "\u2581my": 114,
    "d": 115,
    "\u2581use": 116,
    "\"\"": 117,
    "\u2581Council": 118,
    "\u2581first": 119,
    "\u2581some": 120,
    "\u2581most": 121,
    "We": 122,
    "\u2581make": 123,
    "\u2581\u2013": 124,
    "\u2581A": 125,
    "\u2581work": 126,
    "\u2581now": 127,
    "\u2581important": 128,
    "\u2581many": 129,
    "\u2581between": 130,
    "\u2581EU": 131,
    "\u2581them": 132,
    "/": 133,
    "\u2581because": 134,
    "\u2581take": 135,
    "?": 136,
    "This": 137,
    "It": 138,
    "\u2581information": 139,
    "\u2581over": 140,
    "\u2581hotel": 141,
    "\u2581support": 142,
    "\u2581two": 143,
    "\u2581he": 144,
    "\u2581made": 145,
    "\u2581years": 146,
    "\u2581way": 147,
    "er": 148,
    "\u2581those": 149,
    "\u2581world": 150,
    "\u2581just": 151,
    "\u2581had": 152,
    "ly": 153,
    "\u2581where": 154,
    "\u2581policy": 155,
    "a": 156,
    "\u2581being": 157,
    "\u2581may": 158,
    "\u2581system": 159,
    "A": 160,
    "\u2581even": 161,
    "\u2581am": 162,
    "\u2581right": 163,
    "\u2581de": 164,
    "\u2581,": 165,
    "\u2581part": 166,
    "\u2581order": 167,
    "\u2581area": 168,
    "\u2581good": 169,
    "\u2581year": 170,
    "If": 171,
    "\u2581market": 172,
    "\u2581here": 173,
    "\u2581place": 174,
    "\u2581through": 175,
    "\u2581possible": 176,
    "\u2581same": 177,
    "n": 178,
    "\u2581own": 179,
    "\u2581after": 180,
    "in": 181,
    "y": 182,
    "\u2581political": 183,
    "\u2581development": 184,
    "\u2581want": 185,
    "\u2581economic": 186,
    "\u2581could": 187,
    "\u2581see": 188,
    "\u2581under": 189,
    "\u2581within": 190,
    "\u2581rights": 191,
    "\u2581against": 192,
    "\u2581both": 193,
    "\u2581find": 194,
    "\u2581therefore": 195,
    "o": 196,
    "\u2581much": 197,
    "Mr": 198,
    "\u2581used": 199,
    "\u2581how": 200,
    "\u2581then": 201,
    "\u2581does": 202,
    "m": 203,
    "\u2581high": 204,
    "\u2581country": 205,
    "\u2581public": 206,
    "\u2581number": 207,
    "\u2581In": 208,
    "\u2581'": 209,
    "!": 210,
    "\u2581without": 211,
    "\u2581\u201c": 212,
    "\u2581me": 213,
    "\u2581international": 214,
    "\u2581point": 215,
    "th": 216,
    "As": 217,
    "\u2581fact": 218,
    "\u2581services": 219,
    "\u2581social": 220,
    "\u2581still": 221,
    "\u2581know": 222,
    "\u2581great": 223,
    "\u2581say": 224,
    "\u2581long": 225,
    "\u2581available": 226,
    "\u2581different": 227,
    "\u2581believe": 228,
    "\u2581future": 229,
    "\u2581view": 230,
    "\u2581already": 231,
    "\u2581free": 232,
    "\u2581last": 233,
    "\u2581before": 234,
    "\u2581course": 235,
    "\u2581today": 236,
    "\u2581.": 237,
    "\u25812": 238,
    "\u2581able": 239,
    "\u2581think": 240,
    "\u2581products": 241,
    "\u2581process": 242,
    "\u2581data": 243,
    "\u2581cannot": 244,
    "\u2581service": 245,
    "\u2581Hotel": 246,
    "\u2581human": 247,
    "en": 248,
    "\u2581case": 249,
    "\u2581set": 250,
    "\u2581too": 251,
    "i": 252,
    "S": 253,
    "\u2581get": 254,
    "es": 255,
    "\u2581S": 256,
    "\u2581level": 257,
    "\u2581end": 258,
    "\u2581offers": 259,
    "\u2581issue": 260,
    "\u2581room": 261,
    "\u2581national": 262,
    "\u2581during": 263,
    "\u2581proposal": 264,
    "\u25811": 265,
    "For": 266,
    "\u2581financial": 267,
    "\u2581best": 268,
    "\u2581question": 269,
    "\u2581example": 270,
    "\u2581said": 271,
    "r": 272,
    "\u2581means": 273,
    "),": 274,
    "\u2581debate": 275,
    "\u2581Commissioner": 276,
    "\u2581You": 277,
    "\u2581situation": 278,
    "\u2581small": 279,
    "\u2581help": 280,
    "\u2581city": 281,
    "\u2581every": 282,
    "\u2581day": 283,
    "\u2581quality": 284,
    "\u2581since": 285,
    "\u25813": 286,
    "\u201d": 287,
    "?\"": 288,
    "\u2581particular": 289,
    "\u2581clear": 290,
    "\u2581each": 291,
    "\u2581Committee": 292,
    "\u2581business": 293,
    "\u2581offer": 294,
    "\u2581including": 295,
    "\u2581access": 296,
    "\u2581s": 297,
    "\u2581give": 298,
    "\u2581measures": 299,
    "\u2581common": 300,
    "\u2581three": 301,
    "\u2581provide": 302,
    "\u2581next": 303,
    "\u2581agreement": 304,
    "\u2581few": 305,
    "\u2581energy": 306,
    "\u2581rooms": 307,
    "\u2581areas": 308,
    "\u2581citizens": 309,
    "However": 310,
    "\u2581large": 311,
    "\u2581problem": 312,
    "\u2581taken": 313,
    "\u2581far": 314,
    "re": 315,
    "\u2581put": 316,
    "\u2581ensure": 317,
    "\u2581come": 318,
    "al": 319,
    "\u2581further": 320,
    "\u2581again": 321,
    "\u2581back": 322,
    "\u2581necessary": 323,
    "\u2581company": 324,
    "\u2581change": 325,
    "\u2581problems": 326,
    "\u2581shall": 327,
    "\u2581given": 328,
    "\u2581security": 329,
    "\u2581go": 330,
    "\u2581why": 331,
    "\u2581cooperation": 332,
    "\u2581however": 333,
    ").\"": 334,
    "\u2581while": 335,
    "\u2581position": 336,
    "\u2581group": 337,
    "\u2581hope": 338,
    "\u2581real": 339,
    "\u2581e": 340,
    "\u2581her": 341,
    "\u2581life": 342,
    "\u2581vote": 343,
    "\u2581law": 344,
    "\u2581always": 345,
    "g": 346,
    "\u2581action": 347,
    "\u2581stay": 348,
    "\u2581Group": 349,
    "\u2581located": 350,
    "\u2581form": 351,
    "or": 352,
    "\u2581better": 353,
    "\u2581There": 354,
    "\u2581protection": 355,
    "\u2581needs": 356,
    "\u2581main": 357,
    "\u2581United": 358,
    "\u2581present": 359,
    "\u2581full": 360,
    "\u2581special": 361,
    "\u2581using": 362,
    "\u2581re": 363,
    "!\"": 364,
    "\u2581current": 365,
    "\u2581based": 366,
    "\u2581production": 367,
    "\u2581become": 368,
    "\u2581working": 369,
    "\u2581open": 370,
    "\u2581legal": 371,
    "\u2581power": 372,
    "\u2581state": 373,
    "\u2581terms": 374,
    "\u2581around": 375,
    "\u2581whether": 376,
    "\u2581trade": 377,
    "\u25815": 378,
    "\u2581result": 379,
    "\u2581down": 380,
    "\u2581particularly": 381,
    "\u2581did": 382,
    "to": 383,
    "\u2581Community": 384,
    "\u2581House": 385,
    "\u2581together": 386,
    "\u2581another": 387,
    "\u2581second": 388,
    "\u25814": 389,
    "\u2581children": 390,
    "\u2581local": 391,
    "\u2581.\"": 392,
    "\u2581centre": 393,
    "\u2581role": 394,
    "\u2581conditions": 395,
    "\u2581issues": 396,
    "\u2581certain": 397,
    "\u2581per": 398,
    "\u2581C": 399,
    "\u2581whole": 400,
    "\u2581various": 401,
    "\u2581experience": 402,
    "\u2581women": 403,
    "\u2581B": 404,
    "\u2581companies": 405,
    "\u2581industry": 406,
    "\u2581basis": 407,
    "B": 408,
    "\u2581control": 409,
    "\u2581matter": 410,
    "\u2581health": 411,
    "\u2581respect": 412,
    "\u2581budget": 413,
    "\u2581account": 414,
    "\u2581sector": 415,
    "\u2581systems": 416,
    "\u2581Mrs": 417,
    "\u2581research": 418,
    "\u2581water": 419,
    "\u2581That": 420,
    "\u2581E": 421,
    "\u2581non": 422,
    "\u2581done": 423,
    "\u2581especially": 424,
    "\u2581third": 425,
    "\u2581create": 426,
    "\u2581government": 427,
    "There": 428,
    "On": 429,
    "To": 430,
    "\u2581region": 431,
    "\u2581really": 432,
    "2": 433,
    "\u2581look": 434,
    "\u2581hand": 435,
    "\u2581close": 436,
    "\u2581million": 437,
    "\u2581decision": 438,
    "\u2581project": 439,
    "\u2581single": 440,
    "\u2581specific": 441,
    "com": 442,
    "\u2581programme": 443,
    "C": 444,
    "\u2581itself": 445,
    "\u258110": 446,
    "\u2581site": 447,
    "\u2581continue": 448,
    "ers": 449,
    "\u2581something": 450,
    "\u2581major": 451,
    "\u2581resolution": 452,
    "\u2581several": 453,
    "\u2581modern": 454,
    "D": 455,
    "\u2581German": 456,
    "\u2581general": 457,
    "\u2581page": 458,
    "\u2581All": 459,
    "\u2581regard": 460,
    "\u2581gentlemen": 461,
    "\u2581wish": 462,
    "\u2581less": 463,
    "...": 464,
    "\u2581subject": 465,
    "\u2581directive": 466,
    "\u2581making": 467,
    "on": 468,
    "\u2581transport": 469,
    "\u2581following": 470,
    "\u2581rapporteur": 471,
    "\u2581least": 472,
    ").": 473,
    "With": 474,
    "\u2581start": 475,
    "\u2581name": 476,
    "\u2581going": 477,
    "\u2581old": 478,
    "\u2581often": 479,
    "\u2581management": 480,
    "\u2581crisis": 481,
    "\u2581rules": 482,
    "\u2581environment": 483,
    "At": 484,
    "\u2581global": 485,
    "\u2581ask": 486,
    "\u2581range": 487,
    "\u2581Germany": 488,
    "\u2581individual": 489,
    "\u2581towards": 490,
    "\u2581away": 491,
    "\u2581welcome": 492,
    "\u2581family": 493,
    "\u2581once": 494,
    "\u2581thank": 495,
    "\u2581product": 496,
    "\u2581institutions": 497,
    "\u2581found": 498,
    "\u2581price": 499,
    "\u2581money": 500,
    "\u2581software": 501,
    "\u2581excellent": 502,
    "\u2581until": 503,
    "\u2581increase": 504,
    "\u2581things": 505,
    "\u2581forward": 506,
    "\u2581food": 507,
    "\u2581Treaty": 508,
    "\u2581short": 509,
    "\u2581aid": 510,
    "\u2581location": 511,
    "\u2581personal": 512,
    "\u2581him": 513,
    "\u2581&": 514,
    "\u2581No": 515,
    "\u2581customers": 516,
    "\u2581little": 517,
    "\u2581call": 518,
    "\u2581opportunity": 519,
    "l": 520,
    "\u2581growth": 521,
    "\u2581staff": 522,
    "\u2581rather": 523,
    "\u2581activities": 524,
    "\u2581line": 525,
    "the": 526,
    "\u2581Our": 527,
    "\u2581air": 528,
    "\u2581agree": 529,
    "\u2581days": 530,
    "\u2581period": 531,
    "\u2581US": 532,
    "\u2581resources": 533,
    "\u2581private": 534,
    "\u2581approach": 535,
    "\u2581behalf": 536,
    "\u2581home": 537,
    "\u2581un": 538,
    "\u2581framework": 539,
    "\u2581provided": 540,
    "\u2581quite": 541,
    "ll": 542,
    "\u2581interest": 543,
    "\u2581include": 544,
    "\u2581But": 545,
    "\u2581fully": 546,
    "\u2581list": 547,
    "But": 548,
    "\u2581field": 549,
    "\u2581ladies": 550,
    "\u2581yet": 551,
    "\u2581off": 552,
    "\u2581might": 553,
    "\u258120": 554,
    "\u2581technology": 555,
    "\u2581having": 556,
    "\u2581solution": 557,
    "\u2581amendments": 558,
    "You": 559,
    "\u2581\"(": 560,
    "\u2581progress": 561,
    "\u2581favour": 562,
    "\u2581State": 563,
    "\u2581among": 564,
    "\u2581value": 565,
    "\u2581la": 566,
    "\u2581reason": 567,
    "\u25816": 568,
    "\u2581safety": 569,
    "\u2581members": 570,
    "\u2581allow": 571,
    "\u2581play": 572,
    "\u2581economy": 573,
    "\u2581proposals": 574,
    "\u2581above": 575,
    "\u2581left": 576,
    "\u2581adopted": 577,
    "\u2581en": 578,
    "\u2581opinion": 579,
    "\u2581town": 580,
    "k": 581,
    "\u2581taking": 582,
    "\u2581costs": 583,
    "\u2581enjoy": 584,
    "\u2581legislation": 585,
    "\u2581design": 586,
    "\u2581T": 587,
    "\u2581G": 588,
    "\u2581key": 589,
    "\u258115": 590,
    "\u2581addition": 591,
    "\u2581application": 592,
    "\u2581P": 593,
    "\u2581Members": 594,
    "\u2581called": 595,
    "\u258118": 596,
    "\u2581sea": 597,
    "\u2581content": 598,
    "\u2581D": 599,
    "\u2581website": 600,
    "\u2581difficult": 601,
    "\u2581...": 602,
    "\u2581policies": 603,
    "\u2581[[": 604,
    "c": 605,
    "able": 606,
    "\u2581due": 607,
    "\u2581attention": 608,
    "\u2581contact": 609,
    "\u2581For": 610,
    "\u2581concerned": 611,
    "h": 612,
    "\u2581responsibility": 613,
    "\u2581easy": 614,
    "\u2581show": 615,
    "\u2581He": 616,
    "\u2581results": 617,
    "\u2581projects": 618,
    "\u2581simply": 619,
    "\u2581minutes": 620,
    "\u2581building": 621,
    "\u2581China": 622,
    "\u2581importance": 623,
    "\u2581she": 624,
    "\u2581And": 625,
    "\u2581text": 626,
    "\u2581provides": 627,
    "\u2581effective": 628,
    "\u2581car": 629,
    "\u2581society": 630,
    "te": 631,
    "\u2581complete": 632,
    "\u2581What": 633,
    "\u2581points": 634,
    "\u2581principle": 635,
    "\u2581makes": 636,
    "de": 637,
    "\u2581greater": 638,
    "\u2581environmental": 639,
    "\u2581strategy": 640,
    "\u2581known": 641,
    "That": 642,
    "\u2581groups": 643,
    "\u2581beautiful": 644,
    "\u2581questions": 645,
    "\u2581others": 646,
    "\u2581training": 647,
    "\u2581version": 648,
    "st": 649,
    "\u2581heart": 650,
    "\u2581natural": 651,
    "\u2581standards": 652,
    "\u2581achieve": 653,
    "\u2581times": 654,
    "\u2581along": 655,
    "\u2581words": 656,
    "\u2581required": 657,
    "\u2581kind": 658,
    "\u2581meeting": 659,
    "\u2581past": 660,
    "\u2581They": 661,
    "\u2581authorities": 662,
    "\u2581clearly": 663,
    "\u2581deal": 664,
    "\u2581recent": 665,
    "\u2581World": 666,
    "When": 667,
    "\u2581essential": 668,
    "\u2581light": 669,
    "\u25817": 670,
    "\u2581step": 671,
    "\u2581bring": 672,
    "\u2581risk": 673,
    "\u2581technical": 674,
    "an": 675,
    "\u2581Internet": 676,
    "\u2581side": 677,
    "\u2581address": 678,
    "x": 679,
    "\u2581internal": 680,
    "\u2581serious": 681,
    "\u2581employment": 682,
    "\u2581feel": 683,
    "\u2581longer": 684,
    "\u2581four": 685,
    "\u258112": 686,
    "\u2581proposed": 687,
    "\u2581responsible": 688,
    "\u2581directly": 689,
    "\u2581months": 690,
    "\u2581|": 691,
    "\u2581nature": 692,
    "\u2581M": 693,
    "\u2581visit": 694,
    "\u2581person": 695,
    "\u2581user": 696,
    "\u2581cost": 697,
    "\u2581currently": 698,
    "\u2581m": 699,
    "\u2581requirements": 700,
    "\u2581cultural": 701,
    "z": 702,
    "\u2581pages": 703,
    "\u2581history": 704,
    "Our": 705,
    "\u2581solutions": 706,
    "\u2581interests": 707,
    "\u2581enough": 708,
    "\u2581implementation": 709,
    "\u2581involved": 710,
    "\u2581competition": 711,
    "\u2581themselves": 712,
    "\u2581/": 713,
    "no": 714,
    "\u2581freedom": 715,
    "\u2581parties": 716,
    "\u2581network": 717,
    "\u2581peace": 718,
    "\u2581central": 719,
    "\u2581young": 720,
    "\u2581voted": 721,
    "\u2581regions": 722,
    "\u2581events": 723,
    "\u2581democracy": 724,
    "E": 725,
    "\u25818": 726,
    "\u2581sure": 727,
    "\u2581guests": 728,
    "u": 729,
    "\u2581let": 730,
    "\u2581near": 731,
    "\u2581ago": 732,
    "\u2581efforts": 733,
    "\u2581century": 734,
    "\u2581upon": 735,
    "\u2581needed": 736,
    "\u2581event": 737,
    "\u2581war": 738,
    "\u2581regulation": 739,
    "\u2581never": 740,
    "]]": 741,
    "\u2581online": 742,
    "\u2581please": 743,
    "\u2581EUR": 744,
    "\u2581extremely": 745,
    "\u2581keep": 746,
    "\u2581positive": 747,
    "\u2581O": 748,
    "\u2581pay": 749,
    "\u2581facilities": 750,
    "le": 751,
    "\u2581developed": 752,
    "\u2581force": 753,
    "\u2581fundamental": 754,
    "\u2581language": 755,
    "\u2581total": 756,
    "\u2581negotiations": 757,
    "\u2581These": 758,
    "\u2581top": 759,
    "\u2581changes": 760,
    "p": 761,
    "\u2581live": 762,
    "\u2581K": 763,
    "\u2581request": 764,
    "\u2581V": 765,
    "\u2581developing": 766,
    "\u2581capital": 767,
    "\u2581team": 768,
    "\u2581improve": 769,
    "\u2581either": 770,
    "\u2581consider": 771,
    "\u2581effect": 772,
    "\u2581foreign": 773,
    "f": 774,
    "\u25812009": 775,
    "\u258130": 776,
    "\u2581strong": 777,
    "\u2581Presidency": 778,
    "b": 779,
    "\u2581Russia": 780,
    "\u2581meet": 781,
    "\u2581created": 782,
    "\u2581music": 783,
    "\u2581share": 784,
    "\u2581i": 785,
    "\u2581cases": 786,
    "\u2581additional": 787,
    "\u2581via": 788,
    "\u2581success": 789,
    "\u2581though": 790,
    "\u2581education": 791,
    "\u2581lot": 792,
    "\u2581comes": 793,
    "\u2581breakfast": 794,
    "\u2581etc": 795,
    "...\"": 796,
    "\u2581regional": 797,
    "\u2581according": 798,
    "\u2581views": 799,
    "\u2581accept": 800,
    "\u2581climate": 801,
    "\u2581house": 802,
    "\u2581true": 803,
    "\u2581democratic": 804,
    "\u2581situated": 805,
    "\u2581idea": 806,
    "\u2581thus": 807,
    "\u2581appropriate": 808,
    "\u2581receive": 809,
    "ve": 810,
    "\u2581unique": 811,
    "ar": 812,
    "\u2581care": 813,
    "\u2581final": 814,
    "\u2581New": 815,
    "\u2581So": 816,
    "\u2581everything": 817,
    "\u2581states": 818,
    "\u2581markets": 819,
    "\u2581International": 820,
    "\u2581almost": 821,
    "ity": 822,
    "\u2581wide": 823,
    "\u2581actually": 824,
    "\u2581direct": 825,
    "\u2581standard": 826,
    "\u2581understand": 827,
    "\u2581procedure": 828,
    "\u2581seen": 829,
    "\u2581prices": 830,
    "\u2581type": 831,
    "\u2581living": 832,
    "up": 833,
    "\u2581lead": 834,
    "\u2581soon": 835,
    "us": 836,
    "\u2581later": 837,
    "\u2581ideal": 838,
    "\u2581plan": 839,
    "\u2581French": 840,
    "ation": 841,
    "\u2581F": 842,
    "\u2581context": 843,
    "\u2581included": 844,
    "\u2581sub": 845,
    "\u2581funds": 846,
    "\u2581night": 847,
    "\u2581held": 848,
    "\u2581program": 849,
    "T": 850,
    "\u2581beach": 851,
    "\u2581reform": 852,
    "\u2581restaurant": 853,
    "3": 854,
    "K": 855,
    "\u2581thing": 856,
    "\u2581outside": 857,
    "\u2581file": 858,
    "\u2581workers": 859,
    "\u2581knowledge": 860,
    "\u2581add": 861,
    "\u2581majority": 862,
    "\u2581guarantee": 863,
    "\u2581communication": 864,
    "After": 865,
    "\u2581road": 866,
    "\u2581art": 867,
    "\u2581bar": 868,
    "\u2581customer": 869,
    "\u2581turn": 870,
    "\u2581France": 871,
    "\u2581station": 872,
    "\u2581reach": 873,
    "\u2581rate": 874,
    "\u2581run": 875,
    "\u2581throughout": 876,
    "\u2581designed": 877,
    "\u2581space": 878,
    "\u2581famous": 879,
    "\u2581tax": 880,
    "\u2581p": 881,
    "\u2581five": 882,
    "And": 883,
    "\u2581comfortable": 884,
    "it": 885,
    "\u2581features": 886,
    "_": 887,
    "\u2581investment": 888,
    "\u2581week": 889,
    "\u2581certainly": 890,
    "\u2581low": 891,
    "\u2581\u2018": 892,
    "\u2581hard": 893,
    "\u2581date": 894,
    "\u2581early": 895,
    "\u2581across": 896,
    "\u2581doing": 897,
    "\u2581looking": 898,
    "\u2581moment": 899,
    "\u2581Government": 900,
    "\u2581La": 901,
    "\u2581check": 902,
    "\u2581existing": 903,
    "\u2581model": 904,
    "\u2581relations": 905,
    "\u2581writing": 906,
    "\u2581d": 907,
    "\u2581impact": 908,
    "ness": 909,
    "\u2581hours": 910,
    "\u2581traditional": 911,
    "ch": 912,
    "\u2581connection": 913,
    "ist": 914,
    "\u2581concerns": 915,
    "\u2581Re": 916,
    "\u2581ever": 917,
    "\u2581took": 918,
    "\u2581significant": 919,
    "\u2581To": 920,
    "\u2581concerning": 921,
    "\u2581mentioned": 922,
    "\u2581users": 923,
    "P": 924,
    "\u2581apply": 925,
    "\u25819": 926,
    "\u2581basic": 927,
    "\u2581web": 928,
    "\u2581programmes": 929,
    "\u2581big": 930,
    "\u2581committee": 931,
    "G": 932,
    "\u2581professional": 933,
    "\u2581km": 934,
    "\u2581try": 935,
    "\u2581aware": 936,
    "\u2581member": 937,
    "\u2581media": 938,
    "\u2581population": 939,
    "\u2581completely": 940,
    "\u2581amount": 941,
    "\u2581leading": 942,
    "\u2581remain": 943,
    "\u2581develop": 944,
    "\u2581although": 945,
    "\u2581U": 946,
    "\u2581If": 947,
    "\u2581Turkey": 948,
    "term": 949,
    "man": 950,
    "\u2581related": 951,
    "\u2581practice": 952,
    "\u2581reasons": 953,
    "\u2581perfect": 954,
    "1": 955,
    "\u2581community": 956,
    "na": 957,
    "\u2581material": 958,
    "\u2581built": 959,
    "\u2581game": 960,
    "\u2581nothing": 961,
    "They": 962,
    "\u2581culture": 963,
    "\u2581military": 964,
    "\u2581decisions": 965,
    "\u2581parts": 966,
    "\u2581America": 967,
    "All": 968,
    "\u2581di": 969,
    "\u2581holiday": 970,
    "\u2581Court": 971,
    "\u2581original": 972,
    "\u2581takes": 973,
    "\u2581walk": 974,
    "F": 975,
    "is": 976,
    "\u2581American": 977,
    "\u2581send": 978,
    "\u2581term": 979,
    "\u2581equipment": 980,
    "\u2581fight": 981,
    "\u2581body": 982,
    "\u2581pool": 983,
    "\u2581objectives": 984,
    "\u2581move": 985,
    "\u2581euro": 986,
    "as": 987,
    "\u2581concern": 988,
    "\u2581read": 989,
    "These": 990,
    "\u2581established": 991,
    "\u2581received": 992,
    "\u2581works": 993,
    "\u2581choice": 994,
    "\u2581agreements": 995,
    "\u2581objective": 996,
    "\u2581allows": 997,
    "\u2581package": 998,
    "\u2581jobs": 999,
    "\u2581aim": 1000,
    "\u2581includes": 1001,
    "\u2581partners": 1002,
    "\u2581book": 1003,
    "\u2581performance": 1004,
    "\u2581demand": 1005,
    "\u2581L": 1006,
    "\u2581entire": 1007,
    "\u2581sense": 1008,
    "\u2581agricultural": 1009,
    "\u2581co": 1010,
    "\u2581values": 1011,
    "\u2581regarding": 1012,
    "\u2581Lisbon": 1013,
    "\u2581pre": 1014,
    "He": 1015,
    "\u2581image": 1016,
    "\u2581Please": 1017,
    "\u2581benefit": 1018,
    "\u2581mind": 1019,
    "\u2581face": 1020,
    "\u2581quickly": 1021,
    "\u2581dialogue": 1022,
    "\u258116": 1023,
    "\u2581prevent": 1024,
    "\u2581TV": 1025,
    "\u2581Affairs": 1026,
    "\u2581half": 1027,
    "\u2581beginning": 1028,
    "\u2581act": 1029,
    "\u2581initiative": 1030,
    "\u2581treatment": 1031,
    "\u2581applications": 1032,
    "\u2581self": 1033,
    "So": 1034,
    "\u258117": 1035,
    "\u2581May": 1036,
    "\u2581return": 1037,
    "\u2581simple": 1038,
    "and": 1039,
    "\u2581potential": 1040,
    "\u2581function": 1041,
    "\u2581achieved": 1042,
    "\u2581party": 1043,
    "ic": 1044,
    "\u2581computer": 1045,
    "\u2581mean": 1046,
    "\u2581below": 1047,
    "\u2581indeed": 1048,
    "\u258111": 1049,
    "\u2581guest": 1050,
    "\u2581focus": 1051,
    "\u2581H": 1052,
    "\u2581South": 1053,
    "M": 1054,
    "(": 1055,
    "O": 1056,
    "\u2581R": 1057,
    "\u2581job": 1058,
    "\u2581seems": 1059,
    "\u2581English": 1060,
    "\u2581center": 1061,
    "\u2581contains": 1062,
    "\u2581answer": 1063,
    "\u2581choose": 1064,
    "\u2581recently": 1065,
    "Madam": 1066,
    "ism": 1067,
    "at": 1068,
    "ne": 1069,
    "\u2581und": 1070,
    "\u2581successful": 1071,
    "\u2581lack": 1072,
    "\u2581follow": 1073,
    "\u2581integration": 1074,
    "\u2581internet": 1075,
    "\u2581keyword": 1076,
    "\u2581card": 1077,
    "\u2581stop": 1078,
    "\u2581highly": 1079,
    "H": 1080,
    "\u2581presented": 1081,
    "\u2581An": 1082,
    "\u2581everyone": 1083,
    "\u2581series": 1084,
    "\u2581front": 1085,
    "\u2581increased": 1086,
    "\u2581stage": 1087,
    "\u2581carried": 1088,
    "\u2581amendment": 1089,
    "\u2581huge": 1090,
    "\u2581joint": 1091,
    "\u2581whose": 1092,
    "ta": 1093,
    "\u2581goods": 1094,
    "\u2581rest": 1095,
    "\u2581active": 1096,
    "\u2581files": 1097,
    "\u2581commitment": 1098,
    "\u2581promote": 1099,
    "\u2581agreed": 1100,
    "\u2581equipped": 1101,
    "\u2581creation": 1102,
    "\u2581consumers": 1103,
    "\u25812010": 1104,
    "\u2581sound": 1105,
    "\u2581June": 1106,
    "\u2581governments": 1107,
    "\u2581complex": 1108,
    "\u2581higher": 1109,
    "\u2581double": 1110,
    "\u2581office": 1111,
    "\u258114": 1112,
    "What": 1113,
    "\u2581principles": 1114,
    "\u2581N": 1115,
    "\u2581exchange": 1116,
    "\u2581St": 1117,
    "Finally": 1118,
    "\u2581perhaps": 1119,
    "\u2581reviews": 1120,
    "\u2581direction": 1121,
    "\u2581enable": 1122,
    "\u2581men": 1123,
    "\u2581nuclear": 1124,
    "\u2581levels": 1125,
    "\u2581man": 1126,
    "\u2581travel": 1127,
    "\u2581shown": 1128,
    "\u2581asked": 1129,
    "\u2581reports": 1130,
    "\u2581aspects": 1131,
    "\u2581came": 1132,
    "\u25812008": 1133,
    "\u2581At": 1134,
    "\u2581opportunities": 1135,
    "\u2581East": 1136,
    "\u2581oil": 1137,
    "\u2581possibility": 1138,
    "\u2581reduce": 1139,
    "\u2581friendly": 1140,
    "\u2581speak": 1141,
    "\u258150": 1142,
    "\u2581shows": 1143,
    "\u2581pressure": 1144,
    "\u2581Berlin": 1145,
    "\u2581response": 1146,
    "\u2581One": 1147,
    "el": 1148,
    "\u2581latest": 1149,
    "ion": 1150,
    "\u00ae": 1151,
    "\u2581matters": 1152,
    "\u2581considered": 1153,
    "\u2581behind": 1154,
    "\u2581previous": 1155,
    "\u2581added": 1156,
    "\u2581external": 1157,
    "ia": 1158,
    "\u2581reached": 1159,
    "\u258125": 1160,
    "\u2581setting": 1161,
    "\u2581rates": 1162,
    "\u2581fair": 1163,
    "\u2581enlargement": 1164,
    "\u2581effects": 1165,
    "\u2581floor": 1166,
    "\u2581providing": 1167,
    "\u2581thanks": 1168,
    "\u2581test": 1169,
    "\u2581industrial": 1170,
    "os": 1171,
    "\u2581prepared": 1172,
    "\u2581sustainable": 1173,
    "\u2581Madam": 1174,
    "\u2581:": 1175,
    "\u2581Article": 1176,
    "\u2581When": 1177,
    "ra": 1178,
    "\u2581land": 1179,
    "\u2581\"\"\"": 1180,
    "\u2581commercial": 1181,
    "\u2581protect": 1182,
    "\u2581materials": 1183,
    "\u2581decided": 1184,
    "\u2581popular": 1185,
    "\u2581summer": 1186,
    "\u2581note": 1187,
    "\u2581easily": 1188,
    "\u2581capacity": 1189,
    "\u2581atmosphere": 1190,
    "\u2581submitted": 1191,
    "\u2581civil": 1192,
    "\u2581search": 1193,
    "\u2581increasing": 1194,
    "\u2581cause": 1195,
    "\u2581video": 1196,
    "co": 1197,
    "\u2581construction": 1198,
    "\u2581Spain": 1199,
    "\u2581accommodation": 1200,
    "\u2581table": 1201,
    "\u2581How": 1202,
    "\u2581balance": 1203,
    "\u2581Convention": 1204,
    "\u2581coming": 1205,
    "\u2581billion": 1206,
    "\u2581supply": 1207,
    "\u2581priority": 1208,
    "\u2581leave": 1209,
    "W": 1210,
    "\u2581don": 1211,
    "\u2581consumer": 1212,
    "\u2581UN": 1213,
    "\u2581style": 1214,
    "\u2581movement": 1215,
    "\u2581funding": 1216,
    "\u2581remains": 1217,
    "\u2581Bank": 1218,
    "R": 1219,
    "\u2581details": 1220,
    "\u2581island": 1221,
    "\u2581post": 1222,
    "\u2581property": 1223,
    "\u258113": 1224,
    "\u2581assistance": 1225,
    "\u2581closed": 1226,
    "ment": 1227,
    "\u2581Central": 1228,
    "\u2581rule": 1229,
    "\u2581Italy": 1230,
    "\u2581actions": 1231,
    "\u2581December": 1232,
    "\u2581similar": 1233,
    "\u2581limited": 1234,
    "\u2581purpose": 1235,
    "\u2581age": 1236,
    "\u043e": 1237,
    "\u2581100": 1238,
    "\u2581As": 1239,
    "\u2581September": 1240,
    "\u2581independent": 1241,
    "\u2581brought": 1242,
    "\u2581document": 1243,
    "\u2581charge": 1244,
    "\u2581cross": 1245,
    "\u2581former": 1246,
    "\u2581Do": 1247,
    "\u2581supported": 1248,
    "\u2581size": 1249,
    "4": 1250,
    "From": 1251,
    "\u2581Africa": 1252,
    "|": 1253,
    "By": 1254,
    "V": 1255,
    "\u2581gives": 1256,
    "\u2581creating": 1257,
    "\u2581discussion": 1258,
    "\u2581March": 1259,
    "v": 1260,
    "\u258124": 1261,
    "\u2581Italian": 1262,
    "\u2581pleased": 1263,
    "\u2581Republic": 1264,
    "\u2581credit": 1265,
    "\u2581W": 1266,
    "\u2581regulations": 1267,
    "\u2581message": 1268,
    "\u2581relevant": 1269,
    "\u2581clean": 1270,
    "me": 1271,
    "\u2581De": 1272,
    "\u2581produced": 1273,
    "\u2581sites": 1274,
    "\u2581became": 1275,
    "\u2581item": 1276,
    "\u2581forms": 1277,
    "\u2581largest": 1278,
    "\u2581variety": 1279,
    "\u2581conference": 1280,
    "\u2581bus": 1281,
    "\u2581stability": 1282,
    "\u2581six": 1283,
    "\u2581nice": 1284,
    "\u2581relation": 1285,
    "\u2581instead": 1286,
    "\u2581produce": 1287,
    "Since": 1288,
    "\u2581On": 1289,
    "\u2581press": 1290,
    "\u2581compromise": 1291,
    "\u2581concept": 1292,
    "\u2581task": 1293,
    "\u2581tell": 1294,
    "\u2581contribution": 1295,
    "\u2581school": 1296,
    "\u2581con": 1297,
    "\u2581source": 1298,
    "\u2581fishing": 1299,
    "\u2581anti": 1300,
    "\u2581damage": 1301,
    "\u2581effort": 1302,
    "\u2581January": 1303,
    "\u2581draft": 1304,
    "ca": 1305,
    "\u2581interesting": 1306,
    "\u2581activity": 1307,
    "\u2581)": 1308,
    "DE": 1309,
    "\u2581partner": 1310,
    "\u2581medium": 1311,
    "\u2581safe": 1312,
    "\u2581...\"": 1313,
    "\u2581allowed": 1314,
    "\u2581started": 1315,
    "\u2581study": 1316,
    "\u2581der": 1317,
    "la": 1318,
    "\u2581places": 1319,
    "w": 1320,
    "\u2581die": 1321,
    "\u2581labour": 1322,
    "\u25812007": 1323,
    "\u2581distribution": 1324,
    "\u2581status": 1325,
    "ry": 1326,
    "\u2581procedures": 1327,
    "\u2581avoid": 1328,
    "\u2581regards": 1329,
    "j": 1330,
    "\u2581tool": 1331,
    "\u2581October": 1332,
    "L": 1333,
    "\u2581provisions": 1334,
    "\u2581wine": 1335,
    "\u2581hotels": 1336,
    "\u2581Minister": 1337,
    "\u2581code": 1338,
    "\u2581British": 1339,
    "\u2581equal": 1340,
    "\u2581statement": 1341,
    "\u2581criteria": 1342,
    "\u2581ourselves": 1343,
    "\u2581express": 1344,
    "\u2581agenda": 1345,
    "\u2581b": 1346,
    "\u2581click": 1347,
    "\u2581instruments": 1348,
    "\u2581steps": 1349,
    "\u2581word": 1350,
    "\u2581giving": 1351,
    "\u2581apartment": 1352,
    "\u2581violence": 1353,
    "\u2581written": 1354,
    "rs": 1355,
    "\u2581structure": 1356,
    "\u2581nor": 1357,
    "\u2581North": 1358,
    "\u2581Bar": 1359,
    "\u2581village": 1360,
    "\u2581del": 1361,
    "\u2581option": 1362,
    "\u2581require": 1363,
    "\u2581reading": 1364,
    "\u2581ten": 1365,
    "\u2581link": 1366,
    "\u2581finally": 1367,
    "\u2581extra": 1368,
    "\u2581ground": 1369,
    "\u2581National": 1370,
    "\u2581San": 1371,
    "\u2581historical": 1372,
    "\u2581documents": 1373,
    "\u2581draw": 1374,
    "\u2581Service": 1375,
    "land": 1376,
    "&": 1377,
    "\u2581transparency": 1378,
    "\u2581airport": 1379,
    "\u2581stand": 1380,
    "mail": 1381,
    "\u2581Rights": 1382,
    "\u2581Spanish": 1383,
    "ro": 1384,
    "da": 1385,
    "\u2581benefits": 1386,
    "\u2581restaurants": 1387,
    "\u2581efficient": 1388,
    "\u2581immediately": 1389,
    "\u2581section": 1390,
    "\u2581distance": 1391,
    "\u2581highest": 1392,
    "\u2581base": 1393,
    "\u2581build": 1394,
    "\u2581death": 1395,
    "\u2581employees": 1396,
    "\u2581integrated": 1397,
    "\u258119": 1398,
    "\u2581elements": 1399,
    "\u2581numerous": 1400,
    "\u2581applied": 1401,
    "\u2581operation": 1402,
    "\u2581review": 1403,
    "\u2581poverty": 1404,
    "\u2581gas": 1405,
    "\u2581elections": 1406,
    "\u2581reality": 1407,
    "\u2581payment": 1408,
    "\u2581Le": 1409,
    "\u2581July": 1410,
    "\u2581drive": 1411,
    "\u2581conflict": 1412,
    "\u2581types": 1413,
    "ce": 1414,
    "\u2581solidarity": 1415,
    "\u2581processes": 1416,
    "\u2581saying": 1417,
    "\u2581challenges": 1418,
    "\u2581consequences": 1419,
    "\u2581X": 1420,
    "\u2581download": 1421,
    "\u2581quiet": 1422,
    "\u2581legislative": 1423,
    "\u2581Party": 1424,
    "\u2581talk": 1425,
    "\u2581digital": 1426,
    "\u2581Directive": 1427,
    "ni": 1428,
    "\u2581film": 1429,
    "\u2581transfer": 1430,
    "Therefore": 1431,
    "\u2581led": 1432,
    "ma": 1433,
    "\u2581waste": 1434,
    "\u2581daily": 1435,
    "\u2581beyond": 1436,
    "ge": 1437,
    "\u2581enter": 1438,
    "\u2581board": 1439,
    "\u2581analysis": 1440,
    "\u25812000": 1441,
    "\u2581ways": 1442,
    "\u2581carry": 1443,
    "\u2581official": 1444,
    "\u2581colleagues": 1445,
    "\u2581offering": 1446,
    "\u2581reference": 1447,
    "\u2581November": 1448,
    "\u2581practical": 1449,
    "\u2581congratulate": 1450,
    "\u2581useful": 1451,
    "\u2581bed": 1452,
    "\u2581tools": 1453,
    "\u2581mountain": 1454,
    "\u2581c": 1455,
    "\u2581goes": 1456,
    "\u2581J": 1457,
    "\u2581expect": 1458,
    "ten": 1459,
    "\u2581friends": 1460,
    "\u2581paid": 1461,
    "\u2581Mediterranean": 1462,
    "\u2581mobile": 1463,
    "\u2581late": 1464,
    "\u2581speed": 1465,
    "]": 1466,
    "\u2581tomorrow": 1467,
    "X": 1468,
    "\u2581crucial": 1469,
    "\u2581park": 1470,
    "\u2581sent": 1471,
    "\u2581requires": 1472,
    "\u2581instrument": 1473,
    "\u2581offered": 1474,
    "ka": 1475,
    "be": 1476,
    "\u2581apartments": 1477,
    "\u2581implemented": 1478,
    "\u2581persons": 1479,
    "\u2581happy": 1480,
    "\u2581organisations": 1481,
    "se": 1482,
    "\u2581000": 1483,
    "\u2581implement": 1484,
    "\u2581learn": 1485,
    "\u2581relating": 1486,
    "\u2581reduction": 1487,
    "\u2581minimum": 1488,
    "\u2581begin": 1489,
    "5": 1490,
    "\u2581Park": 1491,
    "\u2581machine": 1492,
    "\u2581ideas": 1493,
    "Office": 1494,
    "\u2581Development": 1495,
    "based": 1496,
    "\u2581forces": 1497,
    "\u2581monitoring": 1498,
    "ling": 1499,
    "\u2581comprehensive": 1500,
    "\u2581head": 1501,
    "\u2581efficiency": 1502,
    "\u2581published": 1503,
    "do": 1504,
    "\u2581method": 1505,
    "\u258121": 1506,
    "\u2581caused": 1507,
    "\u2581adopt": 1508,
    "\u2581growing": 1509,
    "\u2581starting": 1510,
    "\u2581operating": 1511,
    "\u2581historic": 1512,
    "\u2581accordance": 1513,
    "\u2581Windows": 1514,
    "\u2581establish": 1515,
    "\u2581thought": 1516,
    "\u2581train": 1517,
    "\u2581weeks": 1518,
    "\u2581challenge": 1519,
    "\u2581links": 1520,
    "One": 1521,
    "\u2581April": 1522,
    "\u2581My": 1523,
    "\u2581join": 1524,
    "\u2581mention": 1525,
    "\u2581sales": 1526,
    "\u2581extent": 1527,
    "li": 1528,
    "\u2581pass": 1529,
    "\u2581maximum": 1530,
    "N": 1531,
    "\u2581morning": 1532,
    "\u2581Web": 1533,
    "\u2581server": 1534,
    "\u2581rich": 1535,
    "\u2581selection": 1536,
    "\u2581terrorism": 1537,
    "\u2581clients": 1538,
    "\u2581lives": 1539,
    "\u2581farmers": 1540,
    "\u2581technologies": 1541,
    "\u2581poor": 1542,
    "\u2581sometimes": 1543,
    "\u2581child": 1544,
    "\u2581secure": 1545,
    "\u2581ready": 1546,
    "\u2581anything": 1547,
    "\u2581lower": 1548,
    "\u2581doubt": 1549,
    "\u2581voting": 1550,
    "\u2581lines": 1551,
    "\u2581worldwide": 1552,
    "age": 1553,
    "\u2581probably": 1554,
    "\u2581Euro": 1555,
    "\u2581chance": 1556,
    "\u2581advantage": 1557,
    "\u2581innovative": 1558,
    "\u2581parking": 1559,
    "\u2581War": 1560,
    "\u2581scientific": 1561,
    "ir": 1562,
    "\u2581[": 1563,
    "\u2581options": 1564,
    "\u2581With": 1565,
    "\u2581got": 1566,
    "\u2581garden": 1567,
    "\u2581interested": 1568,
    "\u2581Fund": 1569,
    "\u2581Amendment": 1570,
    "Y": 1571,
    "\u2581influence": 1572,
    "\u2581players": 1573,
    "\u2581methods": 1574,
    "\u2581fine": 1575,
    "\u0435": 1576,
    "\u2581round": 1577,
    "ian": 1578,
    "\u2581cut": 1579,
    "\u2581release": 1580,
    "\u2581businesses": 1581,
    "\u2581Western": 1582,
    "\u2581accepted": 1583,
    "\u2581green": 1584,
    "\u2581%": 1585,
    "\u2581contract": 1586,
    "\u2581bathroom": 1587,
    "\u2581Israel": 1588,
    "\u2581despite": 1589,
    "Although": 1590,
    "\u2581raised": 1591,
    "\u2581shopping": 1592,
    "\u2581Be": 1593,
    "per": 1594,
    "\u2581sports": 1595,
    "\u2581hold": 1596,
    "\u2581languages": 1597,
    "et": 1598,
    "\u2581photo": 1599,
    "\u2581fast": 1600,
    "\u2581swimming": 1601,
    "\u25812006": 1602,
    "less": 1603,
    "\u2581bit": 1604,
    "\u2581street": 1605,
    "Furthermore": 1606,
    "\u2581visitors": 1607,
    "\u2581love": 1608,
    "\u2581sectors": 1609,
    "\u2581se": 1610,
    "\u2581absolutely": 1611,
    "\u2581wanted": 1612,
    "\u2581comfort": 1613,
    "\u2581trying": 1614,
    "\u2581innovation": 1615,
    "Secondly": 1616,
    "\u2581lost": 1617,
    "\u2581namely": 1618,
    "\u2581y": 1619,
    "\u2581correct": 1620,
    "\u2581maintain": 1621,
    "\u2581Conference": 1622,
    "\u2581Austria": 1623,
    "\u2581strategic": 1624,
    "\u2581email": 1625,
    "\u2581border": 1626,
    "lo": 1627,
    "\u2581West": 1628,
    "\"\",": 1629,
    "\u2581accession": 1630,
    "\u2581borders": 1631,
    "\u2581Paris": 1632,
    "\u2581Co": 1633,
    "\u2581leaders": 1634,
    "\u2581relationship": 1635,
    "ur": 1636,
    "\u2581demands": 1637,
    "\u2581overall": 1638,
    "\u2581Ireland": 1639,
    "\u2581alternative": 1640,
    "one": 1641,
    "\u2581illegal": 1642,
    "\u2581annual": 1643,
    "\u2581Chinese": 1644,
    "\u2581representatives": 1645,
    "\u2581powers": 1646,
    "time": 1647,
    "Of": 1648,
    "\u2581class": 1649,
    "\u258140": 1650,
    "\u2581expressed": 1651,
    "\u2581changed": 1652,
    "\u2581menu": 1653,
    "\u2581intended": 1654,
    "\u2581images": 1655,
    "ant": 1656,
    "um": 1657,
    "\u2581opening": 1658,
    "\u0430": 1659,
    "\u2581Z": 1660,
    "\u2581regime": 1661,
    "\u2581target": 1662,
    "\u2581yourself": 1663,
    "\u2581cover": 1664,
    "\u2581Let": 1665,
    "7": 1666,
    "\u2581games": 1667,
    "\u2581committed": 1668,
    "\u2581processing": 1669,
    "\u2581initiatives": 1670,
    "\u2581heard": 1671,
    "\u2581goal": 1672,
    "\u2581proper": 1673,
    "\u2581stress": 1674,
    "\u2581pro": 1675,
    "\u2581Centre": 1676,
    "\u2581fields": 1677,
    "\u2581traffic": 1678,
    "\u2581cities": 1679,
    "\u2581vital": 1680,
    "\u2581Russian": 1681,
    "star": 1682,
    "\u2581met": 1683,
    "\u2581terrace": 1684,
    "\u2581month": 1685,
    "\u2581banks": 1686,
    "\u2581City": 1687,
    "\u2581talking": 1688,
    "\u2581worked": 1689,
    "ter": 1690,
    "\u2581conclusion": 1691,
    "un": 1692,
    "\u2581cohesion": 1693,
    "\u2581ability": 1694,
    "\u2581separate": 1695,
    "of": 1696,
    "\u2581decide": 1697,
    "\u2581alone": 1698,
    "\u2581player": 1699,
    "\u2581mainly": 1700,
    "\u2581fish": 1701,
    "\u2581structural": 1702,
    "\u2581justice": 1703,
    "\u2581tourist": 1704,
    "\u2581calls": 1705,
    "am": 1706,
    "\u25810": 1707,
    "out": 1708,
    "\u2581approved": 1709,
    "\u2581path": 1710,
    "\u2581increasingly": 1711,
    "\u2581feature": 1712,
    "\u2581improved": 1713,
    "\u2581plans": 1714,
    "\u2581families": 1715,
    "\u2581planning": 1716,
    "\u2581whom": 1717,
    "\u2581running": 1718,
    "\u2581affected": 1719,
    "\u2581circumstances": 1720,
    "\u2581phone": 1721,
    "\u2581evening": 1722,
    "\u2581sign": 1723,
    "\u2581placed": 1724,
    "\u2581rise": 1725,
    "\u2581currency": 1726,
    "\u2581contribute": 1727,
    "\u2581Sea": 1728,
    "\u2581administration": 1729,
    "\u2581fun": 1730,
    "\u2581des": 1731,
    "\u2581ski": 1732,
    "\u2581infrastructure": 1733,
    "\u2581University": 1734,
    "\u2581walking": 1735,
    "\u2581priorities": 1736,
    "\u2581police": 1737,
    "\u2581Agreement": 1738,
    "Z": 1739,
    "\u2581reduced": 1740,
    "ized": 1741,
    "\u2581GmbH": 1742,
    "\u2581unemployment": 1743,
    "\u2581confidence": 1744,
    "\u2581automatically": 1745,
    "Moreover": 1746,
    "\u2581manner": 1747,
    "\u2581encourage": 1748,
    "\u2581comments": 1749,
    "\u2581fall": 1750,
    "While": 1751,
    "\u2581collection": 1752,
    "\u2581reforms": 1753,
    "\u2581south": 1754,
    "\u2581suitable": 1755,
    "\u2581delivery": 1756,
    "\u2581scope": 1757,
    "\u2581began": 1758,
    "go": 1759,
    "\u2581sun": 1760,
    "\u2581sitting": 1761,
    "\u2581ensuring": 1762,
    "\u2581participation": 1763,
    "\u2581exist": 1764,
    "\u2581electronic": 1765,
    "\u2581crime": 1766,
    "\u2581fellow": 1767,
    "\u2581powerful": 1768,
    "ton": 1769,
    "\u2581emissions": 1770,
    "\u2581London": 1771,
    "\u2581Iraq": 1772,
    "\u2581Nations": 1773,
    "\u2581victims": 1774,
    "\u00e9": 1775,
    "ization": 1776,
    "\u2581specifically": 1777,
    "\u2581extensive": 1778,
    "\u2581wrong": 1779,
    "\u2581white": 1780,
    "\u2581que": 1781,
    "\u2581tabled": 1782,
    "ise": 1783,
    "\u2581students": 1784,
    "\u2581agriculture": 1785,
    "\u2581appear": 1786,
    "\u2581competitive": 1787,
    "\u258123": 1788,
    "\u2581multi": 1789,
    "\u2581limit": 1790,
    "\u2581played": 1791,
    "\u2581else": 1792,
    "\u2581introduced": 1793,
    "8": 1794,
    "\u2581Public": 1795,
    "\u2581General": 1796,
    "ary": 1797,
    "\u2581discuss": 1798,
    "\u2581effectively": 1799,
    "\u2581port": 1800,
    "\u2581August": 1801,
    "\u2581motion": 1802,
    "\u2581helpful": 1803,
    "\u2581aimed": 1804,
    "isation": 1805,
    "called": 1806,
    "\u2581partnership": 1807,
    "\u2581spend": 1808,
    "\u2581referred": 1809,
    "Re": 1810,
    "\u2581detailed": 1811,
    "\u2581installation": 1812,
    "\u2581God": 1813,
    "\u2581record": 1814,
    "\u2581larger": 1815,
    "\u2581El": 1816,
    "\u2581news": 1817,
    "\u2581serve": 1818,
    "\u2581o": 1819,
    "ke": 1820,
    "\u2581usually": 1821,
    "\u2581precisely": 1822,
    "\u2581purposes": 1823,
    "An": 1824,
    "\u2581represent": 1825,
    "\u2581animals": 1826,
    "\u2581rural": 1827,
    "\u2581bank": 1828,
    "\u2581budgetary": 1829,
    "\u2581becoming": 1830,
    "\u2581telephone": 1831,
    "\u2581protected": 1832,
    "\u2581kitchen": 1833,
    "\u2581exactly": 1834,
    "\u2581sources": 1835,
    "\u2581discussed": 1836,
    "\u2581served": 1837,
    "\u2581measure": 1838,
    "\u2581stated": 1839,
    "\u2581regular": 1840,
    "ie": 1841,
    "nd": 1842,
    "ber": 1843,
    "\u2581camera": 1844,
    "\u2581getting": 1845,
    "\u2581client": 1846,
    "\u25812005": 1847,
    "\u2581II": 1848,
    "\u2581assessment": 1849,
    "ty": 1850,
    "\u2581select": 1851,
    "\u2581won": 1852,
    "\u2581broad": 1853,
    "\u2581otherwise": 1854,
    "\u2581l": 1855,
    "ner": 1856,
    "\u2581represents": 1857,
    "categories": 1858,
    "\u2581lies": 1859,
    "\u2581plant": 1860,
    "\u2581introduction": 1861,
    "\u2581UK": 1862,
    "\u2581administrative": 1863,
    "im": 1864,
    "\u2581hear": 1865,
    "line": 1866,
    "\u2581functions": 1867,
    "\u2581Security": 1868,
    "\u2581strengthen": 1869,
    "\u2581refer": 1870,
    "\u2581likely": 1871,
    "6": 1872,
    "\u2581managed": 1873,
    "\u2581AG": 1874,
    "\u2581loss": 1875,
    "\u2581remember": 1876,
    "\u2581risks": 1877,
    "\u2581thousands": 1878,
    "\u2581warm": 1879,
    "\u2581guidelines": 1880,
    "\u2581critical": 1881,
    "\u2581medical": 1882,
    "\u2581closely": 1883,
    "\u2581covered": 1884,
    "\u2581buy": 1885,
    "\u2581discussions": 1886,
    "\u2581followed": 1887,
    "\u2581happen": 1888,
    "\u2581provision": 1889,
    "\u2581laws": 1890,
    "Today": 1891,
    "\u2581earlier": 1892,
    "\u2581fresh": 1893,
    "\u2581save": 1894,
    "est": 1895,
    "\u258122": 1896,
    "\u2581wonderful": 1897,
    "\u2581entry": 1898,
    "\u2581Here": 1899,
    "\u2581worth": 1900,
    "Indeed": 1901,
    "\u2581selected": 1902,
    "\u2581winter": 1903,
    "\u2581enterprises": 1904,
    "\u2581season": 1905,
    "\u2581\u20ac": 1906,
    "\u2581Middle": 1907,
    "My": 1908,
    "\u2581Japan": 1909,
    "\u2581listed": 1910,
    "ti": 1911,
    "\u2581spirit": 1912,
    "\u2581improving": 1913,
    "\u25812004": 1914,
    "\u2581Asia": 1915,
    "\u2581prior": 1916,
    "\u2581Mar": 1917,
    "European": 1918,
    "\u2581immigration": 1919,
    "\u2581says": 1920,
    "\u2581understanding": 1921,
    "\u2581linked": 1922,
    "\u2581character": 1923,
    "\u2581degree": 1924,
    "\u2581metres": 1925,
    "\u2581actual": 1926,
    "\u2581Your": 1927,
    "\u2581combat": 1928,
    "\u2581track": 1929,
    "\u2581speech": 1930,
    "\u2581expected": 1931,
    "\u0438": 1932,
    "\u25811999": 1933,
    "\u2581institutional": 1934,
    "\u2581India": 1935,
    "ci": 1936,
    "\u2581Policy": 1937,
    "\u2581considerable": 1938,
    "by": 1939,
    "\u2581February": 1940,
    "\u2581programs": 1941,
    "\u2581el": 1942,
    "\u2581inside": 1943,
    "\u2581sufficient": 1944,
    "\u2581tour": 1945,
    "\u2581Czech": 1946,
    "\u2581supporting": 1947,
    "\u2581presence": 1948,
    "\u2581Pro": 1949,
    "\u2581exclusive": 1950,
    "\u2581bad": 1951,
    "\u2581trust": 1952,
    "\u2581tourism": 1953,
    "\u2581paper": 1954,
    "\u2581opened": 1955,
    "\u2581operations": 1956,
    "ad": 1957,
    "sa": 1958,
    "mo": 1959,
    "Dur": 1960,
    "\u2581purchase": 1961,
    "\u2581200": 1962,
    "\u2581fisheries": 1963,
    "\u2581criminal": 1964,
    "\u2581animal": 1965,
    "\u2581suggest": 1966,
    "\u2581networks": 1967,
    "\u2581Some": 1968,
    "\u2581seem": 1969,
    "\u2581normal": 1970,
    "\u2581coordination": 1971,
    "ate": 1972,
    "\u2581inform": 1973,
    "\u2581debt": 1974,
    "\u2581Free": 1975,
    "\u2581summit": 1976,
    "\u2581map": 1977,
    "\u2581hot": 1978,
    "\u2581components": 1979,
    "\u2581Greece": 1980,
    "\u2581properly": 1981,
    "\u2581dealing": 1982,
    "\u2581relate": 1983,
    "\u2581competitiveness": 1984,
    "\u2581presidency": 1985,
    "\u2581entirely": 1986,
    "\u2581duty": 1987,
    "\u2581Al": 1988,
    "\u2581buildings": 1989,
    "\u2581founded": 1990,
    "\u2581authority": 1991,
    "\u2581origin": 1992,
    "\u2581People": 1993,
    "\u2581average": 1994,
    "\u2581gave": 1995,
    "\u2581difficulties": 1996,
    "\u2581experts": 1997,
    "First": 1998,
    "\u2581brand": 1999,
    "\u2581organisation": 2000,
    "\u2581supports": 2001,
    "\u2581typical": 2002,
    "\u258127": 2003,
    "\u2581domestic": 2004,
    "\u2581Can": 2005,
    "\u2581went": 2006,
    "\u2581generally": 2007,
    "\u2581marketing": 2008,
    "\u2581consideration": 2009,
    "No": 2010,
    "\u2581north": 2011,
    "\u2581playing": 2012,
    "il": 2013,
    "\u2581Iran": 2014,
    "\u2581Barcelona": 2015,
    "\u2581Switzerland": 2016,
    "\u2581income": 2017,
    "\u2581Social": 2018,
    "\u2581plants": 2019,
    "ive": 2020,
    "ine": 2021,
    "\u2581detail": 2022,
    "\u2581defence": 2023,
    "\u2581estate": 2024,
    "\u2581picture": 2025,
    "Even": 2026,
    "\u2581developments": 2027,
    "\u2581pleasant": 2028,
    "\u2581applies": 2029,
    "\u2581red": 2030,
    "\u2581attempt": 2031,
    "\u2581items": 2032,
    "\u2581facing": 2033,
    "\u2581wants": 2034,
    "\u2581stock": 2035,
    "\u2581vehicles": 2036,
    "\u2581spacious": 2037,
    "\u2581tradition": 2038,
    "di": 2039,
    "\u2581dis": 2040,
    "\u2581From": 2041,
    "\u2581resort": 2042,
    "\u2581display": 2043,
    "\u2581Economic": 2044,
    "\u2581architecture": 2045,
    "\u2581modified": 2046,
    "\u00e1": 2047,
    "\u2581forget": 2048,
    "for": 2049,
    "\u2581aspect": 2050,
    "\u2581thinking": 2051,
    "ak": 2052,
    "\u2581flexibility": 2053,
    "\u2581firm": 2054,
    "\u2581peaceful": 2055,
    "\u2581bodies": 2056,
    "sized": 2057,
    "\u2581Brussels": 2058,
    "\u2581voice": 2059,
    "day": 2060,
    "\u2581establishment": 2061,
    "30": 2062,
    "\u2581speaking": 2063,
    "U": 2064,
    "\u2581al": 2065,
    "\u2581district": 2066,
    "\u2581Swiss": 2067,
    "\u2581le": 2068,
    "\u2581fund": 2069,
    "\u2581machines": 2070,
    "\u2581Poland": 2071,
    "\u2581fixed": 2072,
    "\u2581Human": 2073,
    "\u2581evidence": 2074,
    "\u2581failure": 2075,
    "making": 2076,
    "\u2581himself": 2077,
    "\u2581reception": 2078,
    "\u2581du": 2079,
    "\u2581sport": 2080,
    "\u2581flexible": 2081,
    "\u2581spa": 2082,
    "\u2581defined": 2083,
    "\u2581promoting": 2084,
    "\u2581Airport": 2085,
    "\u2581High": 2086,
    "\u2581black": 2087,
    "\u2581adoption": 2088,
    "\u2581financing": 2089,
    "\u2581et": 2090,
    "\u2581parliamentary": 2091,
    "\u2581cuisine": 2092,
    "ri": 2093,
    "Here": 2094,
    "\u2581easier": 2095,
    "\u2581participate": 2096,
    "\u2581politics": 2097,
    "\u2581threat": 2098,
    "\u2581myself": 2099,
    "\u2581campaign": 2100,
    "\u2581hour": 2101,
    "\u2581seriously": 2102,
    "\u2581signed": 2103,
    "\u2581advanced": 2104,
    "\u2581opposition": 2105,
    "\u2581break": 2106,
    "\u2581database": 2107,
    "\u2581informed": 2108,
    "\u2581instance": 2109,
    "\u2581color": 2110,
    "\u2581meetings": 2111,
    "den": 2112,
    "\u2581star": 2113,
    "\u2581concrete": 2114,
    "\u258160": 2115,
    "\u2581Dr": 2116,
    "\u2581aims": 2117,
    "\u2581propose": 2118,
    "\u2581respond": 2119,
    "gen": 2120,
    "Now": 2121,
    "\u2581Amsterdam": 2122,
    "\u2581obtain": 2123,
    "ally": 2124,
    "\u2581practices": 2125,
    "\u2581dangerous": 2126,
    "\u2581translation": 2127,
    "\u2581difference": 2128,
    "\u2581ancient": 2129,
    "\u2581experienced": 2130,
    "\u2581middle": 2131,
    "\u2581Green": 2132,
    "\u2581told": 2133,
    "\u2581shops": 2134,
    "\u2581beds": 2135,
    "\u2581associated": 2136,
    "free": 2137,
    "\u2581humanitarian": 2138,
    "\u2581implementing": 2139,
    "\u2581combination": 2140,
    "\u2581television": 2141,
    "\u2581Kingdom": 2142,
    "\u2581element": 2143,
    "\u2581relax": 2144,
    "\u2581connected": 2145,
    "\u2581comment": 2146,
    "\u2581differences": 2147,
    "\u2581happened": 2148,
    "\u2581York": 2149,
    "\u2581exhibition": 2150,
    "\u2581inter": 2151,
    "\u2581After": 2152,
    "\u2581hands": 2153,
    "year": 2154,
    "\u2581trip": 2155,
    "\u2581initial": 2156,
    "\u2581carefully": 2157,
    "\u2581reducing": 2158,
    "\u2581arrival": 2159,
    "ies": 2160,
    "\u2581becomes": 2161,
    "\u2581anyone": 2162,
    "\u2581studies": 2163,
    "\u2581screen": 2164,
    "ek": 2165,
    "\u2581fear": 2166,
    "\u2581attractive": 2167,
    "\u2581structures": 2168,
    "\u2581agencies": 2169,
    "io": 2170,
    "\u2581article": 2171,
    "\u2581appears": 2172,
    "\u2581producers": 2173,
    "\u2581recognition": 2174,
    "\u2581leader": 2175,
    "\u2581Con": 2176,
    "\u2581bear": 2177,
    "10": 2178,
    "J": 2179,
    "\u2581seek": 2180,
    "\u2581genuine": 2181,
    "ous": 2182,
    "\u2581shower": 2183,
    "\u2581scale": 2184,
    "\u2581Car": 2185,
    "\u2581Or": 2186,
    "\u2581impossible": 2187,
    "\u2581immediate": 2188,
    "\u2581Board": 2189,
    "\u2581African": 2190,
    "\u2581negative": 2191,
    "\u2581discrimination": 2192,
    "\u2581improvement": 2193,
    "\u2581stable": 2194,
    "\u2581truly": 2195,
    "\u2581format": 2196,
    "\u2581calling": 2197,
    "\u2581beaches": 2198,
    "\u2581described": 2199,
    "\u2581coffee": 2200,
    "\u2581coast": 2201,
    "ja": 2202,
    "\u2581statements": 2203,
    "ga": 2204,
    "\u2581monetary": 2205,
    "\u2581announced": 2206,
    "\u2581spent": 2207,
    "\u2581advance": 2208,
    "\u2581CD": 2209,
    "\u2581territory": 2210,
    "net": 2211,
    "\u2581desire": 2212,
    "\u2581possibilities": 2213,
    "\u2581USA": 2214,
    "20": 2215,
    "\u2581models": 2216,
    "\u2581Museum": 2217,
    "end": 2218,
    "\u2581introduce": 2219,
    "\u2581membership": 2220,
    "\u25812003": 2221,
    "men": 2222,
    "\u2581Justice": 2223,
    "\u2581wishes": 2224,
    "je": 2225,
    "\u2581consumption": 2226,
    "\u2581signal": 2227,
    "\u2581unacceptable": 2228,
    "\u2581ahead": 2229,
    "Some": 2230,
    "\u2581houses": 2231,
    "\u2581shared": 2232,
    "\u2581raise": 2233,
    "\u2581availability": 2234,
    "IT": 2235,
    "\u2581released": 2236,
    "\u2581generation": 2237,
    "\u2581500": 2238,
    "\u2581guarantees": 2239,
    "\u2581reasonable": 2240,
    "\u2581continued": 2241,
    "\u2581Greek": 2242,
    "\u2581ban": 2243,
    "\u2581Debian": 2244,
    "we": 2245,
    "\u2581Click": 2246,
    "\u2581elegant": 2247,
    "\u2581box": 2248,
    "\u2581weight": 2249,
    "\u2581Go": 2250,
    "\u2581Democrats": 2251,
    "\u2581sort": 2252,
    "\u2581greatest": 2253,
    "\u2581river": 2254,
    "\u2581figures": 2255,
    "\u2581trading": 2256,
    "\u2581unfortunately": 2257,
    "\u2581contain": 2258,
    "\u2581strongly": 2259,
    "\u2581combined": 2260,
    "\u2581surface": 2261,
    "\u2581entitled": 2262,
    "\u2581surrounding": 2263,
    "\u2581Mo": 2264,
    "\u2581charged": 2265,
    "\u2581insurance": 2266,
    "see": 2267,
    "\u2581deep": 2268,
    "\u2581manage": 2269,
    "\u2581allowing": 2270,
    "\u2581economies": 2271,
    "\u2581positions": 2272,
    "\u2581exercise": 2273,
    "\u2581numbers": 2274,
    "\u2581recommend": 2275,
    "\u2581religious": 2276,
    "\u2581mass": 2277,
    "\u2581completed": 2278,
    "\u2581IT": 2279,
    "\u2581unless": 2280,
    "\u2581Sa": 2281,
    "Let": 2282,
    "ting": 2283,
    "\u2581court": 2284,
    "em": 2285,
    "\u2581Rooms": 2286,
    "\u2581skills": 2287,
    "\u2581tasks": 2288,
    "ance": 2289,
    "\u2581perspective": 2290,
    "\u2581mission": 2291,
    "\u2581union": 2292,
    "\u2581closer": 2293,
    "ated": 2294,
    "\u2581devices": 2295,
    "\u2581asylum": 2296,
    "\u2581Irish": 2297,
    "he": 2298,
    "\u2581pictures": 2299,
    "\u2581foot": 2300,
    "\u2581enormous": 2301,
    "\u2581beauty": 2302,
    "\u2581Me": 2303,
    "\u2581expenditure": 2304,
    "\u2581sale": 2305,
    "\u2581export": 2306,
    "der": 2307,
    "\u2581Now": 2308,
    "\u2581square": 2309,
    "\u2581counter": 2310,
    "\u2581booking": 2311,
    "\u2581Turkish": 2312,
    "\u2581permanent": 2313,
    "\u2581born": 2314,
    "\u2581nearby": 2315,
    "\u2581dedicated": 2316,
    "\u2581registered": 2317,
    "\u2581gain": 2318,
    "\u2581enables": 2319,
    "\u2581cards": 2320,
    "\u2581ones": 2321,
    "\u2581unto": 2322,
    "\u2581button": 2323,
    "\u2581establishing": 2324,
    "9": 2325,
    "\u2581uses": 2326,
    "\u2581shop": 2327,
    "\u2581meters": 2328,
    "\u2581reliable": 2329,
    "\u2581urgent": 2330,
    "\u2581race": 2331,
    "\u2581convinced": 2332,
    "bar": 2333,
    "\u2581advertising": 2334,
    "\u2581platform": 2335,
    "nt": 2336,
    "\u2581fire": 2337,
    "\u2581forced": 2338,
    "\u2581object": 2339,
    "les": 2340,
    "\u2581Regulation": 2341,
    "\u2581packages": 2342,
    "\u2581relaxing": 2343,
    "\u2581door": 2344,
    "\u2581totally": 2345,
    "\u2581railway": 2346,
    "\u2581''": 2347,
    "\u2581installed": 2348,
    "\u2581Research": 2349,
    "\u2581valid": 2350,
    "\u2581core": 2351,
    "\u2581granted": 2352,
    "\u2581da": 2353,
    "\u2581disease": 2354,
    "\u2581Kosovo": 2355,
    "\u2581advice": 2356,
    "\u2581device": 2357,
    "\u2581continues": 2358,
    "\u2581claims": 2359,
    "\u2581condition": 2360,
    "\u2581storage": 2361,
    "\u2581WTO": 2362,
    "\u2581institution": 2363,
    "\u2581unit": 2364,
    "\u2581failed": 2365,
    "\u2581names": 2366,
    "\u2581remind": 2367,
    "\u2581discover": 2368,
    "\u2581deliver": 2369,
    "\u2581spending": 2370,
    "\u2581cars": 2371,
    "Firstly": 2372,
    "\u2581finance": 2373,
    "\u2581session": 2374,
    "ex": 2375,
    "\u2581extended": 2376,
    "\u2581reservation": 2377,
    "\u2581contrary": 2378,
    "va": 2379,
    "\u2581kept": 2380,
    "\u2581attack": 2381,
    "\u2581passed": 2382,
    "\u2581compared": 2383,
    "ung": 2384,
    "\u2581Health": 2385,
    "\u2581science": 2386,
    "Unfortunately": 2387,
    "\u2581bath": 2388,
    "\u2581Guest": 2389,
    "\u2581candidate": 2390,
    "\u2581biggest": 2391,
    "\u2581Services": 2392,
    "con": 2393,
    "\u2581claim": 2394,
    "\u2581unable": 2395,
    "\u2581corporate": 2396,
    "ba": 2397,
    "\u2581window": 2398,
    "\u2581saw": 2399,
    "\u2581conclusions": 2400,
    "\u2581expression": 2401,
    "\u2581holidays": 2402,
    "\u2581outcome": 2403,
    "ul": 2404,
    "\u2581g": 2405,
    "\u2581drawn": 2406,
    "\u2581learning": 2407,
    "\u2581memory": 2408,
    "\u2581PC": 2409,
    "\u2581attractions": 2410,
    "\u2581church": 2411,
    "\u2581moving": 2412,
    "\u2581Netherlands": 2413,
    "\u2581story": 2414,
    "\u2581Prime": 2415,
    "\u2581intervention": 2416,
    "\u2581weapons": 2417,
    "\u2581Ukraine": 2418,
    "\u2581factors": 2419,
    "\u2581stands": 2420,
    "\u2581laid": 2421,
    "\u2581courses": 2422,
    "\u2581honourable": 2423,
    "\u2581Room": 2424,
    "TM": 2425,
    "\u2581promotion": 2426,
    "\u2581neither": 2427,
    "po": 2428,
    "\u2581chosen": 2429,
    "\u2581colleague": 2430,
    "tic": 2431,
    "\u2581maintenance": 2432,
    "\u2581Lake": 2433,
    "\u2581achieving": 2434,
    "\u2581fiscal": 2435,
    "\u2581Constitution": 2436,
    "\u2581notice": 2437,
    "\u2581definition": 2438,
    "\u2581background": 2439,
    "\u2581von": 2440,
    "\u2581rightly": 2441,
    "\u2581election": 2442,
    "\u2581paragraph": 2443,
    "\u2581Trade": 2444,
    "\u2581tried": 2445,
    "\u2581interface": 2446,
    "\u2581ambitious": 2447,
    "\u2581radio": 2448,
    "\u2581www": 2449,
    "\u2581transparent": 2450,
    "\u2581Red": 2451,
    "\u2581pleasure": 2452,
    "\u2581sensitive": 2453,
    "art": 2454,
    "\u2581votes": 2455,
    "\u2581perfectly": 2456,
    "\u2581guide": 2457,
    "\u2581Art": 2458,
    "\u2581300": 2459,
    "\u2581install": 2460,
    "\u2581sides": 2461,
    "\u2581individuals": 2462,
    "\u2581Austrian": 2463,
    "\u2581vehicle": 2464,
    "\u2581artists": 2465,
    "\u2581obligations": 2466,
    "\u2581remove": 2467,
    "\u2581route": 2468,
    "\u2581obviously": 2469,
    "ina": 2470,
    "\u2581She": 2471,
    "\u2581agency": 2472,
    "\u2581Man": 2473,
    "\u2581Na": 2474,
    "\u2581constantly": 2475,
    "\u2581buffet": 2476,
    "\u2581Eastern": 2477,
    "ver": 2478,
    "\u2581continuing": 2479,
    "\u2581Association": 2480,
    "\u2581commitments": 2481,
    "\u2581+": 2482,
    "\u2581wood": 2483,
    "\u2581elected": 2484,
    "\u2581mountains": 2485,
    "\u2581Why": 2486,
    "\u2581equality": 2487,
    "\u2581n": 2488,
    "Booking": 2489,
    "\u2581organised": 2490,
    "According": 2491,
    "\u2581yesterday": 2492,
    "\u2581luxury": 2493,
    "\u2581Foreign": 2494,
    "\u2581organization": 2495,
    "\u2581extend": 2496,
    "\u2581update": 2497,
    "\u2581outstanding": 2498,
    "\u2581host": 2499,
    "\u2581Portugal": 2500,
    "\u2581aircraft": 2501,
    "\u2581Vienna": 2502,
    "rd": 2503,
    "\u2581conduct": 2504,
    "FR": 2505,
    "\u2581Many": 2506,
    "\u2581Wi": 2507,
    "\u2581successfully": 2508,
    "\u2581Center": 2509,
    "\u2581engine": 2510,
    "\u2581Star": 2511,
    "\u2581monitor": 2512,
    "\u2581registration": 2513,
    "\u2581flight": 2514,
    "\u2581Palestinian": 2515,
    "ster": 2516,
    "\u2581limits": 2517,
    "ent": 2518,
    "\u2581independence": 2519,
    "son": 2520,
    "ted": 2521,
    "so": 2522,
    "\u2581urge": 2523,
    "\u2581Business": 2524,
    "\u2581THE": 2525,
    "\u2581title": 2526,
    "\u2581balanced": 2527,
    "\u2581merely": 2528,
    "\u2581factor": 2529,
    "\u2581System": 2530,
    "\u2581landscape": 2531,
    "\u2581mechanism": 2532,
    "\u2581asking": 2533,
    "\u2581prepare": 2534,
    "\u2581surrounded": 2535,
    "\u2581payments": 2536,
    "\u2581ship": 2537,
    "\u2581Management": 2538,
    "\u2581touch": 2539,
    "\u2581rapid": 2540,
    "\u2581controls": 2541,
    "\u2581physical": 2542,
    "\u2581species": 2543,
    "\u00ed": 2544,
    "\u2581dimension": 2545,
    "\u2581Rome": 2546,
    "\u2581meaning": 2547,
    "\u2581recommendations": 2548,
    "\u2581disposal": 2549,
    "\u2581someone": 2550,
    "tra": 2551,
    "\u2581lake": 2552,
    "\u2581seven": 2553,
    "\u2581dynamic": 2554,
    "\u2581obvious": 2555,
    "\u2581regret": 2556,
    "\u2581glass": 2557,
    "\u2581prevention": 2558,
    "\u2581contained": 2559,
    "\u2581communities": 2560,
    "\u2581fuel": 2561,
    "\u2581skin": 2562,
    "\u2581goals": 2563,
    "\u2581golf": 2564,
    "\u2581accessible": 2565,
    "ana": 2566,
    "\u2581changing": 2567,
    "\u2581Summit": 2568,
    "\u2581rail": 2569,
    "\u2581category": 2570,
    "\u25812002": 2571,
    "\u2581com": 2572,
    "\u2581conclude": 2573,
    "\u2581operate": 2574,
    "\u2581consists": 2575,
    "\u2581approximately": 2576,
    "\u2581putting": 2577,
    "\u2581vision": 2578,
    "mer": 2579,
    "\u2581phase": 2580,
    "quality": 2581,
    "\u2581targets": 2582,
    "responsibilities": 2583,
    "\u2581spread": 2584,
    "EC": 2585,
    "...\"\"": 2586,
    "\u2581Club": 2587,
    "\u2581store": 2588,
    "\u2581participants": 2589,
    "\u2581bringing": 2590,
    "\u2581steel": 2591,
    "\u2581Latin": 2592,
    "\u2581strengthening": 2593,
    "\u201c": 2594,
    "\u2581planned": 2595,
    "\u2581Grand": 2596,
    "\u2581guaranteed": 2597,
    "\u2581explain": 2598,
    "\u2581Villa": 2599,
    "\u2581pointed": 2600,
    "\u2581waiting": 2601,
    "\u2581Office": 2602,
    "\u2581capable": 2603,
    "\u2581substantial": 2604,
    "\u2581resulting": 2605,
    "\u2581minute": 2606,
    "\u2581mid": 2607,
    "\u2581smaller": 2608,
    "''": 2609,
    "\u2581representative": 2610,
    "\u258128": 2611,
    "\u2581Agency": 2612,
    "Nevertheless": 2613,
    "\u2581acts": 2614,
    "ised": 2615,
    "ful": 2616,
    "\u2581acceptable": 2617,
    "Once": 2618,
    "\u2581association": 2619,
    "\u2581club": 2620,
    "tro": 2621,
    "\u2581fruit": 2622,
    "\u2581seeking": 2623,
    "ler": 2624,
    "\u2581contents": 2625,
    "\u2581manufacturing": 2626,
    "\u2581command": 2627,
    "\u2581write": 2628,
    "\u2581letter": 2629,
    "\u2581contemporary": 2630,
    "\u2581satellite": 2631,
    "\u2581multiple": 2632,
    "\u2581identity": 2633,
    "Fi": 2634,
    "\u2581te": 2635,
    "\u2581Federal": 2636,
    "led": 2637,
    "ck": 2638,
    "\u2581delay": 2639,
    "ko": 2640,
    "\u258131": 2641,
    "ze": 2642,
    "ating": 2643,
    "\u2581consensus": 2644,
    "\u2581furnished": 2645,
    "si": 2646,
    "\u2581Market": 2647,
    "\u2581grounds": 2648,
    "\u2581affect": 2649,
    "\u2581recovery": 2650,
    "\u2581More": 2651,
    "\u2581decades": 2652,
    "\u2581nearly": 2653,
    "\u2581Rules": 2654,
    "\u2581thereby": 2655,
    "\u2581zone": 2656,
    "\u2581photos": 2657,
    "\u2581causes": 2658,
    "\u2581southern": 2659,
    "\u2581discussing": 2660,
    "\u258126": 2661,
    "\u2581liability": 2662,
    "\u2581truth": 2663,
    "\u2581leads": 2664,
    "\u25812001": 2665,
    "\u25811997": 2666,
    "\u2581Ar": 2667,
    "\u2581addressed": 2668,
    "\u2581den": 2669,
    "\u2581adequate": 2670,
    "id": 2671,
    "\u2581industries": 2672,
    "her": 2673,
    "mm": 2674,
    "\u2581nations": 2675,
    "\u2581primary": 2676,
    "border": 2677,
    "\u2581Only": 2678,
    "\u2581governance": 2679,
    "\u2581Lo": 2680,
    "\u2581Environment": 2681,
    "\u2581$": 2682,
    "\u2581primarily": 2683,
    "\u2581driving": 2684,
    "\u2581*": 2685,
    "\u2581evaluation": 2686,
    "\u2581Linux": 2687,
    "\u2581patients": 2688,
    "\u2581attacks": 2689,
    "ES": 2690,
    "\u2581previously": 2691,
    "\u2581\"\"...": 2692,
    "ities": 2693,
    "\u258180": 2694,
    "\u2581wait": 2695,
    "\u2581forest": 2696,
    "\u2581burden": 2697,
    "\u2581win": 2698,
    "ha": 2699,
    "\u2581Sweden": 2700,
    "bo": 2701,
    "\u2581requested": 2702,
    "ize": 2703,
    "La": 2704,
    "\u2581mutual": 2705,
    "\u2581determined": 2706,
    "\u2581Chamber": 2707,
    "50": 2708,
    "\u2581brings": 2709,
    "\u2581copy": 2710,
    "house": 2711,
    "\u2581dealt": 2712,
    "\u2581Information": 2713,
    "\u2581consultation": 2714,
    "40": 2715,
    "\u2581testing": 2716,
    "\u2581shape": 2717,
    "\u2581renewable": 2718,
    "\u2581Q": 2719,
    "que": 2720,
    "\u2581highlight": 2721,
    "ists": 2722,
    "\u2581opposite": 2723,
    "\u2581reply": 2724,
    "\u2581situations": 2725,
    "\u2581eye": 2726,
    "\u2581amongst": 2727,
    "\u2581mandate": 2728,
    "\u2581diversity": 2729,
    "\u2581Romania": 2730,
    "\u2581delivered": 2731,
    "\u2581net": 2732,
    "\u2581default": 2733,
    "Despite": 2734,
    "\u2581discharge": 2735,
    "\u2581appreciate": 2736,
    "\u2581para": 2737,
    "\u2581turned": 2738,
    "\u2581named": 2739,
    "\u2581stone": 2740,
    "\u2581blue": 2741,
    "\u2581plus": 2742,
    "\u2581qualified": 2743,
    "\u2581taste": 2744,
    "\u2581watch": 2745,
    "\u2581length": 2746,
    "pa": 2747,
    "\u2581technological": 2748,
    "\u2581talks": 2749,
    "\u2581Home": 2750,
    "\u2581binding": 2751,
    "\u2581resolve": 2752,
    "Hotel": 2753,
    "sch": 2754,
    "\u2581Great": 2755,
    "\u2581mechanisms": 2756,
    "\u2581attitude": 2757,
    "\u2581leadership": 2758,
    "\u2581reflect": 2759,
    "\u2581van": 2760,
    "\u2581bars": 2761,
    "+": 2762,
    "\u2581schools": 2763,
    "ure": 2764,
    "\u2581existence": 2765,
    "\u2581audio": 2766,
    "\u2581wind": 2767,
    "\u2581manufacturers": 2768,
    "\u2581competence": 2769,
    "\u2581Minutes": 2770,
    "\u2581spaces": 2771,
    "sh": 2772,
    "\u2581register": 2773,
    "\u2581feeling": 2774,
    "PL": 2775,
    "use": 2776,
    "\u2581By": 2777,
    "\u2581x": 2778,
    "\u2581obligation": 2779,
    "au": 2780,
    "\u2581approval": 2781,
    "\u2581recognise": 2782,
    "\u2581urban": 2783,
    "\u2581Dutch": 2784,
    "\u2581kinds": 2785,
    "\u2581im": 2786,
    "\u2581constant": 2787,
    "%": 2788,
    "off": 2789,
    "\u2581Programme": 2790,
    "\u2581appeal": 2791,
    "\u2581perform": 2792,
    "Because": 2793,
    "\u2581strength": 2794,
    "\u2581significantly": 2795,
    "\u2581Ver": 2796,
    "\u2581compliance": 2797,
    "\u2581compensation": 2798,
    "\u2581residence": 2799,
    "\u2581flat": 2800,
    "\u2581fill": 2801,
    "\u2581sold": 2802,
    "\u2581intention": 2803,
    "\u2581noise": 2804,
    "za": 2805,
    "\u2581eight": 2806,
    "\u2581=": 2807,
    "\u2581presentation": 2808,
    "\u2581rejected": 2809,
    "\u2581moved": 2810,
    "\u2581expertise": 2811,
    "tel": 2812,
    "\u2581consistent": 2813,
    "ts": 2814,
    "Many": 2815,
    "\u2581books": 2816,
    "President": 2817,
    "\u2581heavy": 2818,
    "\u2581mode": 2819,
    "\u2581solve": 2820,
    "\u2581repeat": 2821,
    "mann": 2822,
    "\u2581launched": 2823,
    "\u2581onto": 2824,
    "\u2581t": 2825,
    "\u2581versions": 2826,
    "\u2581improvements": 2827,
    "\u2581investments": 2828,
    "\u2581helping": 2829,
    "\u2581assist": 2830,
    "\u2581sanctions": 2831,
    "\u2581f": 2832,
    "\u2581CO": 2833,
    "\u2581treated": 2834,
    "\u2581destination": 2835,
    "\u2581piece": 2836,
    "De": 2837,
    "\u2581valuable": 2838,
    "\u2581emphasise": 2839,
    "\u2581comply": 2840,
    "\u2581extension": 2841,
    "\u2581drugs": 2842,
    "\u2581emphasis": 2843,
    "ring": 2844,
    "\u2581speakers": 2845,
    "\u2581expensive": 2846,
    "ino": 2847,
    "\u2581author": 2848,
    "\u2581represented": 2849,
    "\u2581expectations": 2850,
    "\u2581print": 2851,
    "\u2581dishes": 2852,
    "\u2581suffering": 2853,
    "\u2581quick": 2854,
    "\u2581delegation": 2855,
    "way": 2856,
    "\u2581examples": 2857,
    "tal": 2858,
    "\u2581convenient": 2859,
    "\u2581output": 2860,
    "istic": 2861,
    "\u2581prefer": 2862,
    "\u2581applicable": 2863,
    "5-0": 2864,
    "\u2581Ta": 2865,
    "\u2581contrast": 2866,
    "tre": 2867,
    "\u2581figure": 2868,
    "\u2581latter": 2869,
    "\u2581Company": 2870,
    "\u258129": 2871,
    "\u2581browser": 2872,
    "\u2581charming": 2873,
    "\u2581refugees": 2874,
    "\u2581Ka": 2875,
    "\u2581recommended": 2876,
    "\u2581Are": 2877,
    "\u2581lose": 2878,
    "\u2581substances": 2879,
    "\u2581privacy": 2880,
    "\u2581furniture": 2881,
    "\u2581arms": 2882,
    "\u2581danger": 2883,
    "\u2581defend": 2884,
    "\u2581units": 2885,
    "\u2581wealth": 2886,
    "\u2581taxes": 2887,
    "\u2581relatively": 2888,
    "\u2581fail": 2889,
    "\u2581entered": 2890,
    "\u2581disaster": 2891,
    "\u2581affairs": 2892,
    "ning": 2893,
    "\u2581Spa": 2894,
    "pe": 2895,
    "\u2581operators": 2896,
    "\u2581respective": 2897,
    "\u2581creative": 2898,
    "\u2581Air": 2899,
    "\u2581Roman": 2900,
    "\u2581older": 2901,
    "\u2581Software": 2902,
    "\u2581En": 2903,
    "\u2581runs": 2904,
    "\u2581error": 2905,
    "\u2581streets": 2906,
    "\u2581Po": 2907,
    "\u2581Microsoft": 2908,
    "00": 2909,
    "\u2581micro": 2910,
    "\u2581Se": 2911,
    "\u2581keeping": 2912,
    "\u2581Thank": 2913,
    "\u2581whatever": 2914,
    "ol": 2915,
    "\u2581entertainment": 2916,
    "\u2581involving": 2917,
    "\u2581Paper": 2918,
    "\u2581Lord": 2919,
    "\u2581nation": 2920,
    "Not": 2921,
    "\u2581exists": 2922,
    "\u2581vacation": 2923,
    "\u2581politicians": 2924,
    "25": 2925,
    "\u2581fraud": 2926,
    "qui": 2927,
    "\u2581trees": 2928,
    "\u2581whilst": 2929,
    "\u2581na": 2930,
    "\u2581intend": 2931,
    "\u2581personally": 2932,
    "ac": 2933,
    "ence": 2934,
    "\u2581journey": 2935,
    "\u2581sell": 2936,
    "\u2581First": 2937,
    "\u2581felt": 2938,
    "\u2581arrangements": 2939,
    "\u2581requests": 2940,
    "\u2581temperature": 2941,
    "\u2581engineering": 2942,
    "\u2581boat": 2943,
    "\u2581exclusively": 2944,
    "\u2581naturally": 2945,
    "\u2581recognised": 2946,
    "mar": 2947,
    "\u2581impressive": 2948,
    "old": 2949,
    "che": 2950,
    "\u2581sets": 2951,
    "\u2581launch": 2952,
    "\u2581accounts": 2953,
    "\u2581objects": 2954,
    "if": 2955,
    "\u2581opposed": 2956,
    "\u2581Control": 2957,
    "\u2581advantages": 2958,
    "\u2581marked": 2959,
    "\u2581blood": 2960,
    "\u2581determine": 2961,
    "\u2581mobility": 2962,
    "\u2581His": 2963,
    "\u2581hit": 2964,
    "\u2581happening": 2965,
    "\u2581spring": 2966,
    "\u2581band": 2967,
    "\u25811996": 2968,
    "\u2581cold": 2969,
    "\u2581mail": 2970,
    "\u2581finding": 2971,
    "\u2581meat": 2972,
    "\u2581happens": 2973,
    "\u2581confirmed": 2974,
    "\u2581diseases": 2975,
    "dy": 2976,
    "\u2581involvement": 2977,
    "known": 2978,
    "izing": 2979,
    "ial": 2980,
    "\u2581classic": 2981,
    "\u2581articles": 2982,
    "\u2581combating": 2983,
    "\u2581museum": 2984,
    "\u2581helped": 2985,
    "\u2581rent": 2986,
    "\u2581firstly": 2987,
    "\u25811990": 2988,
    "\u2581Open": 2989,
    "Please": 2990,
    "\u2581sauna": 2991,
    "ft": 2992,
    "Thank": 2993,
    "\u2581colour": 2994,
    "\u2581experiences": 2995,
    "\u2581Institute": 2996,
    "\u2581Charter": 2997,
    "\u2581volume": 2998,
    "\u2581obtained": 2999,
    "\u2581hair": 3000,
    "ut": 3001,
    "\u2581Arab": 3002,
    "\u2581websites": 3003,
    "\u2581listen": 3004,
    "car": 3005,
    "\u2581faced": 3006,
    "\u2581chain": 3007,
    "\u2581hostels": 3008,
    "\u2581cheap": 3009,
    "\u2581criticism": 3010,
    "\u2581tests": 3011,
    "\u2581bedrooms": 3012,
    "\u2581constructive": 3013,
    "\u2581discovered": 3014,
    "\u2581covers": 3015,
    "\u2581treaty": 3016,
    "\u2581passengers": 3017,
    "Also": 3018,
    "\u2581largely": 3019,
    "\u2581Bo": 3020,
    "0": 3021,
    "\u2581exceptional": 3022,
    "\u2581protecting": 3023,
    "\u2581collective": 3024,
    "ach": 3025,
    "\u2581flow": 3026,
    "\u2581reserve": 3027,
    "\u2581weather": 3028,
    "\u2581occasion": 3029,
    "\u2581Afghanistan": 3030,
    "\u2581soft": 3031,
    "vo": 3032,
    "\u2581familiar": 3033,
    "\u2581outdoor": 3034,
    "\u2581ex": 3035,
    "\u2581Swedish": 3036,
    "\u2581liberalisation": 3037,
    "\u2581leisure": 3038,
    "\u2581equally": 3039,
    "Do": 3040,
    "\u2581automatic": 3041,
    "\u2581fantastic": 3042,
    "\u2581temporary": 3043,
    "\u2581extreme": 3044,
    "\u2581stations": 3045,
    "\u2581mini": 3046,
    "\u2581strategies": 3047,
    "\u2581removed": 3048,
    "\u2581Strategy": 3049,
    "\u2581preparation": 3050,
    "\u2581requirement": 3051,
    "\u2581Munich": 3052,
    "\u25811998": 3053,
    "\u2581DVD": 3054,
    "\u2581dinner": 3055,
    "\u2581license": 3056,
    "\u2581trans": 3057,
    "\u2581John": 3058,
    "\u2581leaving": 3059,
    "ship": 3060,
    "\u2581River": 3061,
    "\u2581Britain": 3062,
    "\u2581Energy": 3063,
    "\u2581president": 3064,
    "\u2581Each": 3065,
    "\u2581Procedure": 3066,
    "\u2581Foundation": 3067,
    "\u2581Frankfurt": 3068,
    "\u2581mark": 3069,
    "\u2581prove": 3070,
    "\u2581couple": 3071,
    "\u2581vast": 3072,
    "24": 3073,
    "\u2581awareness": 3074,
    "\u2581serves": 3075,
    "\u2581wall": 3076,
    "\u2581handling": 3077,
    "\u2581restrictions": 3078,
    "\u2581profit": 3079,
    "\"\")": 3080,
    "\u2581tours": 3081,
    "\u2581except": 3082,
    "EL": 3083,
    "\u2581Christian": 3084,
    "15": 3085,
    "ger": 3086,
    "\u2581remaining": 3087,
    "\u2581drink": 3088,
    "\u2581eyes": 3089,
    "\u2581submit": 3090,
    "11": 3091,
    "\u2581Li": 3092,
    "org": 3093,
    "\u2581fighting": 3094,
    "\u2581Ministers": 3095,
    "\u2581healthy": 3096,
    "\u2581ge": 3097,
    "\u2581recommendation": 3098,
    "\u2581officials": 3099,
    "\u2581password": 3100,
    "\u2581fit": 3101,
    "\u2581impression": 3102,
    "\u2581offices": 3103,
    "\u2581block": 3104,
    "\u2581characteristics": 3105,
    "\u2581Alliance": 3106,
    "\u2581involve": 3107,
    "\u2581issued": 3108,
    "\u2581organizations": 3109,
    "\u2581abroad": 3110,
    "\u2581massive": 3111,
    "\u2581bedroom": 3112,
    "\u2581identify": 3113,
    "\u2581contributions": 3114,
    "\u2581Saint": 3115,
    "\u2581earth": 3116,
    "\u2581facilitate": 3117,
    "\u2581precise": 3118,
    "\u2581GDP": 3119,
    "\u2581Costa": 3120,
    "\u2581waters": 3121,
    "\u2581grow": 3122,
    "\u2581dream": 3123,
    "000": 3124,
    "\u2581Safety": 3125,
    "\u2581Breakfast": 3126,
    "\u2581texts": 3127,
    "\u2581centres": 3128,
    "\u2581glad": 3129,
    "\u2581amounts": 3130,
    "\u2581copyright": 3131,
    "\u2581operational": 3132,
    "\u2581contracts": 3133,
    "Just": 3134,
    "\u2581Roma": 3135,
    "\u2581solid": 3136,
    "\u2581fee": 3137,
    "\u2581returned": 3138,
    "\u2581heat": 3139,
    "ley": 3140,
    "ising": 3141,
    "\u2581depends": 3142,
    "Thus": 3143,
    "\u2581Street": 3144,
    "\u2581confirm": 3145,
    "\u2581drawing": 3146,
    "\u2581define": 3147,
    "\u2581apart": 3148,
    "\u2581knows": 3149,
    "\u2581planet": 3150,
    "\u2581doesn": 3151,
    "\u2581maintained": 3152,
    "4-0": 3153,
    "\u2581orders": 3154,
    "Located": 3155,
    "\u2581Ra": 3156,
    "ier": 3157,
    "om": 3158,
    "hr": 3159,
    "\u2581son": 3160,
    "\u2581gender": 3161,
    "PT": 3162,
    "\u2581metal": 3163,
    "\u2581transportation": 3164,
    "\u2581directives": 3165,
    "\u2581communications": 3166,
    "mb": 3167,
    "\u2581regularly": 3168,
    "\u2581MEPs": 3169,
    "side": 3170,
    "\u2581newly": 3171,
    "\u2581v": 3172,
    "\u2581Croatia": 3173,
    "\u2581proud": 3174,
    "ki": 3175,
    "\u2581Dur": 3176,
    "\u2581fashion": 3177,
    "\u2581Private": 3178,
    "\u2581motor": 3179,
    "\u2581Bulgaria": 3180,
    "\u2581transition": 3181,
    "://": 3182,
    "\u2581gone": 3183,
    "\u2581album": 3184,
    "\u2581visa": 3185,
    "\u2581holding": 3186,
    "\u2581career": 3187,
    "\u2581Google": 3188,
    "\u2581lounge": 3189,
    "wa": 3190,
    "\u2581conducted": 3191,
    "\u2581customs": 3192,
    "\u2581Per": 3193,
    "\u2581Val": 3194,
    "\u2581millions": 3195,
    "\u2581universal": 3196,
    "\u258170": 3197,
    "\u2581continent": 3198,
    "\u2581parliaments": 3199,
    "12": 3200,
    "\u2581intellectual": 3201,
    "ability": 3202,
    "\u2581charges": 3203,
    "\u2581par": 3204,
    "\u2581worse": 3205,
    "\u258190": 3206,
    "class": 3207,
    "\u2581performed": 3208,
    "\u2581NATO": 3209,
    "\u2581properties": 3210,
    "\u2581ticket": 3211,
    "over": 3212,
    "\u2581migration": 3213,
    "\u2581depend": 3214,
    "\u2581topic": 3215,
    "\u2581rock": 3216,
    "\u2581reserves": 3217,
    "\u2581collaboration": 3218,
    "\u2581regulatory": 3219,
    "\u2581father": 3220,
    "\u2581northern": 3221,
    "\u2581entrance": 3222,
    "\u2581helps": 3223,
    "\u2581increases": 3224,
    "\u2581afternoon": 3225,
    "\u2581dining": 3226,
    "ny": 3227,
    "\u2581friend": 3228,
    "\u2581Ca": 3229,
    "\u2581somewhat": 3230,
    "\u2581farm": 3231,
    "\u2581hardware": 3232,
    "\u2581Monetary": 3233,
    "\u2581conflicts": 3234,
    "\u2581parents": 3235,
    "\u2581Act": 3236,
    "\u2581ought": 3237,
    "\u2581displayed": 3238,
    "vi": 3239,
    "\u2581ultimately": 3240,
    "fer": 3241,
    "room": 3242,
    "ig": 3243,
    "\u2581minority": 3244,
    "\u2581hundreds": 3245,
    "\u2581explore": 3246,
    "\u2581surroundings": 3247,
    "\u2581Japanese": 3248,
    "\u2581Polish": 3249,
    "\u2581grateful": 3250,
    "\u2581Cyprus": 3251,
    "\u2581frequently": 3252,
    "\u2581exit": 3253,
    "\u2581joined": 3254,
    "\u2581Luxembourg": 3255,
    "\u2581absolute": 3256,
    "ns": 3257,
    "ish": 3258,
    "\u2581award": 3259,
    "\u2581faster": 3260,
    "\u2581expert": 3261,
    "\u201d,": 3262,
    "\u2581occur": 3263,
    "\u2581messages": 3264,
    "\u2581emergency": 3265,
    "\u2581walls": 3266,
    "\u2581demanding": 3267,
    "\u2581balcony": 3268,
    "\u2581renovated": 3269,
    "ron": 3270,
    "\u2581Di": 3271,
    "\u2581seat": 3272,
    "\u2581expansion": 3273,
    "\u2581battle": 3274,
    "\u2581Use": 3275,
    "\u2581opinions": 3276,
    "\u2581log": 3277,
    "\u2581invite": 3278,
    "board": 3279,
    "\u2581Financial": 3280,
    "\u2581secret": 3281,
    "\u2581pension": 3282,
    "\u2581electricity": 3283,
    "\u2581declaration": 3284,
    "\u2581Korea": 3285,
    "\u2581organized": 3286,
    "\u2581looks": 3287,
    "\u2581divided": 3288,
    "\u2581heritage": 3289,
    "\u2581Square": 3290,
    "\u2581remote": 3291,
    "\u2581constitution": 3292,
    "\u2581rapporteurs": 3293,
    "\u2581delighted": 3294,
    "\u2581zu": 3295,
    "\u2581White": 3296,
    "\u2581tackle": 3297,
    "\u2581owner": 3298,
    "\u2581artist": 3299,
    "ho": 3300,
    "\u2581valley": 3301,
    "berg": 3302,
    "Q": 3303,
    "bi": 3304,
    "\u2581Old": 3305,
    "\u2581resolutions": 3306,
    "\u2581hall": 3307,
    "\u2581mo": 3308,
    "\u2581producing": 3309,
    "\u2581pollution": 3310,
    "\u2581updated": 3311,
    "\u2581welfare": 3312,
    "\u2581castle": 3313,
    "\u2581driver": 3314,
    "\u2581proof": 3315,
    "\u2581arrive": 3316,
    "\u2581meant": 3317,
    "\u2581techniques": 3318,
    "\u2581demonstrate": 3319,
    "\u2581reject": 3320,
    "\u2581statistics": 3321,
    "ard": 3322,
    "\u2581strict": 3323,
    "\u2581subsidies": 3324,
    "\u2581cutting": 3325,
    "\u2581investors": 3326,
    "\u2581bottom": 3327,
    "\u2581ethnic": 3328,
    "\u2581patent": 3329,
    "\u2581bilateral": 3330,
    "\u00f3": 3331,
    "80": 3332,
    "\u2581symbol": 3333,
    "ik": 3334,
    "\u2581Most": 3335,
    "\u2581widely": 3336,
    "\u2581inhabitants": 3337,
    "\u2581snow": 3338,
    "\u2581interior": 3339,
    "\u2581visible": 3340,
    "\u2581follows": 3341,
    "\u2581relaxation": 3342,
    "\u2581cash": 3343,
    "\u2581sexual": 3344,
    "fi": 3345,
    "\u2581cable": 3346,
    "\u2581Ma": 3347,
    "\u2581Station": 3348,
    "\u2581seeing": 3349,
    "\u2581master": 3350,
    "\u2581percent": 3351,
    "\u2581straight": 3352,
    "\u2581maintaining": 3353,
    "ors": 3354,
    "\u2581careful": 3355,
    "\u2581involves": 3356,
    "\u2581creates": 3357,
    "\u2581decorated": 3358,
    "\u25812020": 3359,
    "\u2581Friday": 3360,
    "with": 3361,
    "\u2581demonstrated": 3362,
    "\u2581Y": 3363,
    "\u2581drug": 3364,
    "\u2581indicated": 3365,
    "\u2581deposit": 3366,
    "\u2581understood": 3367,
    "\u2581brief": 3368,
    "\u2581corresponding": 3369,
    "\u2581corner": 3370,
    "\u2581answers": 3371,
    "\u2581competent": 3372,
    "\u2581Enterprise": 3373,
    "\u2581library": 3374,
    "\u2581islands": 3375,
    "\u2581OF": 3376,
    "\u2581stored": 3377,
    "\u2581assure": 3378,
    "\u2581feed": 3379,
    "\u2581showing": 3380,
    "\u258135": 3381,
    "\u2581Ho": 3382,
    "\u2581Su": 3383,
    "\u2581settlement": 3384,
    "RO": 3385,
    "mi": 3386,
    "\u2581Pact": 3387,
    "\u2581focused": 3388,
    "\u2581Portuguese": 3389,
    "\u2581department": 3390,
    "\u2581Book": 3391,
    "\u2581Data": 3392,
    "\u2581provider": 3393,
    "\u2581Due": 3394,
    "\u2581formal": 3395,
    "\u2581era": 3396,
    "\u2581foundation": 3397,
    "\u2581proved": 3398,
    "\u2581exciting": 3399,
    "\u2581Best": 3400,
    "\u2581invest": 3401,
    "\u2581settings": 3402,
    "\u2581depending": 3403,
    "\u2581behaviour": 3404,
    "\u2581Palace": 3405,
    "\u2581sugar": 3406,
    "\u2581accompanied": 3407,
    "\u2581visited": 3408,
    "\u2581connections": 3409,
    "\u2581Restaurant": 3410,
    "mp": 3411,
    "\u2581Day": 3412,
    "\u2581documentation": 3413,
    "\u2581Baltic": 3414,
    "\u2581w": 3415,
    "\u2581concluded": 3416,
    "\u2581resistance": 3417,
    "\u2581adapt": 3418,
    "\u2581hostel": 3419,
    "\u2581Then": 3420,
    "\u2581slow": 3421,
    "\u2581wines": 3422,
    "\u2581\u00e0": 3423,
    "\u2581cycle": 3424,
    "\u2581examine": 3425,
    "\u2581stylish": 3426,
    "\u2581effectiveness": 3427,
    "\u2581citizen": 3428,
    "\u2581comparison": 3429,
    "\u2581ver": 3430,
    "\u2581overcome": 3431,
    "min": 3432,
    "\u2581channels": 3433,
    "pro": 3434,
    "\u2581Church": 3435,
    "tor": 3436,
    "Parliament": 3437,
    "\u2581deals": 3438,
    "\u2581passenger": 3439,
    "\u2581spoken": 3440,
    "\u2581flights": 3441,
    "\u2581ongoing": 3442,
    "\u2581tourists": 3443,
    "\u2581Israeli": 3444,
    "\u2581assume": 3445,
    "\u2581es": 3446,
    "\u2581debates": 3447,
    "\u2581spot": 3448,
    "\u2581150": 3449,
    "ov": 3450,
    "\u2581Canada": 3451,
    "\u2581minorities": 3452,
    "\u2581drivers": 3453,
    "\u2581finished": 3454,
    "\u2581trafficking": 3455,
    "\u2581youth": 3456,
    "\u2581categories": 3457,
    "\u2581raw": 3458,
    "\u2581controlled": 3459,
    "\u2581terrorist": 3460,
    "\u2581Site": 3461,
    "\u2581replace": 3462,
    "\u2581corruption": 3463,
    "\u2581consent": 3464,
    "\u2581carbon": 3465,
    "\u2581speaker": 3466,
    "\u2581printing": 3467,
    "\u2581constitutional": 3468,
    "\u2581super": 3469,
    "\u2581match": 3470,
    "\u2581Pa": 3471,
    "\u2581signs": 3472,
    "\u2581blog": 3473,
    "\u2581immigrants": 3474,
    "\u2581mostly": 3475,
    "\u2581scheme": 3476,
    "\u2581SMEs": 3477,
    "lin": 3478,
    "jo": 3479,
    "\u2581profile": 3480,
    "\u2581east": 3481,
    "\u2581visiting": 3482,
    "\u2581replaced": 3483,
    "\u2581lovely": 3484,
    "\u2581gold": 3485,
    "\u2581Pre": 3486,
    "\u2581Ha": 3487,
    "\u2581moral": 3488,
    "\u2581configuration": 3489,
    "\u2581bound": 3490,
    "\u2581Time": 3491,
    "\u2581rapidly": 3492,
    "\u2581educational": 3493,
    "\u2581manufacturer": 3494,
    "\u2581k": 3495,
    "und": 3496,
    "\u2581imposed": 3497,
    "\u2013": 3498,
    "\u2581adopting": 3499,
    "lu": 3500,
    "\u2581Law": 3501,
    "\u2581awarded": 3502,
    "\u2581fitness": 3503,
    "site": 3504,
    "related": 3505,
    "\u2581owners": 3506,
    "\u2581Hungarian": 3507,
    "\u2581recorded": 3508,
    "\u2581destruction": 3509,
    "\u2581chemical": 3510,
    "\u2581dates": 3511,
    "\u2581Schengen": 3512,
    "\u2581spectacular": 3513,
    "\u2581mother": 3514,
    "\u2581Copenhagen": 3515,
    "\u2581facility": 3516,
    "ah": 3517,
    "\u2581pursue": 3518,
    "ology": 3519,
    "\u2581assets": 3520,
    "\u2581desired": 3521,
    "\u2581subsidiarity": 3522,
    "\u2581cosy": 3523,
    "\u2581occasions": 3524,
    "tu": 3525,
    "\u2581!": 3526,
    "Given": 3527,
    "\u2581Am": 3528,
    "\u2581heating": 3529,
    "zi": 3530,
    "\u2581Soviet": 3531,
    "\u2581compatible": 3532,
    "\u2581respected": 3533,
    "ix": 3534,
    "\u2581Ge": 3535,
    "\u2581credibility": 3536,
    "\u2581Protection": 3537,
    "ang": 3538,
    "\u2581milk": 3539,
    "\u2581suite": 3540,
    "bit": 3541,
    "\u2581judicial": 3542,
    "\u2581centuries": 3543,
    "60": 3544,
    "ada": 3545,
    "\u2581Special": 3546,
    "\u2581succeed": 3547,
    "\u2581firms": 3548,
    "\u2581Just": 3549,
    "\u2581See": 3550,
    "\u2581sand": 3551,
    "\u2581Question": 3552,
    "\u2581Nice": 3553,
    "\u2581oral": 3554,
    "\u2581Any": 3555,
    "\u2581contacts": 3556,
    "scale": 3557,
    "\u2581stronger": 3558,
    "\u2581grant": 3559,
    "\u2581possibly": 3560,
    "\u2581suites": 3561,
    "\u2581crimes": 3562,
    "\u2581transactions": 3563,
    "\u2581containing": 3564,
    "\u2581sending": 3565,
    "\u2581functioning": 3566,
    "chi": 3567,
    "\u2581correctly": 3568,
    "op": 3569,
    "\u2581Prague": 3570,
    "\u2581departure": 3571,
    "\u2581willing": 3572,
    "\u2581declared": 3573,
    "\u2581personnel": 3574,
    "era": 3575,
    "\u2581argument": 3576,
    "ations": 3577,
    "\u2581magnificent": 3578,
    "]],": 3579,
    "ible": 3580,
    "\u2581wonder": 3581,
    "\u2581reported": 3582,
    "\u2581woman": 3583,
    "minute": 3584,
    "\u2581emerging": 3585,
    "\u2581Ne": 3586,
    "\u2581mm": 3587,
    "\u2581committees": 3588,
    "\u2581plenty": 3589,
    "\u2581taxation": 3590,
    "\u2581Funds": 3591,
    "\u2581gardens": 3592,
    "\u2581Belarus": 3593,
    "cu": 3594,
    "\u2581partly": 3595,
    "\u2581su": 3596,
    "\u2581hundred": 3597,
    "\u2581quarter": 3598,
    "\u2581tickets": 3599,
    "\u2581revision": 3600,
    "\u2581usual": 3601,
    "\u2581decisive": 3602,
    "\u2581inclusion": 3603,
    "\u2581satisfied": 3604,
    "\u2581cooperate": 3605,
    "\u2581Media": 3606,
    "sen": 3607,
    "ries": 3608,
    "\u2581division": 3609,
    "\u2581dance": 3610,
    "ud": 3611,
    "rate": 3612,
    "\u2581encouraging": 3613,
    "\u2581Santa": 3614,
    "\u2581routes": 3615,
    "\u2581enhance": 3616,
    "\u2581gets": 3617,
    "\u2581windows": 3618,
    "\u2581artistic": 3619,
    "\u2581exception": 3620,
    "\u2581globalisation": 3621,
    "\u2581Design": 3622,
    "\u2581Brazil": 3623,
    "\u2581identified": 3624,
    "\u2581addresses": 3625,
    "\u2581King": 3626,
    "\u2581preparing": 3627,
    "ria": 3628,
    "\u2581cast": 3629,
    "\u2581plenary": 3630,
    "\u2581treat": 3631,
    "\u2581eastern": 3632,
    "\u2581films": 3633,
    "\u2581Structural": 3634,
    "\u2581Hall": 3635,
    "\u2581suffer": 3636,
    "\u2581starts": 3637,
    "\u2581Action": 3638,
    "\u2581narrow": 3639,
    "\u2581endorse": 3640,
    "\u00e4": 3641,
    "wide": 3642,
    "\u2581died": 3643,
    "\u2581appointed": 3644,
    "\u2581thousand": 3645,
    "\u2581School": 3646,
    "how": 3647,
    "\u2581substance": 3648,
    "\u2581locations": 3649,
    "\u2581However": 3650,
    "\u2581spoke": 3651,
    "\u2581rental": 3652,
    "ite": 3653,
    "\u2581abuse": 3654,
    "\u2581army": 3655,
    "ren": 3656,
    "\u2581Bush": 3657,
    "\u2581extraordinary": 3658,
    "\u2581Un": 3659,
    "\u25814-": 3660,
    "\u2581suppliers": 3661,
    "\u2581Ja": 3662,
    "\u2581definitely": 3663,
    "\u2581resolved": 3664,
    "\u2581pick": 3665,
    "\u2581pieces": 3666,
    "Thanks": 3667,
    "\u2581Belgium": 3668,
    "Con": 3669,
    "\u2581Black": 3670,
    "Thirdly": 3671,
    "\u2581;": 3672,
    "\u2581Non": 3673,
    "Europe": 3674,
    "\u2581trend": 3675,
    "\u2581distributed": 3676,
    "\u2581deficit": 3677,
    "\u2581component": 3678,
    "\u2581duties": 3679,
    "\u2581considering": 3680,
    "\u2581channel": 3681,
    "\u2581Hungary": 3682,
    "\u2581noted": 3683,
    "\u2581f\u00fcr": 3684,
    "\u2581absence": 3685,
    "\u2581courts": 3686,
    "\u2581Ro": 3687,
    "\u2581proven": 3688,
    "\u2581ISO": 3689,
    "\u2581proceed": 3690,
    "\u2581actively": 3691,
    "\u2581slightly": 3692,
    "\u2581legitimate": 3693,
    "\u2581proposes": 3694,
    "\u2581dark": 3695,
    "\u2581housing": 3696,
    "Instead": 3697,
    "\u2581towns": 3698,
    "\u2581proposing": 3699,
    "\u2581Madrid": 3700,
    "\u2581virtual": 3701,
    "\u2581Mac": 3702,
    "\u2581weekend": 3703,
    "\u2581tobacco": 3704,
    "\u2581providers": 3705,
    "like": 3706,
    "\u2581Town": 3707,
    "\u2581solely": 3708,
    "\u2581formed": 3709,
    "\u2581appeared": 3710,
    "\u2581eventually": 3711,
    "\u2581domain": 3712,
    "\u2581400": 3713,
    "\u2581Report": 3714,
    "\u2581diverse": 3715,
    "\u2581interpretation": 3716,
    "\u2581vulnerable": 3717,
    "\u2581impose": 3718,
    "\u2581elsewhere": 3719,
    "\u2581Not": 3720,
    "More": 3721,
    "\u2581los": 3722,
    "tion": 3723,
    "let": 3724,
    "\u2581miles": 3725,
    "\u2581maritime": 3726,
    "\u2581presents": 3727,
    "\u2581nevertheless": 3728,
    "ado": 3729,
    "\u2581Of": 3730,
    "date": 3731,
    "\u2581Thursday": 3732,
    "\u2581drop": 3733,
    "\u2581everyday": 3734,
    "\u2581Check": 3735,
    "\u2581packaging": 3736,
    "\u2581adults": 3737,
    "\u2581Bay": 3738,
    "ap": 3739,
    "\u2581applying": 3740,
    "\u2581http": 3741,
    "\u2581musical": 3742,
    "q": 3743,
    "\u2581carrying": 3744,
    "\u2581supplies": 3745,
    "\u2581western": 3746,
    "\u2581label": 3747,
    "\u2581professionals": 3748,
    "\u2581Congress": 3749,
    "\u2581Since": 3750,
    "\u2581scene": 3751,
    "\u2581representation": 3752,
    "\u2581shares": 3753,
    "\u2581forum": 3754,
    "\u2581Pi": 3755,
    "\u2581excessive": 3756,
    "\u2581Northern": 3757,
    "ical": 3758,
    "\u2581Nos": 3759,
    "\u2581Hu": 3760,
    "\u2581fourth": 3761,
    "\u2581voluntary": 3762,
    "\u2581luxurious": 3763,
    "19": 3764,
    "\u2581Pe": 3765,
    "\u2581Today": 3766,
    "\u2581lo": 3767,
    "\u2581Te": 3768,
    "\u2581lie": 3769,
    "\u2581inflation": 3770,
    "\u2581Mexico": 3771,
    "\u2581Plan": 3772,
    "\u2581ye": 3773,
    "\u2581Her": 3774,
    "\u2581conditioning": 3775,
    "\u2581ice": 3776,
    "\u2581Festival": 3777,
    "\u2581Lu": 3778,
    "\u2581Pakistan": 3779,
    "\u2581Will": 3780,
    "\u2581gained": 3781,
    "\u2581tea": 3782,
    "\u2581Mon": 3783,
    "\u2581supplier": 3784,
    "level": 3785,
    "\u2581shadow": 3786,
    "\u2581west": 3787,
    "\u2581Assembly": 3788,
    "\u2581university": 3789,
    "\u2581VAT": 3790,
    "\u2581Code": 3791,
    "\u2581shipping": 3792,
    "ative": 3793,
    "\u2581bridge": 3794,
    "She": 3795,
    "\u2581si": 3796,
    "Each": 3797,
    "\u2581countryside": 3798,
    "\u00f6": 3799,
    "\u2581Framework": 3800,
    "\u2581wrote": 3801,
    "ju": 3802,
    "\u2581Vice": 3803,
    "ven": 3804,
    "\u2581count": 3805,
    "\u2581Island": 3806,
    "\u2581trial": 3807,
    "\u2581generated": 3808,
    "\u2581satisfaction": 3809,
    "\u2581edge": 3810,
    "\u2581arrived": 3811,
    "\u2581suggestions": 3812,
    "\u2581philosophy": 3813,
    "\u2581ships": 3814,
    "back": 3815,
    "\u2581upper": 3816,
    "\u2581traditions": 3817,
    "His": 3818,
    "Le": 3819,
    "ding": 3820,
    "\u2581Rule": 3821,
    "\u2581Jo": 3822,
    "\u2581updates": 3823,
    "\u2581lessons": 3824,
    "\u2581greatly": 3825,
    "\u2581description": 3826,
    "\u2581theory": 3827,
    "\u2581receiving": 3828,
    "\u2581Du": 3829,
    "\u2581mit": 3830,
    "\u2581England": 3831,
    "gu": 3832,
    "\u2581concepts": 3833,
    "\u2581difficulty": 3834,
    "\u2581realise": 3835,
    "\u2581Transport": 3836,
    "\u2581constitute": 3837,
    "\u2581regarded": 3838,
    "\u2581Monday": 3839,
    "www": 3840,
    "\u2581Take": 3841,
    "\u2581roads": 3842,
    "\u2581resource": 3843,
    "\u2581suggested": 3844,
    "\u2581input": 3845,
    "\u2581invited": 3846,
    "ini": 3847,
    "\u2581lunch": 3848,
    "style": 3849,
    "\u2581transmission": 3850,
    "Or": 3851,
    "\u2581banking": 3852,
    "\u2581sum": 3853,
    "Find": 3854,
    "ker": 3855,
    "\u2581exports": 3856,
    "\u2581Technology": 3857,
    "\u2581confirmation": 3858,
    "*": 3859,
    "\u2581prime": 3860,
    "\u2581Inn": 3861,
    "ab": 3862,
    "\u2581finish": 3863,
    "\u25812009,": 3864,
    "\u2581Don": 3865,
    "ins": 3866,
    "\u2581permitted": 3867,
    "\u2581import": 3868,
    "\u2581enabling": 3869,
    "\u2581standing": 3870,
    "\u2581religion": 3871,
    "Ladies": 3872,
    "ator": 3873,
    "\u2581Page": 3874,
    "\u258132": 3875,
    "How": 3876,
    "\u2581destroyed": 3877,
    "\u2581specified": 3878,
    "\u2581camp": 3879,
    "not": 3880,
    "Applause": 3881,
    "\u2581dependent": 3882,
    "ya": 3883,
    "\u2581savings": 3884,
    "\u2581acting": 3885,
    "\u2581Desk": 3886,
    "\u2581Paul": 3887,
    "port": 3888,
    "\u2581Royal": 3889,
    "run": 3890,
    "\u2581disabled": 3891,
    "16": 3892,
    "Then": 3893,
    "\u2581ACP": 3894,
    "\u2581realistic": 3895,
    "\u2581module": 3896,
    "\u2581topics": 3897,
    "\u2581cancer": 3898,
    "\u2581fulfil": 3899,
    "\u2581obliged": 3900,
    "\u2581female": 3901,
    "ken": 3902,
    "\u2581handle": 3903,
    "US": 3904,
    "all": 3905,
    "\u2581crew": 3906,
    "\u2581farming": 3907,
    "\u2581rising": 3908,
    "\u2581Hamburg": 3909,
    "\u2581Legal": 3910,
    "\u2581sought": 3911,
    "\u2581prosperity": 3912,
    "\u2581patient": 3913,
    "\u2581cool": 3914,
    "\u2581significance": 3915,
    "Under": 3916,
    "\u2581Van": 3917,
    "\u2581twenty": 3918,
    "\u2581exclusion": 3919,
    "\u2581Both": 3920,
    "\u2581forests": 3921,
    "Only": 3922,
    "\u2581arguments": 3923,
    "\u2581drinks": 3924,
    "\u2581overview": 3925,
    "ski": 3926,
    "ER": 3927,
    "\u2581plays": 3928,
    "\u2581Earth": 3929,
    "\u2581Amendments": 3930,
    "\u2581enjoyed": 3931,
    "\u2581attempts": 3932,
    "\u2581rare": 3933,
    "wing": 3934,
    "\u2581harmonisation": 3935,
    "\u2581bright": 3936,
    "Commissioner": 3937,
    "\u2581Sunday": 3938,
    "\u2581Trek": 3939,
    "\u2581societies": 3940,
    "\u2581colours": 3941,
    "\u2581pure": 3942,
    "\u2581killed": 3943,
    "\u2581Beach": 3944,
    "\u2581referendum": 3945,
    "\u2581bio": 3946,
    "\u2581electric": 3947,
    "\u2581villages": 3948,
    "\u2581delicious": 3949,
    "\u2581publication": 3950,
    "ituated": 3951,
    "\u2581reservations": 3952,
    "form": 3953,
    "\u25812011": 3954,
    "\u2581Saturday": 3955,
    "13": 3956,
    "\u2581approve": 3957,
    "sk": 3958,
    "97": 3959,
    "\u2581specialist": 3960,
    "\u2581justified": 3961,
    "\u2581Agriculture": 3962,
    "\u2581radical": 3963,
    "Most": 3964,
    "\u2581roof": 3965,
    "\u2581nine": 3966,
    "\u2581portfolio": 3967,
    "Yet": 3968,
    "\u2581negotiating": 3969,
    "\u2581appearance": 3970,
    "\u2581lift": 3971,
    "21": 3972,
    "\u2581lots": 3973,
    "\u2581Socialist": 3974,
    "\u2581fleet": 3975,
    "\u2581disk": 3976,
    "\u2581wild": 3977,
    "\u2581olive": 3978,
    "\u2581EC": 3979,
    "\u2581Inter": 3980,
    "\u2581renowned": 3981,
    "\u2581politically": 3982,
    "\u2581calm": 3983,
    "\u2581unforgettable": 3984,
    "\u2581Auditors": 3985,
    "\u2581football": 3986,
    "\u2581continuous": 3987,
    "red": 3988,
    "ware": 3989,
    "\u2581Egypt": 3990,
    "\u2581legally": 3991,
    "\u2581proceedings": 3992,
    "\u2581imports": 3993,
    "\u2581suffered": 3994,
    "\u2581Sch": 3995,
    "\u2581sleep": 3996,
    "\u2581safeguard": 3997,
    "\u2581PHP": 3998,
    "\u2581supervision": 3999,
    "\u2581Get": 4000,
    "\u2581skiing": 4001,
    "km": 4002,
    "\u2581Also": 4003,
    "zo": 4004,
    "\u2581refers": 4005,
    "\u2581desk": 4006,
    "\u2581ports": 4007,
    "90": 4008,
    "18": 4009,
    "\u2581Peter": 4010,
    "\u2581peoples": 4011,
    "45": 4012,
    "\u2581romantic": 4013,
    "\u2581faith": 4014,
    "par": 4015,
    "\u2581festival": 4016,
    "\u2581welcomed": 4017,
    "\u2581remained": 4018,
    "\u2581Every": 4019,
    "Over": 4020,
    "\u00e0": 4021,
    "\u2581enterprise": 4022,
    "vis": 4023,
    "\u2581parallel": 4024,
    "\u2581contributed": 4025,
    "\u2581Another": 4026,
    "\u2581preventing": 4027,
    "\u2581Barroso": 4028,
    "\u2581nights": 4029,
    "\u2581honour": 4030,
    "\u2581paying": 4031,
    "\u2581instructions": 4032,
    "\u2581forthcoming": 4033,
    "\u2581theme": 4034,
    "\u2581doors": 4035,
    "friendly": 4036,
    "\u2581covering": 4037,
    "\u2581Enjoy": 4038,
    "\u25811,": 4039,
    "\u2581allocated": 4040,
    "van": 4041,
    "):": 4042,
    "\u2581complicated": 4043,
    "\u2581mix": 4044,
    "\u2581surely": 4045,
    "\u2581indicate": 4046,
    "\u258145": 4047,
    "\u2581directory": 4048,
    "\u2581subjects": 4049,
    "\u2581u": 4050,
    "\u2581everybody": 4051,
    "\u2581MP": 4052,
    "\u2581director": 4053,
    "\u2581lay": 4054,
    "\u2581Strasbourg": 4055,
    "\u2581firmly": 4056,
    "set": 4057,
    "\u2581boost": 4058,
    "\u2581revolution": 4059,
    "Be": 4060,
    "\u2581supposed": 4061,
    "\u2581Year": 4062,
    "air": 4063,
    "\u2581directed": 4064,
    "\u2581didn": 4065,
    "\u2581parliament": 4066,
    "\u2581teams": 4067,
    "\u2581tennis": 4068,
    "\u2581Ni": 4069,
    "\u2581introducing": 4070,
    "\u2581\"\u201c": 4071,
    "\u2581wider": 4072,
    "\u2581hardly": 4073,
    "\u2581Secretary": 4074,
    "\u2581collect": 4075,
    "\u2581imagine": 4076,
    "\u258124-": 4077,
    "\u2581combine": 4078,
    "\u2581tree": 4079,
    "\u2581enabled": 4080,
    "\u2581Such": 4081,
    "\u2581Tour": 4082,
    "tes": 4083,
    "\u2581parameters": 4084,
    "\u2581decline": 4085,
    "\u2581eat": 4086,
    "ble": 4087,
    "\u2581investigation": 4088,
    "hi": 4089,
    "\u2581ordinary": 4090,
    "\u2581Consumer": 4091,
    "\u2581programming": 4092,
    "\u2581restore": 4093,
    "\u2581Da": 4094,
    "\u2581barriers": 4095,
    "\u2581preserve": 4096,
    "\u2581functional": 4097,
    "\u2581Ri": 4098,
    "ff": 4099,
    "\u2581cleaning": 4100,
    "\u2581hearing": 4101,
    "\u2581custom": 4102,
    "\u2581movie": 4103,
    "=": 4104,
    "\u2581characters": 4105,
    "\u2581missing": 4106,
    "\u2581originally": 4107,
    "\u2581recognized": 4108,
    "\u2581vessels": 4109,
    "\u25811.": 4110,
    "\u2581ha": 4111,
    "\u2581leaves": 4112,
    "\u2581Finland": 4113,
    "\u2581IN": 4114,
    "\u2581obstacles": 4115,
    "\u2581push": 4116,
    "hu": 4117,
    "\u2581Asian": 4118,
    "\u2581remarks": 4119,
    "ku": 4120,
    "\u2581Its": 4121,
    "\u2581organic": 4122,
    "\u2581auto": 4123,
    "\u2581explained": 4124,
    "\u2581manager": 4125,
    "\u2581sustainability": 4126,
    "\u2581--": 4127,
    "\u2581productivity": 4128,
    "\u2581struggle": 4129,
    "\u2581smooth": 4130,
    "\u2581Stability": 4131,
    "\u2581Federation": 4132,
    "\u2581generate": 4133,
    "\u2581collected": 4134,
    "\u2581expand": 4135,
    "\u2581weak": 4136,
    "\u2581ECU": 4137,
    "\u2581trips": 4138,
    "\u2581wellness": 4139,
    "ero": 4140,
    "\u2581Atlantic": 4141,
    "\u2581hospitality": 4142,
    "ium": 4143,
    "\u2581freedoms": 4144,
    "\u2581whereas": 4145,
    "\u2581gallery": 4146,
    "\u2581ensures": 4147,
    "\u2581dignity": 4148,
    "\u2581compact": 4149,
    "\u2581saved": 4150,
    "Yes": 4151,
    "made": 4152,
    "\u2581fan": 4153,
    "17": 4154,
    "smoking": 4155,
    "\u00fc": 4156,
    "\u2581Organisation": 4157,
    "hotel": 4158,
    "ser": 4159,
    "\u2581Ba": 4160,
    "\u2581song": 4161,
    "\u2581reflected": 4162,
    "\u2581functionality": 4163,
    "\u2581gap": 4164,
    "\u2581periods": 4165,
    "\u2581severe": 4166,
    "01": 4167,
    "\u2581welcoming": 4168,
    "\u2581accurate": 4169,
    "\u2581cells": 4170,
    "\u2581considerably": 4171,
    "\u2581Ko": 4172,
    "\u2581fans": 4173,
    "\u2581sharing": 4174,
    "\u2581accident": 4175,
    "\u2581cuts": 4176,
    "val": 4177,
    "\u2581showed": 4178,
    "Every": 4179,
    "\u2581Martin": 4180,
    "\u2581restructuring": 4181,
    "ile": 4182,
    "\u2581turning": 4183,
    "ita": 4184,
    "\u2581assess": 4185,
    "\u2581enhanced": 4186,
    "\u2581lists": 4187,
    "\u2581universities": 4188,
    "\u2581bike": 4189,
    "\u2581EADS": 4190,
    "\u2581(19": 4191,
    "\u2581stake": 4192,
    "\u2581birth": 4193,
    "\u2581none": 4194,
    "\u2581protocol": 4195,
    "\u2581decade": 4196,
    "\u2581una": 4197,
    "\u2581Express": 4198,
    "09": 4199,
    "\u2581Port": 4200,
    "\u2581penalty": 4201,
    "uk": 4202,
    "\u2581clubs": 4203,
    "\u2581concert": 4204,
    "\u2581internationally": 4205,
    "\u2581regardless": 4206,
    "\u2581amazing": 4207,
    "\u2581classes": 4208,
    "\u2581acceptance": 4209,
    "\u2581Music": 4210,
    "\u2581undoubtedly": 4211,
    "\u2581exploitation": 4212,
    "\u2581Golf": 4213,
    "\u2581labelling": 4214,
    "cha": 4215,
    "ons": 4216,
    "\u2581modules": 4217,
    "ions": 4218,
    "\u2581sight": 4219,
    "\u2581errors": 4220,
    "14": 4221,
    "\u2581sit": 4222,
    "\u2581adapted": 4223,
    "\u2581frame": 4224,
    "COM": 4225,
    "\u2581violations": 4226,
    "\u2581looked": 4227,
    "\u2581disasters": 4228,
    "\u2581ministers": 4229,
    "\u2581IP": 4230,
    "\u2581excluded": 4231,
    "\u2581Serbia": 4232,
    "ano": 4233,
    "\u2581reaction": 4234,
    "\u2581exact": 4235,
    "Other": 4236,
    "\u2581united": 4237,
    "Whether": 4238,
    "70": 4239,
    "\u2581studio": 4240,
    "\u2581equivalent": 4241,
    "\u2581cell": 4242,
    "\u2581connect": 4243,
    "\u2581Valley": 4244,
    "\u2581fees": 4245,
    "\u2581concentrate": 4246,
    "\u2581Er": 4247,
    "\u2581reaching": 4248,
    "\u2581horse": 4249,
    "\u2581reconstruction": 4250,
    "\u2581charm": 4251,
    "\u2581h": 4252,
    "}}": 4253,
    "\u2581facts": 4254,
    "\u2581movements": 4255,
    "\u2581Global": 4256,
    "sis": 4257,
    "\u2581Tri": 4258,
    "General": 4259,
    "fa": 4260,
    "ran": 4261,
    "light": 4262,
    "\u2581transferred": 4263,
    "\u2581museums": 4264,
    "\u2581Tourism": 4265,
    "\u2581permission": 4266,
    "are": 4267,
    "\u2581layer": 4268,
    "\u2581wireless": 4269,
    "tz": 4270,
    "\u2581managing": 4271,
    "\u2581uniform": 4272,
    "\u2581ride": 4273,
    "\u2581Islamic": 4274,
    "\u2581subsequent": 4275,
    "\u2581songs": 4276,
    "\u2581losses": 4277,
    "\u2581Food": 4278,
    "\u2581min": 4279,
    "\u2581stocks": 4280,
    "\u2581clause": 4281,
    "\u2581sovereignty": 4282,
    "\u2581Mi": 4283,
    "\u2581Geneva": 4284,
    "\u2581Balkans": 4285,
    "lic": 4286,
    "\u2581satisfy": 4287,
    "\u2581repair": 4288,
    "\u2581cent": 4289,
    "mon": 4290,
    "ide": 4291,
    "\u2581TO": 4292,
    "ward": 4293,
    "\u2581undertaken": 4294,
    "\u2581travelling": 4295,
    "\u2581switch": 4296,
    "\u2581arise": 4297,
    "\u2581worst": 4298,
    "\u2581dry": 4299,
    "\u2581PPE": 4300,
    "\u2581dead": 4301,
    "\u2581filled": 4302,
    "king": 4303,
    "Before": 4304,
    "\u2581Those": 4305,
    "\u2581courage": 4306,
    "ING": 4307,
    "\u2581tested": 4308,
    "\u2581soil": 4309,
    "\u2581consulting": 4310,
    "\u2581Even": 4311,
    "ping": 4312,
    "\u2581sounds": 4313,
    "ru": 4314,
    "war": 4315,
    "ice": 4316,
    "\u2581generations": 4317,
    "\u2581restored": 4318,
    "\u2581belong": 4319,
    "Following": 4320,
    "\u2581alcohol": 4321,
    "\u2581liberal": 4322,
    "\u2581fishermen": 4323,
    "\u2581strengthened": 4324,
    "\u2581Nor": 4325,
    "\u2581amenities": 4326,
    "\u2581plastic": 4327,
    "IN": 4328,
    "\u2581eliminate": 4329,
    "\u2581reliability": 4330,
    "ola": 4331,
    "\u2581freely": 4332,
    "Well": 4333,
    "\u2581Power": 4334,
    "\u2581trends": 4335,
    "\u2581massage": 4336,
    "AL": 4337,
    "\u2581thermal": 4338,
    "\u2581reflects": 4339,
    "\u25812008,": 4340,
    "\u2581supplied": 4341,
    "pi": 4342,
    "\u2581proportion": 4343,
    "\u2581acknowledge": 4344,
    "\u2581USB": 4345,
    "\u2581vi": 4346,
    "\u2581commit": 4347,
    "\u2581coordinated": 4348,
    "\u2581edition": 4349,
    "ens": 4350,
    "\u2581po": 4351,
    "\u2581Resort": 4352,
    "\u2581selling": 4353,
    "\u2581reputation": 4354,
    "\u2581100%": 4355,
    "\u2581sections": 4356,
    "\u258150%": 4357,
    "\u2581OR": 4358,
    "fe": 4359,
    "ight": 4360,
    "gi": 4361,
    "\u2581Casino": 4362,
    "\u2581script": 4363,
    "bed": 4364,
    "\u2581Regional": 4365,
    "\u2581je": 4366,
    "\u2581learned": 4367,
    "\u2581Castle": 4368,
    "\u2581User": 4369,
    "\u2581neighbouring": 4370,
    "22": 4371,
    "\u2581Venice": 4372,
    "stra": 4373,
    "ica": 4374,
    "\u2581panel": 4375,
    "\u2581Michael": 4376,
    "\u2581ba": 4377,
    "Ro": 4378,
    "\u2581homes": 4379,
    "\u2581Agenda": 4380,
    "\u2581briefly": 4381,
    "New": 4382,
    "\u258120%": 4383,
    "\u2581sole": 4384,
    "\u2581Real": 4385,
    "\u2581Christmas": 4386,
    "\u2581catch": 4387,
    "eg": 4388,
    ");": 4389,
    "\u2581ECB": 4390,
    "\u2581Islands": 4391,
    "\u2581province": 4392,
    "\u2581anywhere": 4393,
    "\u2581Indian": 4394,
    "\u2581attend": 4395,
    "\u2581necessarily": 4396,
    "du": 4397,
    "\u2581deeply": 4398,
    "\u2581root": 4399,
    "\u2581Culture": 4400,
    "\u2581Maria": 4401,
    "\u2581Fa": 4402,
    "\u2581engage": 4403,
    "\u2581{{": 4404,
    "\u25811995": 4405,
    "\u2581picturesque": 4406,
    "\u2581Front": 4407,
    "Its": 4408,
    "\u2581tables": 4409,
    "\u2581Inc": 4410,
    "\u2581Belgian": 4411,
    "\u2581Australia": 4412,
    "\u2581assembly": 4413,
    "\u2581insist": 4414,
    "\u2581determination": 4415,
    "Co": 4416,
    "\u2581est": 4417,
    "\u2581percentage": 4418,
    "\u2581saving": 4419,
    "\u2581panoramic": 4420,
    "\u2581Americans": 4421,
    "\u2581lived": 4422,
    "\u2581index": 4423,
    "\u2581condemn": 4424,
    "\u2581trouble": 4425,
    "ET": 4426,
    "lan": 4427,
    "\u2581hiking": 4428,
    "\u2581varied": 4429,
    "\u2581visual": 4430,
    "Consequently": 4431,
    "\u2581anniversary": 4432,
    "\u2581les": 4433,
    "\u2581targeted": 4434,
    "\u2581listings": 4435,
    "\u2581appropriations": 4436,
    "\u2581minister": 4437,
    "\u2581checks": 4438,
    "\u2581manufacture": 4439,
    "\u2581metro": 4440,
    "del": 4441,
    "dis": 4442,
    "\u2581prize": 4443,
    "\u2581CAP": 4444,
    "\u2581welcomes": 4445,
    "\u2581arising": 4446,
    "ps": 4447,
    "\u2581sensible": 4448,
    "ow": 4449,
    "\u2581lobby": 4450,
    "log": 4451,
    "\u2581Deutsche": 4452,
    "\u2581Two": 4453,
    "\u2581engaged": 4454,
    "()": 4455,
    "\u2581promise": 4456,
    "\u25811980": 4457,
    "\u2581Women": 4458,
    "-1": 4459,
    "country": 4460,
    "\u2581teaching": 4461,
    "\u2581Vi": 4462,
    "\u2581everywhere": 4463,
    "\u2581Post": 4464,
    "\u2581Vo": 4465,
    "\u2581Executive": 4466,
    "\u2581ne": 4467,
    "avi": 4468,
    "\u2581pretty": 4469,
    "\u2581individually": 4470,
    "\u2581organise": 4471,
    "\u2581student": 4472,
    "\u2581PDF": 4473,
    "\u2581phenomenon": 4474,
    "\u2581kernel": 4475,
    "\u2581por": 4476,
    "\u2581sex": 4477,
    "\u2581liked": 4478,
    "\u2581pilot": 4479,
    "\u2581AND": 4480,
    "\u2581Ti": 4481,
    "\u2581processed": 4482,
    "\u2581factory": 4483,
    "\u2581Protocol": 4484,
    "\u2581referring": 4485,
    "\u2581diplomatic": 4486,
    "\u2581native": 4487,
    "\u2581stars": 4488,
    "\u2581execution": 4489,
    "my": 4490,
    "\u2581Director": 4491,
    "\u2581stages": 4492,
    "\u2581Online": 4493,
    "\u2581labor": 4494,
    "ez": 4495,
    "\u2581damages": 4496,
    "\u2581jurisdiction": 4497,
    "\u2581Civil": 4498,
    "\u2581sights": 4499,
    "\u2581presenting": 4500,
    "\u2581executive": 4501,
    "\u2581videos": 4502,
    "\u2581computers": 4503,
    "\u2581usage": 4504,
    "table": 4505,
    "cher": 4506,
    "our": 4507,
    "\u2581mistake": 4508,
    "\u2581profits": 4509,
    "\u2581consequence": 4510,
    "\u2581pain": 4511,
    "\u2581NGOs": 4512,
    "\u2581entering": 4513,
    "\u2581urgently": 4514,
    "ok": 4515,
    "\u2581Therefore": 4516,
    "\u2581Hotels": 4517,
    "\u2581liable": 4518,
    "\u2581afford": 4519,
    "\u2581communicate": 4520,
    "right": 4521,
    "\u2581fairly": 4522,
    "han": 4523,
    "iz": 4524,
    "phrase": 4525,
    "\u2581stuff": 4526,
    "\u2581indoor": 4527,
    "tur": 4528,
    "\u2581Note": 4529,
    "\u2581till": 4530,
    "nic": 4531,
    "\u2581load": 4532,
    "\u2581holds": 4533,
    "\u2581geographical": 4534,
    "Ma": 4535,
    "ification": 4536,
    "wi": 4537,
    "\u2581Ombudsman": 4538,
    "list": 4539,
    "\u2581cancellation": 4540,
    "35": 4541,
    "\u2581occurred": 4542,
    "\u2581Project": 4543,
    "\u2581recording": 4544,
    "\u2581Budgets": 4545,
    "\u2581normally": 4546,
    "\"": 4547,
    "\u2581intends": 4548,
    "\u2581prospects": 4549,
    "\u2581III": 4550,
    "Lastly": 4551,
    "\u25813-": 4552,
    "\u2581promised": 4553,
    "\u2581villa": 4554,
    "\u2581ordered": 4555,
    "\u2581underground": 4556,
    "\u2581efficiently": 4557,
    "tter": 4558,
    "ari": 4559,
    "\u2581mis": 4560,
    "\u2581Denmark": 4561,
    "\u2581succeeded": 4562,
    "\u2581Bi": 4563,
    "\u2581Welcome": 4564,
    "\u2581ad": 4565,
    "\u2581strictly": 4566,
    "\u2581stunning": 4567,
    "\u2581euros": 4568,
    "ON": 4569,
    "\u2581relative": 4570,
    "EN": 4571,
    "\u2581Ben": 4572,
    "\u2581magazine": 4573,
    "\u25812007,": 4574,
    "\u2581superior": 4575,
    "\u2581cultures": 4576,
    "\u2581ecological": 4577,
    "\u2581sphere": 4578,
    "\u2581incorporated": 4579,
    "\u2581Georgia": 4580,
    "\u2581coherent": 4581,
    "\u2581overlooking": 4582,
    "ves": 4583,
    "\u2581threats": 4584,
    "Like": 4585,
    "Having": 4586,
    "\u2581highlights": 4587,
    "\u258110%": 4588,
    "\u2581highlighted": 4589,
    "\u2581lasting": 4590,
    "\u2581Die": 4591,
    "\u2581twice": 4592,
    "\u2581essentially": 4593,
    "\u2581Life": 4594,
    "\u2581newsletter": 4595,
    "\u2581medicine": 4596,
    "\u2581scientists": 4597,
    "\u2581printed": 4598,
    "\u2581intelligent": 4599,
    "cho": 4600,
    "\u2581kilometres": 4601,
    "which": 4602,
    "\u2581reserved": 4603,
    "\u2581Card": 4604,
    "\u2581belief": 4605,
    "\u2581destroy": 4606,
    "\u2581boot": 4607,
    "zen": 4608,
    "\u2581acquired": 4609,
    "\u2581toward": 4610,
    "\u2581permit": 4611,
    "ou": 4612,
    "\u2581tracks": 4613,
    "\u2581adventure": 4614,
    "Your": 4615,
    "\u2581Manager": 4616,
    "Such": 4617,
    ",\u201d": 4618,
    "\u2581shift": 4619,
    "\u2581heading": 4620,
    "\u2581resulted": 4621,
    "\u2581oldest": 4622,
    "\u2581gradually": 4623,
    "\u2581Wa": 4624,
    "\u2581formats": 4625,
    "\u2581er": 4626,
    "\u2581Exchange": 4627,
    "\u2581surprise": 4628,
    "\u2581layout": 4629,
    "res": 4630,
    "\u2581revenue": 4631,
    "\u2581territorial": 4632,
    "\u2581operator": 4633,
    "\u2581Good": 4634,
    "\u2581treatments": 4635,
    "\u2581feet": 4636,
    "Room": 4637,
    "\u2581causing": 4638,
    "kin": 4639,
    "\u2581widespread": 4640,
    "\u2581Obama": 4641,
    "\u2581explanation": 4642,
    "\u2581pillar": 4643,
    "\u2581troops": 4644,
    "ip": 4645,
    "\u2581engines": 4646,
    "tech": 4647,
    "\u2581relates": 4648,
    "\u2581Education": 4649,
    "\u2581mouse": 4650,
    "\u2581ended": 4651,
    "\u2581winning": 4652,
    "\u2581producer": 4653,
    "\u2581meal": 4654,
    "\u2581sophisticated": 4655,
    "\u2581prisoners": 4656,
    "hand": 4657,
    "\u2581Other": 4658,
    "\u2581ID": 4659,
    "\u2581blind": 4660,
    "\u2581adult": 4661,
    "\u2581combines": 4662,
    "las": 4663,
    "ara": 4664,
    "\u2581virtually": 4665,
    "\u2581floors": 4666,
    "\u2581encouraged": 4667,
    "\u2581conventional": 4668,
    "\u2581suit": 4669,
    "\u2581achievement": 4670,
    "\u2581environmentally": 4671,
    "\u2581Chi": 4672,
    "ey": 4673,
    "\u2581Treaties": 4674,
    "\u2581shuttle": 4675,
    "\u2581occupation": 4676,
    "\u2581Ad": 4677,
    "\u2581seats": 4678,
    "\u2581Land": 4679,
    "\u2581thorough": 4680,
    "\u2581warning": 4681,
    "\u2581manual": 4682,
    "\u2581begins": 4683,
    "\u2581aviation": 4684,
    "\u2581clarify": 4685,
    "\u2581candidates": 4686,
    "\u2581participating": 4687,
    "\u2581Water": 4688,
    "\u2581specialists": 4689,
    "ji": 4690,
    "\u2581Award": 4691,
    "Last": 4692,
    "\u2581observe": 4693,
    "\u2581quote": 4694,
    "\u2581ease": 4695,
    "\u2581sample": 4696,
    "\u2581affects": 4697,
    "\u2581agents": 4698,
    "\u2581Constitutional": 4699,
    "\u2581intensive": 4700,
    "\u25812006,": 4701,
    "low": 4702,
    "\u2581recognize": 4703,
    "Another": 4704,
    "\u2581calendar": 4705,
    "\u2581alongside": 4706,
    "gan": 4707,
    "\u2581harmful": 4708,
    "\u2581superb": 4709,
    "ement": 4710,
    "\u2581prison": 4711,
    "\u2581dispute": 4712,
    "\u2581compete": 4713,
    "\u2581restricted": 4714,
    "\u2581utmost": 4715,
    "\u2581attached": 4716,
    "ben": 4717,
    "lar": 4718,
    "\u2581designs": 4719,
    "\u2581contextual": 4720,
    "\u2581solar": 4721,
    "\u2581fax": 4722,
    "pre": 4723,
    "ray": 4724,
    "\u2581Com": 4725,
    "\u2581miss": 4726,
    "\u2581observed": 4727,
    "\u2581notes": 4728,
    "\u2581Customer": 4729,
    "26": 4730,
    "\u2581Forum": 4731,
    "\u2581Systems": 4732,
    "\u2581JavaScript": 4733,
    "Without": 4734,
    "\u2581adds": 4735,
    "\u2581convergence": 4736,
    "\u2581associations": 4737,
    "\u2581spite": 4738,
    "gar": 4739,
    "Tip": 4740,
    "\u2581retain": 4741,
    "\u2581armed": 4742,
    "\u2581Bre": 4743,
    "\u2581Via": 4744,
    "\u2581accidents": 4745,
    "\u2581convention": 4746,
    "\u2581purely": 4747,
    "\u2581principal": 4748,
    "Besides": 4749,
    "\u2581produces": 4750,
    "\u2581pa": 4751,
    "\u2581Ex": 4752,
    "\u2581NI": 4753,
    "\u2581surprised": 4754,
    "\u2581grown": 4755,
    "nes": 4756,
    "\u2581unfair": 4757,
    "\u2581quotas": 4758,
    "\u2581Anti": 4759,
    "ese": 4760,
    "\u2581survey": 4761,
    "\u201d\"": 4762,
    "\u2581stick": 4763,
    "\u2581George": 4764,
    "\u2581composition": 4765,
    "\u2581Cor": 4766,
    "\u2581Danish": 4767,
    "ments": 4768,
    "\u2581Hi": 4769,
    "\u2581recall": 4770,
    "\u2581integrate": 4771,
    "\u2581auf": 4772,
    "\u2581teachers": 4773,
    "\u2581serving": 4774,
    "\u2581capabilities": 4775,
    "Within": 4776,
    "\u2581Rotary": 4777,
    "\u2581Very": 4778,
    "\u2581seeks": 4779,
    "ot": 4780,
    "\u2581casino": 4781,
    "\u2581),": 4782,
    "\u2581hidden": 4783,
    "\u2581Who": 4784,
    "\u2581ball": 4785,
    "ong": 4786,
    "\u2581Gold": 4787,
    "\u2581height": 4788,
    "\u2581Prodi": 4789,
    "64": 4790,
    "\u2581rely": 4791,
    "\u2581wooden": 4792,
    "\u2581specialized": 4793,
    "\u2581upgrade": 4794,
    "\u2581records": 4795,
    "\u2581king": 4796,
    "\u2581adding": 4797,
    "\u2581thumbnail": 4798,
    "\u2581ca": 4799,
    "500": 4800,
    "\u2581secondly": 4801,
    "\u2581tra": 4802,
    "\u2581Ga": 4803,
    "\u2581Representative": 4804,
    "32": 4805,
    "\u2581protest": 4806,
    "\u2581airports": 4807,
    "\u2581graphics": 4808,
    "can": 4809,
    "\u2581electrical": 4810,
    "ED": 4811,
    "SE": 4812,
    "\u2581chair": 4813,
    "\u2581expense": 4814,
    "\u2581oppose": 4815,
    "\u2581Gu": 4816,
    "ato": 4817,
    "\u2581wear": 4818,
    "\u2581il": 4819,
    "\u2581marks": 4820,
    "\u2581passing": 4821,
    "\u2581Industry": 4822,
    "\u2581estimated": 4823,
    "06": 4824,
    "down": 4825,
    "\u2581Dublin": 4826,
    "\u2581Server": 4827,
    "\u2581ho": 4828,
    "CS": 4829,
    "\u00e8": 4830,
    "\u2581raising": 4831,
    "\u2581Notes": 4832,
    "95": 4833,
    "\u2581extending": 4834,
    "\u2581inspired": 4835,
    "\u2581audience": 4836,
    "ther": 4837,
    "oriented": 4838,
    "\u2581harm": 4839,
    "\u2581meals": 4840,
    "23": 4841,
    "\u2581minor": 4842,
    "\u2581inadequate": 4843,
    "\u2581airlines": 4844,
    "\u2581ratification": 4845,
    "\u2581filter": 4846,
    "\u2581discount": 4847,
    "\u2581Sun": 4848,
    "\u2581View": 4849,
    "\u2581stories": 4850,
    "\u2581sufficiently": 4851,
    "\u2581tend": 4852,
    "\u2581violation": 4853,
    "tri": 4854,
    "\u2581Fundamental": 4855,
    "\u2581hills": 4856,
    "\u2581implications": 4857,
    "\u2581initially": 4858,
    "state": 4859,
    "ST": 4860,
    "\u2581victory": 4861,
    "\u2581ein": 4862,
    "\u2581dialog": 4863,
    "\u2581negotiation": 4864,
    "\u2581flows": 4865,
    "\u2581multilateral": 4866,
    "ME": 4867,
    "ella": 4868,
    "\u2581bathrooms": 4869,
    "\u2581crises": 4870,
    "ified": 4871,
    "\u2581dollar": 4872,
    "\u2581ruling": 4873,
    "ably": 4874,
    "\u2581assigned": 4875,
    "\u2581bonus": 4876,
    "31": 4877,
    "\u2581medieval": 4878,
    "\u2581describe": 4879,
    "ade": 4880,
    "\u2581colors": 4881,
    "\u2581classical": 4882,
    "\u2581withdraw": 4883,
    "\u2581servers": 4884,
    "\u2581sweet": 4885,
    "tt": 4886,
    "ute": 4887,
    "\u2581Slovakia": 4888,
    "\u2581approaches": 4889,
    "27": 4890,
    "\u2581blocks": 4891,
    "\u2581meets": 4892,
    "Mo": 4893,
    "\u2581mu": 4894,
    "\u2581federal": 4895,
    "\u2581advise": 4896,
    "\u2581RE": 4897,
    "mark": 4898,
    "\u2581soul": 4899,
    "\u2581gift": 4900,
    "\u2581Family": 4901,
    "\u2581shortly": 4902,
    "\u2581considers": 4903,
    "\u2581studied": 4904,
    "\u2581promises": 4905,
    "\u2581reflection": 4906,
    "\u2581Terms": 4907,
    "\u2581Garden": 4908,
    "\u2581amended": 4909,
    "\u2581Java": 4910,
    "\u2581meaningfully": 4911,
    "chen": 4912,
    "NL": 4913,
    "\u2581developers": 4914,
    "\u2581navigation": 4915,
    "\u2581whereby": 4916,
    "ec": 4917,
    "\u2581Cup": 4918,
    "ien": 4919,
    "\u2581schemes": 4920,
    "\u2581chapter": 4921,
    "Pro": 4922,
    "\u2581guided": 4923,
    "\u2581empty": 4924,
    "\u2581informal": 4925,
    "\u2581splendid": 4926,
    "\u2581escape": 4927,
    "\u2581heads": 4928,
    "\u258100": 4929,
    "\u2581ma": 4930,
    "\u2581Ab": 4931,
    "\u2581Network": 4932,
    "\u2581Ltd": 4933,
    "\u2581poorest": 4934,
    "\u2581governing": 4935,
    "Me": 4936,
    "\u2581semi": 4937,
    "iv": 4938,
    "\u2581repeated": 4939,
    "\u2581concentration": 4940,
    "\u2581iron": 4941,
    "\u2581believed": 4942,
    "\u2581choices": 4943,
    "\u2581Fisheries": 4944,
    "\u2581characteristic": 4945,
    "\u2581edited": 4946,
    "\u25811993": 4947,
    "\u2581Kong": 4948,
    "\u2581enforcement": 4949,
    "\u2581timetable": 4950,
    "tin": 4951,
    "\u2581Meeting": 4952,
    "AT": 4953,
    "\u2581ingredients": 4954,
    "\u2581admit": 4955,
    "\u2581?": 4956,
    "\u2581yes": 4957,
    "Member": 4958,
    "\u2581(\"\"": 4959,
    "\u2581taxi": 4960,
    "04": 4961,
    "\u2581satisfactory": 4962,
    "\u2581bug": 4963,
    "\u2581Guests": 4964,
    "\u2581appointment": 4965,
    "ura": 4966,
    "grammatically": 4967,
    "EU": 4968,
    "sta": 4969,
    "\u2581academic": 4970,
    "\u2581Team": 4971,
    "\u2581steam": 4972,
    "ska": 4973,
    "\u2581medicines": 4974,
    "\u2581plug": 4975,
    "\u2581operates": 4976,
    "\u2581scheduled": 4977,
    "\u2581neighbours": 4978,
    "\u2581fa": 4979,
    "\u2581addressing": 4980,
    "100": 4981,
    "\u2581wave": 4982,
    "\u2581contextually": 4983,
    "\u2581constitutes": 4984,
    "29": 4985,
    "\u2581Commissioners": 4986,
    "\u2581urgency": 4987,
    "\u2581info": 4988,
    "\u2581rubber": 4989,
    "\u2581reporting": 4990,
    "market": 4991,
    "\u2581gra": 4992,
    "\u2581conferences": 4993,
    "\u2581Robert": 4994,
    "\u2581remarkable": 4995,
    "eu": 4996,
    "MA": 4997,
    "ep": 4998,
    "\u2581cancel": 4999,
    "\u2581employed": 5000,
    "bra": 5001,
    "\u2581bought": 5002,
    "ena": 5003,
    "\u2581strike": 5004,
    "Due": 5005,
    "\u2581chairman": 5006,
    "nn": 5007,
    "\u2581distinction": 5008,
    "\u258148": 5009,
    "\u2581compulsory": 5010,
    "\u2581Tu": 5011,
    "\u2581Wall": 5012,
    "\u2581Tor": 5013,
    "\u2581logic": 5014,
    "\u2581Authority": 5015,
    "\u25812005,": 5016,
    "\u2581joining": 5017,
    "\u2581certification": 5018,
    "\u2581IMF": 5019,
    "\u2581conciliation": 5020,
    "\u2581technique": 5021,
    "ological": 5022,
    "\u2581moreover": 5023,
    "\u2581budgets": 5024,
    "\u2581Box": 5025,
    "\u2581legitimacy": 5026,
    "\u2581Cuba": 5027,
    "sion": 5028,
    "\u2581incentives": 5029,
    "\u2581desktop": 5030,
    "\u2581Ru": 5031,
    "\u2581ultimate": 5032,
    "28": 5033,
    "\u2581alarm": 5034,
    "MO": 5035,
    "\u2581ratio": 5036,
    "ham": 5037,
    "\u2581Jean": 5038,
    "\u2581das": 5039,
    "\u2581relationships": 5040,
    "\u2581stores": 5041,
    "\u2581bearing": 5042,
    "water": 5043,
    "\u2581completion": 5044,
    "ida": 5045,
    "\u2581marine": 5046,
    ".\u201d": 5047,
    "\u2581Sol": 5048,
    "\u2581behavior": 5049,
    "\u2581codecision": 5050,
    "Those": 5051,
    "Christian": 5052,
    "\u2581sheet": 5053,
    "ros": 5054,
    "\u25811994": 5055,
    "\u2581translated": 5056,
    "hour": 5057,
    "\u2581debating": 5058,
    "Star": 5059,
    "07": 5060,
    "\u2581800": 5061,
    "including": 5062,
    "ell": 5063,
    "\u2581mere": 5064,
    "\u2581falls": 5065,
    "DS": 5066,
    "\u2581array": 5067,
    "\u2581Main": 5068,
    "cal": 5069,
    "\u2581campaigns": 5070,
    "\u2581accounting": 5071,
    "\u2581favourable": 5072,
    "point": 5073,
    "\u2581Employment": 5074,
    "\u2581collapse": 5075,
    "\u2581theatre": 5076,
    "\u2581portal": 5077,
    "\u2581fascinating": 5078,
    "\u2581Hong": 5079,
    "\u2581Second": 5080,
    "\u2581believes": 5081,
    "\u2581genuinely": 5082,
    "\u2581preferred": 5083,
    "FI": 5084,
    "\u2581repeatedly": 5085,
    "\u2581pop": 5086,
    "gra": 5087,
    "\u2581Games": 5088,
    "\u2581Video": 5089,
    "\u25812010,": 5090,
    "\u2581begun": 5091,
    "\u2581las": 5092,
    "\u2581deserves": 5093,
    "\u2581Cooperation": 5094,
    "\u2581roll": 5095,
    "\u2581fewer": 5096,
    "\u2581coastal": 5097,
    "\u2581foremost": 5098,
    "PC": 5099,
    "\u2581Kyoto": 5100,
    "34": 5101,
    "\u2581ethical": 5102,
    "from": 5103,
    "med": 5104,
    "\u2581David": 5105,
    "\u2581underlying": 5106,
    "\u2581broken": 5107,
    "\u2581enjoying": 5108,
    "well": 5109,
    "RA": 5110,
    "\u2581Program": 5111,
    "\u2581foundations": 5112,
    "\u2581guaranteeing": 5113,
    "ants": 5114,
    "\u2581seemed": 5115,
    "\u2581branch": 5116,
    "\u2581subsequently": 5117,
    "\u2581unnecessary": 5118,
    "\u2581exposed": 5119,
    "\u2581maybe": 5120,
    "\u2581autumn": 5121,
    "sp": 5122,
    "\u2581conversion": 5123,
    "\u2581hence": 5124,
    "\u2581Common": 5125,
    "\u2581allocation": 5126,
    "\u2581Har": 5127,
    "\u2581passion": 5128,
    "\u2581mine": 5129,
    "\u2581Their": 5130,
    "\u2581journalists": 5131,
    "des": 5132,
    "\u2581Wednesday": 5133,
    "\u2581Christ": 5134,
    "\u2581transaction": 5135,
    "\u2581250": 5136,
    "\u2581speeches": 5137,
    "\u2581actors": 5138,
    "TS": 5139,
    "gy": 5140,
    "ches": 5141,
    "\u2581boasts": 5142,
    "\u2581Support": 5143,
    "\u2581dramatic": 5144,
    "\u2581Yet": 5145,
    "\u2581baby": 5146,
    "\u2581mixed": 5147,
    "\u2581pan": 5148,
    "\u2581economically": 5149,
    "\u2581Department": 5150,
    "\u2581refused": 5151,
    "\u2581z": 5152,
    "\u2581boats": 5153,
    "ple": 5154,
    "\u2581Internal": 5155,
    "rt": 5156,
    "\u2581neighbourhood": 5157,
    "33": 5158,
    "mal": 5159,
    "\u2581pour": 5160,
    "\u2581Academy": 5161,
    "\u2581Florence": 5162,
    "\u2581aside": 5163,
    "\u2581frequent": 5164,
    "ette": 5165,
    "\u2581examination": 5166,
    "\u2581secondary": 5167,
    "\u2581wife": 5168,
    "\u2581DE": 5169,
    "\u2581pace": 5170,
    "\u2581Jewish": 5171,
    "\u2581twin": 5172,
    "vers": 5173,
    "\u2581owned": 5174,
    "\u2581Super": 5175,
    "hl": 5176,
    "\u2581busy": 5177,
    "\u2581Auto": 5178,
    "75": 5179,
    "\u2581favourite": 5180,
    "39": 5181,
    "lecommunications": 5182,
    "\u2581tragic": 5183,
    "\u2581sovereign": 5184,
    "\u2581Ministry": 5185,
    "OR": 5186,
    "\u2581vocational": 5187,
    "\u2581Men": 5188,
    "\u2581instantly": 5189,
    "\u2581residential": 5190,
    "\u2581representing": 5191,
    "\u2581willingness": 5192,
    "\u2581mechanical": 5193,
    "\u2581Bosnia": 5194,
    "\u2581openness": 5195,
    "\u2581bill": 5196,
    "\u2581considerations": 5197,
    "\u2581girls": 5198,
    "\u2581expanded": 5199,
    "\u2581productive": 5200,
    "\u2581asset": 5201,
    "\u2581sorry": 5202,
    "\u2581che": 5203,
    "session": 5204,
    "\u2581operated": 5205,
    "\u2581textile": 5206,
    "\u2581checked": 5207,
    "tte": 5208,
    "\u2581removal": 5209,
    "ky": 5210,
    "\u2581Trans": 5211,
    "\u2581folder": 5212,
    "\u2581amending": 5213,
    "\u2581arrange": 5214,
    "ale": 5215,
    "MS": 5216,
    "\u2581logo": 5217,
    "ks": 5218,
    "\u2581Alps": 5219,
    "ious": 5220,
    "terinstitutional": 5221,
    "\u2581jointly": 5222,
    "\u2581expenses": 5223,
    "\u2581prospect": 5224,
    "}})": 5225,
    "AS": 5226,
    "\u2581slopes": 5227,
    "\u2581Za": 5228,
    "ili": 5229,
    "\u2581managers": 5230,
    "\u2581salt": 5231,
    "\u2581Plaza": 5232,
    "\u2581Poker": 5233,
    "\u2581600": 5234,
    "\u2581lively": 5235,
    "\u2581listening": 5236,
    "\u2581inspection": 5237,
    "\u2581references": 5238,
    "\u2581Muslim": 5239,
    "\u2581devoted": 5240,
    "economic": 5241,
    "\u2581optimal": 5242,
    "\u2581apparent": 5243,
    "DA": 5244,
    "\u2581intentions": 5245,
    "\u2581Skype": 5246,
    "new": 5247,
    "\u2581Heads": 5248,
    "\u2581sa": 5249,
    "\u2581measurement": 5250,
    "\u2581r": 5251,
    "\u2581clarity": 5252,
    "\u2581Area": 5253,
    "cc": 5254,
    "\u2581ownership": 5255,
    "box": 5256,
    "\u2581travellers": 5257,
    "\u2581accordingly": 5258,
    "\u2581simultaneously": 5259,
    "\u2581importantly": 5260,
    "\u2581string": 5261,
    "\u2581Where": 5262,
    "\u2581tragedy": 5263,
    "\u2581cap": 5264,
    "act": 5265,
    "\u2581terrible": 5266,
    "\u2581Monte": 5267,
    "IP": 5268,
    "\u2581purchased": 5269,
    "long": 5270,
    "\u2581sky": 5271,
    "\u2581crystal": 5272,
    "\u2581arranged": 5273,
    "\u2581realize": 5274,
    "\u2581complaints": 5275,
    "\u2581featuring": 5276,
    "\u2581fell": 5277,
    "ee": 5278,
    "ntergovernmental": 5279,
    "\u2581Fair": 5280,
    "ris": 5281,
    "\u2581Dis": 5282,
    "\u2581Pan": 5283,
    "\u2581beings": 5284,
    "\u2581USD": 5285,
    "\u2581Holiday": 5286,
    "\u2581Ch": 5287,
    "\u2581hill": 5288,
    "TA": 5289,
    "\u2581accessories": 5290,
    "\u2581spectrum": 5291,
    "\u2581sake": 5292,
    "\u2581bigger": 5293,
    "speed": 5294,
    "\u2581excursions": 5295,
    "\u2581Mark": 5296,
    "\u2581justify": 5297,
    "gel": 5298,
    "\u2581clicking": 5299,
    "\u2581harbour": 5300,
    "\u2581Mu": 5301,
    "\u2581Section": 5302,
    "\u25812000,": 5303,
    "rk": 5304,
    "\u2581revised": 5305,
    "\u2581clock": 5306,
    "05": 5307,
    "cre": 5308,
    "\u2581chat": 5309,
    "\u2581Morocco": 5310,
    "\u2581Budget": 5311,
    "\u2581Moscow": 5312,
    "\u2581fi": 5313,
    "\u2581Left": 5314,
    "\u2581External": 5315,
    "ging": 5316,
    "\u2581th": 5317,
    "ces": 5318,
    "illa": 5319,
    "\u2581Jan": 5320,
    "\u2581vary": 5321,
    "\u2581expressly": 5322,
    "\u2581whatsoever": 5323,
    "\u2581ill": 5324,
    "\u2581continuously": 5325,
    "CH": 5326,
    "\u2581Read": 5327,
    "Through": 5328,
    "uring": 5329,
    "\u2581certified": 5330,
    "\u2581forth": 5331,
    "\u2581favorite": 5332,
    "\u2581composed": 5333,
    "\u2581Salzburg": 5334,
    "\u2581SA": 5335,
    "\u2581fifth": 5336,
    "\u2581Show": 5337,
    "\u2581affecting": 5338,
    "\u2581catalogue": 5339,
    "\u2581grand": 5340,
    "\u2581refuse": 5341,
    "amp": 5342,
    "\u2581false": 5343,
    "\u2581suggests": 5344,
    "\u2581afraid": 5345,
    "\u2581sunny": 5346,
    "\u2581deadline": 5347,
    "\u2581publish": 5348,
    "ert": 5349,
    "\u25811970": 5350,
    "\u2581react": 5351,
    "\u2581promoted": 5352,
    "\u2581archive": 5353,
    "\u2581transit": 5354,
    "ue": 5355,
    "\u2581motorway": 5356,
    "cent": 5357,
    "\u2581manufactured": 5358,
    "IS": 5359,
    "fo": 5360,
    "\u2581Part": 5361,
    "\u2581eurozone": 5362,
    "\u2581cheese": 5363,
    "\u2581Chairman": 5364,
    "vent": 5365,
    "\u2581Place": 5366,
    "rie": 5367,
    "\u2581OS": 5368,
    "\u2581unity": 5369,
    "ius": 5370,
    "\u2581convenience": 5371,
    "\u2581diving": 5372,
    "\u2581arrangement": 5373,
    ";\"": 5374,
    "\u2581declare": 5375,
    "\u2581modify": 5376,
    "\u2581staying": 5377,
    "\u2581regulate": 5378,
    "\u2581electoral": 5379,
    "\u2581driven": 5380,
    "\u2581observation": 5381,
    "\u2581Space": 5382,
    "\u2581examined": 5383,
    "\u2581transformation": 5384,
    "\u2581forgotten": 5385,
    "\u2581Product": 5386,
    "\u25815-": 5387,
    "200": 5388,
    "\u2581authentic": 5389,
    "\u2581withdrawal": 5390,
    "\u2581depth": 5391,
    "\u2581Greens": 5392,
    "\u2581earn": 5393,
    "\u25811991": 5394,
    "\u2581Ke": 5395,
    "\u2581letters": 5396,
    "\u2581MySQL": 5397,
    "\u2581orientation": 5398,
    "\u2581Ci": 5399,
    "everal": 5400,
    "\u2581greenhouse": 5401,
    "\u2581sizes": 5402,
    "Al": 5403,
    "\u2581destinations": 5404,
    "\u2581honest": 5405,
    "\u2581Gaza": 5406,
    "\u2581Ce": 5407,
    "\u2581basically": 5408,
    "Where": 5409,
    "\u2581breach": 5410,
    "\u2581dem": 5411,
    "\u25812004,": 5412,
    "\u2581Player": 5413,
    "\u2581Blue": 5414,
    "AM": 5415,
    "\u2581transitional": 5416,
    "\u2581pharmaceutical": 5417,
    "\u2581violent": 5418,
    "\u2581delete": 5419,
    "\u2581falling": 5420,
    "\u2581cm": 5421,
    "\u2581granting": 5422,
    "ney": 5423,
    "\u2581painting": 5424,
    "\u2581120": 5425,
    "pp": 5426,
    "ido": 5427,
    "\u2581replacement": 5428,
    "\u2581ro": 5429,
    "\u2581bi": 5430,
    "\u2581tower": 5431,
    "\u2581ring": 5432,
    "\u2581frequency": 5433,
    "\u2581integrity": 5434,
    "\u2581riding": 5435,
    "\u2581certificate": 5436,
    "\u2581split": 5437,
    "\u2581deserve": 5438,
    "\u2581losing": 5439,
    "\u2581stopped": 5440,
    "being": 5441,
    "haus": 5442,
    "\u2581interaction": 5443,
    "\u2581broader": 5444,
    "\u2581focuses": 5445,
    "\u2581nobody": 5446,
    "\u2581Finnish": 5447,
    "\u2581\u00e9": 5448,
    "\u2581undertake": 5449,
    "\u2581duration": 5450,
    "\u2581beef": 5451,
    "\u2581enjoys": 5452,
    "\u2581puts": 5453,
    "\u2581beer": 5454,
    "\u2581Prize": 5455,
    "card": 5456,
    "\u2581Website": 5457,
    "\u2581specially": 5458,
    "\u2581opens": 5459,
    "\u2581pattern": 5460,
    "IA": 5461,
    "\u2581sur": 5462,
    "\u2581knew": 5463,
    "\u2581tab": 5464,
    "\u2581accommodate": 5465,
    "\u2581faces": 5466,
    "\u2581tram": 5467,
    "\u2581interactive": 5468,
    "\u2581renewed": 5469,
    "\u2581quantity": 5470,
    "\u2581seconds": 5471,
    "PS": 5472,
    "work": 5473,
    "\u2581formula": 5474,
    "\u2581smart": 5475,
    "\u2581contractual": 5476,
    "RE": 5477,
    "\u2581evaluate": 5478,
    "\u25811989": 5479,
    "\u2581Palestinians": 5480,
    "az": 5481,
    "\u2581residents": 5482,
    "\u2581accuracy": 5483,
    "\u2581Flash": 5484,
    "vin": 5485,
    "\u2581stressed": 5486,
    "lle": 5487,
    "\u2581schedule": 5488,
    "En": 5489,
    "bus": 5490,
    "lich": 5491,
    "\u2581ceiling": 5492,
    "\u2581acquire": 5493,
    "\u2581inner": 5494,
    "\u2581healthcare": 5495,
    "oc": 5496,
    "\u25812.0": 5497,
    "\u2581territories": 5498,
    "\u2581GNU": 5499,
    "\u2581Iraqi": 5500,
    "\u2581retail": 5501,
    "ai": 5502,
    "02": 5503,
    "\u2581sailing": 5504,
    "\u2581senior": 5505,
    "\u2581flash": 5506,
    "SA": 5507,
    "\u2581belongs": 5508,
    "\u2581booked": 5509,
    "\u2581soldiers": 5510,
    "bu": 5511,
    "\u2581buses": 5512,
    "\u2581Sie": 5513,
    "\u2581Does": 5514,
    "\u2581gross": 5515,
    "Very": 5516,
    "\u2581Single": 5517,
    "\u2581authors": 5518,
    "\u2581pools": 5519,
    "\u2581(2": 5520,
    "ag": 5521,
    "tan": 5522,
    "\u2581moments": 5523,
    "\u2581buying": 5524,
    "\u2581ideally": 5525,
    "len": 5526,
    "screen": 5527,
    "\u2581logical": 5528,
    "\u2581hesitate": 5529,
    "\u2581newspaper": 5530,
    "\u2581mouth": 5531,
    "36": 5532,
    "\u2581loans": 5533,
    "\u2581relief": 5534,
    "\u2581explicitly": 5535,
    "\u2581beneficial": 5536,
    "Any": 5537,
    "\u2581regulated": 5538,
    "\u2581identification": 5539,
    "\u2581delays": 5540,
    "ala": 5541,
    "\u2581Ku": 5542,
    "\u2581Partnership": 5543,
    "\u2581intervene": 5544,
    "\u2581whenever": 5545,
    "\u2581pot": 5546,
    "\u2581architectural": 5547,
    "ane": 5548,
    "\u2581restrict": 5549,
    "\u2581variable": 5550,
    "\u2581Suite": 5551,
    "\u2581Syria": 5552,
    "\u2581researchers": 5553,
    "\u2581arrest": 5554,
    "\u2581silence": 5555,
    "\u2581recession": 5556,
    "\u2581poker": 5557,
    "\u2581Los": 5558,
    "\u2581monuments": 5559,
    "\u2581negotiate": 5560,
    "\u2581Sal": 5561,
    "\u2581postal": 5562,
    "\u2581necessity": 5563,
    "\u2581prestigious": 5564,
    "Among": 5565,
    "\u2581surveillance": 5566,
    "tis": 5567,
    "\u2581hopes": 5568,
    "\u2581capture": 5569,
    "\u2581freight": 5570,
    "\u2581therapy": 5571,
    "\u2581suited": 5572,
    "\u2581spare": 5573,
    "\u2581brain": 5574,
    "\u2581civilian": 5575,
    "\u2581cancelled": 5576,
    "\u2581constructed": 5577,
    "\u2581judge": 5578,
    "Smoking": 5579,
    "\u2581automotive": 5580,
    "\u2581airline": 5581,
    "\u2581adjustment": 5582,
    "\u2581ignore": 5583,
    "Note": 5584,
    "\u2581evident": 5585,
    "\u2581doubts": 5586,
    "\u2581mental": 5587,
    "\u2581achievements": 5588,
    "\u2581tough": 5589,
    "\u2581pensions": 5590,
    "bel": 5591,
    "\u2581pressing": 5592,
    "\u2581dimensions": 5593,
    "ms": 5594,
    "\u2581Have": 5595,
    "\u2581opt": 5596,
    "\u2581complement": 5597,
    "\u2581male": 5598,
    "\u2581machinery": 5599,
    "\u2581transfers": 5600,
    "\u2581bay": 5601,
    "ast": 5602,
    "\u2581segment": 5603,
    "\u2581revealed": 5604,
    "via": 5605,
    "\u2581Gran": 5606,
    "\u2581paths": 5607,
    "\u2581Storage": 5608,
    "\u2581publishing": 5609,
    "\u2581ends": 5610,
    "\u2581Bad": 5611,
    "TE": 5612,
    "\u2581Airbus": 5613,
    "\u2581Opera": 5614,
    "\u2581affordable": 5615,
    "\u2581Marina": 5616,
    "\u2581precious": 5617,
    "\u2581prevented": 5618,
    "burg": 5619,
    "\u2581Gra": 5620,
    "\u2581op": 5621,
    "\u2581officially": 5622,
    "ned": 5623,
    "\u2581mirror": 5624,
    "\u2581employers": 5625,
    "\u2581pe": 5626,
    "OS": 5627,
    "mes": 5628,
    "\u20ac": 5629,
    "\u2581focusing": 5630,
    "\u2581suspended": 5631,
    "99": 5632,
    "\u2581rain": 5633,
    "\u2581Liberal": 5634,
    "ste": 5635,
    "\u2581flag": 5636,
    "\u2581installations": 5637,
    "\u2581preparations": 5638,
    "\u2581uncertainty": 5639,
    "\u2581noon": 5640,
    "\u2581novel": 5641,
    "\u2581exploit": 5642,
    "\u2581Yugoslavia": 5643,
    "tain": 5644,
    "\u2581adjust": 5645,
    "\u2581chose": 5646,
    "od": 5647,
    "\u2581conservation": 5648,
    "\u2581Empire": 5649,
    "\u2581Gentoo": 5650,
    "Two": 5651,
    "\u2581negotiated": 5652,
    "\u2581exhibitions": 5653,
    "SV": 5654,
    "\u2581Si": 5655,
    "ph": 5656,
    "\u2581Live": 5657,
    "55": 5658,
    "\u2581zero": 5659,
    "\u2581unusual": 5660,
    "\u2581worrying": 5661,
    "\u2581tape": 5662,
    "lit": 5663,
    "\u2581compare": 5664,
    "\u2581preserved": 5665,
    "\u2581Communist": 5666,
    "\u2581presidential": 5667,
    "\u2581st": 5668,
    "\u2581Hostel": 5669,
    "\u2581indicators": 5670,
    "\u2581ob": 5671,
    "\u2581laser": 5672,
    "\u2581ratified": 5673,
    "\u2581coal": 5674,
    "\u2581Iranian": 5675,
    "\u2581Download": 5676,
    "\u2581fly": 5677,
    "cia": 5678,
    "\u2581Pen": 5679,
    "\u2581differ": 5680,
    "\u2581taxpayers": 5681,
    "\u2581Maastricht": 5682,
    "\u2581threatened": 5683,
    "ng": 5684,
    "\u2581Olympic": 5685,
    "\u2581premium": 5686,
    "\u2581Budapest": 5687,
    "ere": 5688,
    "\u2581debated": 5689,
    "\u2581Ve": 5690,
    "\u2581magic": 5691,
    "\u2581Society": 5692,
    "\u2581organize": 5693,
    "cy": 5694,
    "\u2581Quality": 5695,
    "\u2581fat": 5696,
    "\u2581strive": 5697,
    "\u2581relaxed": 5698,
    "\u2581parks": 5699,
    "\u2581doctor": 5700,
    "\u2581Because": 5701,
    "\u2581Las": 5702,
    "av": 5703,
    "\u2581certainty": 5704,
    "els": 5705,
    "LT": 5706,
    "CE": 5707,
    "\u2581charter": 5708,
    "\u2581Growth": 5709,
    "\u2581Standard": 5710,
    "\u2581sandy": 5711,
    "\u2581throw": 5712,
    "\u2581cookies": 5713,
    "\u2581rear": 5714,
    "nie": 5715,
    "TV": 5716,
    "\u2581ocean": 5717,
    "\u2581trained": 5718,
    "\u2581acquisition": 5719,
    "\u2581Hostelsclub": 5720,
    "\u2581supplementary": 5721,
    "\u2581Washington": 5722,
    "ei": 5723,
    "\u2581citizenship": 5724,
    "born": 5725,
    "\u2581alternatives": 5726,
    "\u2581literature": 5727,
    "\u2581Milan": 5728,
    "zer": 5729,
    "\u2581exposure": 5730,
    "\u2581concerts": 5731,
    "\u2581Find": 5732,
    "\u2581cu": 5733,
    "\u2581Over": 5734,
    "\u2581tu": 5735,
    "top": 5736,
    "\u25811000": 5737,
    "Can": 5738,
    "bin": 5739,
    "\u2581attended": 5740,
    "\u2581insufficient": 5741,
    "\u2581grave": 5742,
    "\u2581photographs": 5743,
    "\u2581Deposit": 5744,
    "\u2581convert": 5745,
    "service": 5746,
    "\u2581convince": 5747,
    "ct": 5748,
    "\u2581argue": 5749,
    "\u2581brands": 5750,
    "nal": 5751,
    "Hour": 5752,
    "serv": 5753,
    "\u2581judgment": 5754,
    "\u2581Les": 5755,
    "\u2581cameras": 5756,
    "\u2581roots": 5757,
    "\u258136": 5758,
    "\u2581comprises": 5759,
    "\u2581Would": 5760,
    "\u2581unknown": 5761,
    "Apart": 5762,
    "\u2581announce": 5763,
    "\u2581hospital": 5764,
    "\u2581winner": 5765,
    "\u2581purchasing": 5766,
    "\u00e1n": 5767,
    "\u2581logistics": 5768,
    "ped": 5769,
    "LE": 5770,
    "\u2581thanking": 5771,
    "\u2581ultra": 5772,
    "66": 5773,
    "ans": 5774,
    "$": 5775,
    "\u2581notion": 5776,
    "\u2581Putin": 5777,
    "\u2581wage": 5778,
    "\u2581Investment": 5779,
    "\u2581stance": 5780,
    "\u2581coordinate": 5781,
    "Both": 5782,
    "\u2581Bio": 5783,
    "\u2581Studio": 5784,
    "\u25812003,": 5785,
    "ID": 5786,
    "\u2581wheel": 5787,
    "\u2581silver": 5788,
    "book": 5789,
    "\u2581applicant": 5790,
    "\u2581bureaucracy": 5791,
    "\u25811992": 5792,
    "\u2581emerged": 5793,
    "part": 5794,
    "\u2581strange": 5795,
    "\u2581ranging": 5796,
    "\u2581signing": 5797,
    "\u2581imported": 5798,
    "\u2581Order": 5799,
    "\u2581Zurich": 5800,
    "\u2581claimed": 5801,
    "\u2581blame": 5802,
    "\u2581belonging": 5803,
    "\u2581venture": 5804,
    "\u2581consistently": 5805,
    "\u2581heavily": 5806,
    "IL": 5807,
    "ming": 5808,
    "\u2581Light": 5809,
    "\u2581Bu": 5810,
    "\u2581consult": 5811,
    "\u2581creature": 5812,
    "\u2581privileged": 5813,
    "\u2581feedback": 5814,
    "\u2581Bureau": 5815,
    "\u2581Road": 5816,
    "\u2581contributing": 5817,
    "\u2581mandatory": 5818,
    "\u2581dual": 5819,
    "ral": 5820,
    "\u2581signals": 5821,
    "\u2581Joint": 5822,
    "-2": 5823,
    "\u2581placing": 5824,
    "Un": 5825,
    "\u258130%": 5826,
    "\u2581mistakes": 5827,
    "\u2581Cologne": 5828,
    "\u2581BSE": 5829,
    "\u2581tonnes": 5830,
    "\u00fcr": 5831,
    "\u2581farms": 5832,
    "\u2581victim": 5833,
    "ever": 5834,
    "\u2581stayed": 5835,
    "\u2581Access": 5836,
    "\u2581unanimously": 5837,
    "\u2581notified": 5838,
    "49": 5839,
    "\u2581moderate": 5840,
    "\u2581Europol": 5841,
    "\u2581typically": 5842,
    "\u2581Apartments": 5843,
    "\u2581fails": 5844,
    "\u2581respects": 5845,
    "\u2581genetic": 5846,
    "\u2581generous": 5847,
    "\u2581systematic": 5848,
    "\u2581biological": 5849,
    "\u2581notably": 5850,
    "operation": 5851,
    "\u2581turns": 5852,
    "\u2581essence": 5853,
    "mat": 5854,
    "\u2581specify": 5855,
    "\u2581clothing": 5856,
    "\u2581Va": 5857,
    "\u2581churches": 5858,
    "\u2581publications": 5859,
    "\u2581demonstrates": 5860,
    "\u2581credible": 5861,
    "\u2581pursuan": 5862,
    "\u2581closing": 5863,
    "\u2581keen": 5864,
    "\u2581rational": 5865,
    "\u2581deficits": 5866,
    "\u2581Photo": 5867,
    "ick": 5868,
    "\u2581Charles": 5869,
    "\u2581wherever": 5870,
    "\u2581Kar": 5871,
    "\u2581(1": 5872,
    "\u2581Tra": 5873,
    "\u2581Southern": 5874,
    "\u2581apparently": 5875,
    "har": 5876,
    "\u2581elderly": 5877,
    "specific": 5878,
    "\u2581experiencing": 5879,
    "\u2581Rural": 5880,
    "ern": 5881,
    "44": 5882,
    "\u2581qualifications": 5883,
    "\u2581patterns": 5884,
    "\u2581precision": 5885,
    "\u2581broadcast": 5886,
    "\u2581indicates": 5887,
    "\u2581procurement": 5888,
    "\u2581trains": 5889,
    "\u2581Press": 5890,
    "\u2581ri": 5891,
    ".1": 5892,
    "\u2581alike": 5893,
    "field": 5894,
    "\u2581sentence": 5895,
    "\u2581measuring": 5896,
    "\u2581financed": 5897,
    "win": 5898,
    "\u2581imposing": 5899,
    "\u2581Head": 5900,
    "\u2581contest": 5901,
    "\u2581chief": 5902,
    "eth": 5903,
    "\u2581hide": 5904,
    "\u2581occurs": 5905,
    "\u2581formation": 5906,
    "\u2581pen": 5907,
    "\u2581Taiwan": 5908,
    "\u2581conventions": 5909,
    "\u2581intelligence": 5910,
    "\u2581leather": 5911,
    "elle": 5912,
    "\u2581flying": 5913,
    "\u2581proximity": 5914,
    "\u2581downloaded": 5915,
    "\u2581fate": 5916,
    "\u2581icon": 5917,
    "\u2581assurance": 5918,
    "\u2581populations": 5919,
    "Should": 5920,
    "\u2581sofa": 5921,
    "\u2581patents": 5922,
    "\u2581opera": 5923,
    "\u2581chemicals": 5924,
    "ual": 5925,
    "\u2581initiated": 5926,
    "lig": 5927,
    "var": 5928,
    "\u2581sensor": 5929,
    "\u2581Conditions": 5930,
    "\u2581edit": 5931,
    "Enjoy": 5932,
    "\u2581statistical": 5933,
    "\u2581discipline": 5934,
    "ona": 5935,
    "\u2581slowly": 5936,
    "41": 5937,
    "AC": 5938,
    "\u2581humanity": 5939,
    "\u2581visitor": 5940,
    "\u2581drinking": 5941,
    "\u2581intense": 5942,
    "\u2581copies": 5943,
    "\u2581Children": 5944,
    "\u2581adaptation": 5945,
    "\u2581integral": 5946,
    "heim": 5947,
    "\u2581toilet": 5948,
    "\u2581releases": 5949,
    "\u2581potentially": 5950,
    "ball": 5951,
    "German": 5952,
    "post": 5953,
    "\u2581competences": 5954,
    "\u2581robust": 5955,
    "\u2581caught": 5956,
    "af": 5957,
    "2)": 5958,
    "\u2581creativity": 5959,
    "\u2581pi": 5960,
    "\u2581confident": 5961,
    "\u2581Burma": 5962,
    "\u2581pursued": 5963,
    "\u2581biodiversity": 5964,
    "\u2581receipt": 5965,
    "\u2581Socialists": 5966,
    "\u2581Far": 5967,
    "\u2581quest": 5968,
    "\u2581converted": 5969,
    "gue": 5970,
    "eva": 5971,
    "\u2581lock": 5972,
    "tern": 5973,
    "86": 5974,
    "\u2581Lithuania": 5975,
    "\u2581premises": 5976,
    "PA": 5977,
    "ula": 5978,
    "\u2581Make": 5979,
    "\u2581unemployed": 5980,
    "\u2581column": 5981,
    "\u2581dog": 5982,
    "\u2581James": 5983,
    "\u2581murder": 5984,
    "\u2581rose": 5985,
    "bre": 5986,
    "\u2581smoking": 5987,
    "\u2581Perhaps": 5988,
    "\u2581arbitrary": 5989,
    "\u2581headquarters": 5990,
    "ties": 5991,
    "\u2581deaths": 5992,
    "Ha": 5993,
    "\u2581Mal": 5994,
    "\u2581drives": 5995,
    "\u2581suggestion": 5996,
    "08": 5997,
    "\u2581cooking": 5998,
    "\u2581progressive": 5999,
    "\u2581answered": 6000,
    "\u2581movies": 6001,
    "\u2581warmly": 6002,
    "\u2581ambition": 6003,
    "\u2581Sam": 6004,
    "\u2581Youth": 6005,
    "\u2581College": 6006,
    "\u2581horizontal": 6007,
    "\u2581Edition": 6008,
    "\u2581eco": 6009,
    "38": 6010,
    "sid": 6011,
    "\u2581rating": 6012,
    "park": 6013,
    "\u2581Cap": 6014,
    "\u2581paradise": 6015,
    "ys": 6016,
    "Ra": 6017,
    "\u2581interview": 6018,
    "\u25812.": 6019,
    "\u2581innovations": 6020,
    "\u2581Description": 6021,
    "\u2581demographic": 6022,
    "\u2581garage": 6023,
    "\u2581Malta": 6024,
    "\u2581thin": 6025,
    "pm": 6026,
    "\u2581amend": 6027,
    "\u2581failing": 6028,
    "\u2581Fi": 6029,
    "\u2581treaties": 6030,
    "\u2581visits": 6031,
    "\u2581Democratic": 6032,
    "\u2581Sp": 6033,
    "\u2581arm": 6034,
    "03": 6035,
    "\u2581Pacific": 6036,
    "\u2581disputes": 6037,
    "sy": 6038,
    "\u2581centers": 6039,
    "\u2581arts": 6040,
    "bb": 6041,
    "\u2581wake": 6042,
    "\u2581divide": 6043,
    "\u2581Mor": 6044,
    "\u2581bread": 6045,
    "ture": 6046,
    "\u2581row": 6047,
    "ante": 6048,
    "\u2581respectively": 6049,
    "non": 6050,
    "\u2581handled": 6051,
    "\u2581notification": 6052,
    "37": 6053,
    "\u2581spiritual": 6054,
    "nia": 6055,
    "aw": 6056,
    "kt": 6057,
    "\u2581cinema": 6058,
    "\u2581Bra": 6059,
    "\u2581\"1": 6060,
    "\u2581undermine": 6061,
    "\u2581Islam": 6062,
    "\u2581posts": 6063,
    "\u2581threshold": 6064,
    "\u2581specialities": 6065,
    "\u2581fix": 6066,
    "\u2581partial": 6067,
    "Based": 6068,
    "\u2581occupied": 6069,
    "Why": 6070,
    "El": 6071,
    "\u2581Slovenia": 6072,
    "\u2581stops": 6073,
    "\u2581kill": 6074,
    "\u2581Client": 6075,
    "\u2581viable": 6076,
    "\u201d.": 6077,
    "\u2581Subject": 6078,
    "\u2581displays": 6079,
    "\u2581Che": 6080,
    "ient": 6081,
    "\u2581virus": 6082,
    "\u2581gear": 6083,
    "\u2581crossing": 6084,
    "\u258175": 6085,
    "\u2581authorisation": 6086,
    "\u2581Thomas": 6087,
    "uff": 6088,
    "\u2581phones": 6089,
    "\u2581practically": 6090,
    "Similarly": 6091,
    "\u2581decent": 6092,
    "\u2581Pra": 6093,
    "\u2581Play": 6094,
    "\u2581shot": 6095,
    "\u2581designer": 6096,
    "\u2581specifications": 6097,
    "\u2581lowest": 6098,
    "ras": 6099,
    "\u2581defining": 6100,
    "\u2581Pu": 6101,
    "\u2581tribute": 6102,
    "\u2581Film": 6103,
    "\u2581licence": 6104,
    "\u2581fitted": 6105,
    "\u2581angle": 6106,
    "dia": 6107,
    "\u2581worry": 6108,
    "\u2581Gi": 6109,
    "\u2581workshop": 6110,
    "ello": 6111,
    "\u2581delicate": 6112,
    "\u2581reiterate": 6113,
    "MP": 6114,
    "\u2581voters": 6115,
    "\u2581editor": 6116,
    "GA": 6117,
    "\u2581Personal": 6118,
    "\u258133": 6119,
    "\u2581wording": 6120,
    "\u2581assured": 6121,
    "\u2581terminal": 6122,
    "\u2581expanding": 6123,
    "br": 6124,
    "\u2581workshops": 6125,
    "\u2581desirable": 6126,
    "don": 6127,
    "vel": 6128,
    "\u2581coverage": 6129,
    "su": 6130,
    "ians": 6131,
    "nu": 6132,
    "\u2581tropical": 6133,
    "\u2581Defence": 6134,
    "\u2581torture": 6135,
    "\u2581li": 6136,
    "\u2581enlarged": 6137,
    "\u2581tolerance": 6138,
    "\u2581Sport": 6139,
    "\u2581lighting": 6140,
    "\u2581solved": 6141,
    "\u2581sessions": 6142,
    "\u2581dating": 6143,
    "\u2581timely": 6144,
    "\u2581controversial": 6145,
    "\u2581Change": 6146,
    "\u2581piano": 6147,
    "\u2581survive": 6148,
    "\u2581Bed": 6149,
    "\u2581terrorists": 6150,
    "\u2581heated": 6151,
    "\u2581Select": 6152,
    "\u2581graphic": 6153,
    "67": 6154,
    "Restaurant": 6155,
    "SP": 6156,
    "ef": 6157,
    "\u2581lovers": 6158,
    "\u2581liquid": 6159,
    "\u2581Game": 6160,
    "\u2581audit": 6161,
    "hn": 6162,
    "\u2581Scotland": 6163,
    "lon": 6164,
    "\u2581crops": 6165,
    "SC": 6166,
    "\u2581Digital": 6167,
    "\u2581stroll": 6168,
    "\u2581zones": 6169,
    "43": 6170,
    "\u2581findings": 6171,
    "\u2581stimulate": 6172,
    "\u2581Tuesday": 6173,
    "\u2581consequently": 6174,
    "\u2581artificial": 6175,
    "\u2581Cathedral": 6176,
    "\u2581eine": 6177,
    "\u2581comparable": 6178,
    "\u2581plain": 6179,
    "\u2581meantime": 6180,
    "\u2581Series": 6181,
    "\u2581sharp": 6182,
    "eo": 6183,
    "\u2581harmony": 6184,
    "\u2581End": 6185,
    "\u2581fault": 6186,
    "\u2581moves": 6187,
    "\u2581Process": 6188,
    "\u2581Stockholm": 6189,
    "\u2581substantially": 6190,
    "\u2581avoided": 6191,
    "\u2581perspectives": 6192,
    "\u2581Sony": 6193,
    "sky": 6194,
    "\u2581Contact": 6195,
    "\u2581peak": 6196,
    "\u2581nonetheless": 6197,
    "\u2581funded": 6198,
    "\u2581tri": 6199,
    "47": 6200,
    "\u2581talked": 6201,
    "\u2581emphasised": 6202,
    "ug": 6203,
    "\u2581describes": 6204,
    "\u2581settled": 6205,
    "\u2581Before": 6206,
    "ses": 6207,
    "\u2581choosing": 6208,
    "ition": 6209,
    "\u2581Cal": 6210,
    "\u2581preliminary": 6211,
    "\u2581Full": 6212,
    "\u2581FOR": 6213,
    "\u2581dollars": 6214,
    "\u2581paint": 6215,
    "\u2581em": 6216,
    "\u2581thoroughly": 6217,
    "Their": 6218,
    "dic": 6219,
    "\u2581ta": 6220,
    "\u2581Master": 6221,
    "\u2581signature": 6222,
    "ati": 6223,
    "\u2581plot": 6224,
    "\u2581Spring": 6225,
    "cul": 6226,
    "\u2581Bel": 6227,
    "\u2581recover": 6228,
    "\u2581temperatures": 6229,
    "RI": 6230,
    "\u2581breathtaking": 6231,
    "\u2581Mag": 6232,
    "\u2581degrees": 6233,
    "\u2581entries": 6234,
    "\u2581confusion": 6235,
    "\u2581za": 6236,
    "rat": 6237,
    "\u2581scenery": 6238,
    "Out": 6239,
    "\u2581undertakings": 6240,
    "\u2581lets": 6241,
    "\u2581Adobe": 6242,
    "\u2581worthy": 6243,
    "65": 6244,
    "ory": 6245,
    "\u2581controlling": 6246,
    "\u2581appreciated": 6247,
    "\u2581teacher": 6248,
    "marquis": 6249,
    "cker": 6250,
    "\u2581Bus": 6251,
    "lt": 6252,
    "\u2581celebrate": 6253,
    "\u2581Argentina": 6254,
    "\u2581Elevator": 6255,
    "lay": 6256,
    "CO": 6257,
    "Perhaps": 6258,
    "300": 6259,
    "\u2581disappointed": 6260,
    "\u2581evil": 6261,
    "\u2581expressing": 6262,
    "UN": 6263,
    "\u2581rejection": 6264,
    "\u2581Lebanon": 6265,
    "oli": 6266,
    "tta": 6267,
    "\u2581).": 6268,
    "\u2581drafting": 6269,
    "\u2581Neu": 6270,
    "\u2581emission": 6271,
    "uri": 6272,
    "\u2581lifestyle": 6273,
    "\u2581Science": 6274,
    "\u2581photography": 6275,
    "\u2581BE": 6276,
    "\u2581emerge": 6277,
    "\u2581encounter": 6278,
    "\u2581detect": 6279,
    "such": 6280,
    "\u2581Organization": 6281,
    "\u2581performing": 6282,
    "\u25812012": 6283,
    "\u2581bureaucratic": 6284,
    "\u2581viewed": 6285,
    "\u2581Ski": 6286,
    "\u2581executed": 6287,
    "\u2581returns": 6288,
    "\u2581supplement": 6289,
    "hen": 6290,
    "vert": 6291,
    "\u2581Top": 6292,
    "\u2581Sta": 6293,
    "\u2581Parliamentary": 6294,
    "\u2581linguistic": 6295,
    "\u2581keys": 6296,
    "\u2581unions": 6297,
    "\u2581Ban": 6298,
    "\u2581Mini": 6299,
    "\u2581investigate": 6300,
    "view": 6301,
    "\u2581pact": 6302,
    "mit": 6303,
    "\u2581finest": 6304,
    "\u2581explains": 6305,
    "\u2581incentive": 6306,
    "\u2581sad": 6307,
    "\u2581lesson": 6308,
    "\u2581auction": 6309,
    "\u2581incredible": 6310,
    "\u2581platforms": 6311,
    "98": 6312,
    "\u2581Staff": 6313,
    "48": 6314,
    "\u2581downtown": 6315,
    "ore": 6316,
    "\u2581prohibited": 6317,
    "\u2581Guide": 6318,
    "\u2581exceed": 6319,
    "key": 6320,
    "\u2581socio": 6321,
    "ira": 6322,
    "\u2581acknowledged": 6323,
    "roll": 6324,
    "mel": 6325,
    "\u2581sporting": 6326,
    "\u2581marriage": 6327,
    "\u2581fought": 6328,
    "\u25812010.": 6329,
    "\u2581isolated": 6330,
    "\u2581Cu": 6331,
    "head": 6332,
    "life": 6333,
    "Sa": 6334,
    "\u2581optical": 6335,
    "ora": 6336,
    "\u2581hat": 6337,
    "\u2581ignored": 6338,
    "\u2581tips": 6339,
    "\u2581posted": 6340,
    "\u2581wages": 6341,
    "\u2581indirect": 6342,
    "uch": 6343,
    "\u2581regrettable": 6344,
    "\u2581clarification": 6345,
    "\u2581EN": 6346,
    "\u2581automation": 6347,
    "\u2581Gulf": 6348,
    "\u2581Rio": 6349,
    "\u2581fulfilled": 6350,
    "\u2581characterized": 6351,
    "its": 6352,
    "\u2581League": 6353,
    "St": 6354,
    "EEC": 6355,
    "\u2581Mel": 6356,
    "\u2581Dan": 6357,
    "\u2581Canon": 6358,
    "\u2581Tower": 6359,
    "\u2581shortcomings": 6360,
    "\u2581comp": 6361,
    "\u2581damaged": 6362,
    "\u2581giant": 6363,
    "pping": 6364,
    "hof": 6365,
    "\u2581lakes": 6366,
    "\u2581ju": 6367,
    "\u2581Luggage": 6368,
    "\u2581!\"": 6369,
    "Mar": 6370,
    "sten": 6371,
    "\u25811960": 6372,
    "\u2581parameter": 6373,
    "stein": 6374,
    "\u2581fallen": 6375,
    "wood": 6376,
    "\u2581birds": 6377,
    "\u2581Multi": 6378,
    "\u2581reverse": 6379,
    "\u2581joy": 6380,
    "\u2581declarations": 6381,
    "\u2581simplification": 6382,
    "\u2581Reform": 6383,
    "\u2581pm": 6384,
    "\u2581prompt": 6385,
    "\u2581condemned": 6386,
    "\u2581incorporate": 6387,
    "\u2581Mer": 6388,
    "but": 6389,
    "\u25812009.": 6390,
    "\u2581chocolate": 6391,
    "\u2581fifteen": 6392,
    "\u2581evolution": 6393,
    "rich": 6394,
    "\u2581Casa": 6395,
    "\u258137": 6396,
    "\u2581Mont": 6397,
    "\u2581invitation": 6398,
    "aries": 6399,
    "ibility": 6400,
    "AR": 6401,
    "\u2581agent": 6402,
    "\u2581outset": 6403,
    "\u2581engineers": 6404,
    "\u2581publicly": 6405,
    "ters": 6406,
    "\u2581battery": 6407,
    "\u2581challenging": 6408,
    "\u2581measured": 6409,
    "\u2581defeat": 6410,
    "ill": 6411,
    "68": 6412,
    "\u2581statute": 6413,
    "\u2581pull": 6414,
    "\u2581Au": 6415,
    "\u2581imp": 6416,
    "\u2581PRO": 6417,
    "\u2581Win": 6418,
    "ique": 6419,
    "51": 6420,
    "\u2581BMW": 6421,
    "\u2581Ki": 6422,
    "\u2581partnerships": 6423,
    "\u2581Fer": 6424,
    "\u2581decrease": 6425,
    "\u2581paintings": 6426,
    "\u2581sail": 6427,
    "\u2581Sha": 6428,
    "\u2581Mobile": 6429,
    "-19": 6430,
    "\u2581monitored": 6431,
    "\u2581conjunction": 6432,
    "\u2581foster": 6433,
    "\u2581inquiry": 6434,
    "\u2581equity": 6435,
    "nik": 6436,
    "\u2581complexity": 6437,
    "\u25811.5": 6438,
    "ob": 6439,
    "test": 6440,
    "link": 6441,
    "\u2581fabric": 6442,
    "IC": 6443,
    "\u2581Adriatic": 6444,
    "\u2581neo": 6445,
    "\u2581warming": 6446,
    "Nonetheless": 6447,
    "\u2581pedestrian": 6448,
    "\u2581inspiration": 6449,
    "\u2581qui": 6450,
    "BA": 6451,
    "\u2581disagree": 6452,
    "\u2581Last": 6453,
    "party": 6454,
    "\u2581officer": 6455,
    "\u2581hoped": 6456,
    "\u2581brother": 6457,
    "\u2581raises": 6458,
    "\u2581governed": 6459,
    "\u2581autonomy": 6460,
    "\u2581papers": 6461,
    "\u2581MS": 6462,
    "\u2581guidance": 6463,
    "\u2581Heating": 6464,
    "\u2581ra": 6465,
    "\u2581closure": 6466,
    "ets": 6467,
    "\u2581circuit": 6468,
    "\u2581Gar": 6469,
    "\u2581Macedonia": 6470,
    "\u2581Labour": 6471,
    "iti": 6472,
    "\u2581Puerto": 6473,
    "Description": 6474,
    "\u2581California": 6475,
    "\u2581modest": 6476,
    "\u2581ab": 6477,
    "\u2581Ocean": 6478,
    "\u2581gym": 6479,
    "\u2581characterised": 6480,
    "\u2581unfortunate": 6481,
    "\u2581Declaration": 6482,
    "\u2581undertaking": 6483,
    "\u2581multimedia": 6484,
    "\u2581transatlantic": 6485,
    "\u2581finances": 6486,
    "\u2581tip": 6487,
    "yn": 6488,
    "\u2581hire": 6489,
    "46": 6490,
    "conditioned": 6491,
    "\u2581Apple": 6492,
    "\u2581subsidiary": 6493,
    "\u2581subscription": 6494,
    "tergovernmental": 6495,
    "LA": 6496,
    "\u2581branches": 6497,
    "\u2581prominent": 6498,
    "uck": 6499,
    "\u2581abandoned": 6500,
    "group": 6501,
    "\u2581bag": 6502,
    "\u2581organ": 6503,
    "some": 6504,
    "tar": 6505,
    "\u2581circle": 6506,
    "\u2581infringement": 6507,
    "\u2581Palestine": 6508,
    "ign": 6509,
    "\u258138": 6510,
    "\u2581List": 6511,
    "\u2581downloading": 6512,
    "\u2581Cross": 6513,
    "\u2581Search": 6514,
    "\u2581setup": 6515,
    "\u2581indication": 6516,
    "\u2581realized": 6517,
    "\u2581Bill": 6518,
    "\u2581Supervisor": 6519,
    "dra": 6520,
    "\u2581structured": 6521,
    "\u2581tele": 6522,
    "\u2581unlike": 6523,
    "\u2581survival": 6524,
    "\u2581dive": 6525,
    "\u2581Beijing": 6526,
    "\u2581simplify": 6527,
    "code": 6528,
    "\u2581separately": 6529,
    "\u2581tender": 6530,
    "shop": 6531,
    "\u2581penalties": 6532,
    "\u2581reinforce": 6533,
    "\u2581lend": 6534,
    "85": 6535,
    "\u2581dust": 6536,
    "olo": 6537,
    "\u2581quota": 6538,
    "open": 6539,
    "\u2581attract": 6540,
    "\u2581Work": 6541,
    "0.00": 6542,
    "ene": 6543,
    "\u2581restoration": 6544,
    "\u2581founding": 6545,
    "\u2581lacking": 6546,
    "space": 6547,
    "row": 6548,
    "\u2581wars": 6549,
    "\u2581login": 6550,
    "\u2581resist": 6551,
    "Clearly": 6552,
    "\u2581dial": 6553,
    "zu": 6554,
    "\u2581Ser": 6555,
    "CA": 6556,
    "\u2581tailored": 6557,
    "\u2581racism": 6558,
    "\u2581Add": 6559,
    "\u2581Norway": 6560,
    "ava": 6561,
    "pu": 6562,
    "\u258134": 6563,
    "\u2581derived": 6564,
    "\u2581surprising": 6565,
    "\u2581Moldova": 6566,
    "5%": 6567,
    "\u2581kids": 6568,
    "\u2581accepting": 6569,
    "ric": 6570,
    "ika": 6571,
    "\u2581defects": 6572,
    "name": 6573,
    "\u2581Par": 6574,
    "\u2581pride": 6575,
    "Set": 6576,
    "\u2581Albania": 6577,
    "\u00f3n": 6578,
    "bro": 6579,
    "r\u00e9": 6580,
    "\u2581Ze": 6581,
    "ax": 6582,
    "\u2581excuse": 6583,
    "Bo": 6584,
    "\u2581extract": 6585,
    "\u2581shareholders": 6586,
    "\u2581watching": 6587,
    "\u2581celebrated": 6588,
    "\u2581flowers": 6589,
    "\u2581um": 6590,
    "\u2581striking": 6591,
    "cht": 6592,
    "\u2581gather": 6593,
    "sur": 6594,
    "\u2581700": 6595,
    "\u2581keeps": 6596,
    "HU": 6597,
    "ici": 6598,
    "\u2581Fe": 6599,
    "ivity": 6600,
    "59": 6601,
    "\u2581Hans": 6602,
    "Go": 6603,
    "\u2581iPhone": 6604,
    "\u2581Bal": 6605,
    "\u2581identical": 6606,
    "ire": 6607,
    "tas": 6608,
    "\u2581returning": 6609,
    "PO": 6610,
    "\u258142": 6611,
    "\u2581chairs": 6612,
    "ld": 6613,
    "\u2581camps": 6614,
    "\u2581Modern": 6615,
    "qua": 6616,
    "\u2581taught": 6617,
    "sha": 6618,
    "\u2581CA": 6619,
    "\u2581Hamas": 6620,
    "\u2581vegetables": 6621,
    "\u2581performances": 6622,
    "ico": 6623,
    "\u2581directions": 6624,
    "you": 6625,
    "\u2581upcoming": 6626,
    "\u2581drafted": 6627,
    "\u2581Sudan": 6628,
    "\u2581Max": 6629,
    "\u2581knowing": 6630,
    "\u2581seminars": 6631,
    "\u2581Louis": 6632,
    "\u2581Radio": 6633,
    "\u2581Pass": 6634,
    "ENT": 6635,
    "\u25812001,": 6636,
    "sol": 6637,
    "\u2581centrally": 6638,
    "\u2581continually": 6639,
    "\u2581underline": 6640,
    "\u2581stem": 6641,
    "\u2581Zimbabwe": 6642,
    "\u2581denied": 6643,
    "\u2581participated": 6644,
    "xi": 6645,
    "eb": 6646,
    "\u2581mixture": 6647,
    "\u2581departments": 6648,
    "\u2581Under": 6649,
    "\u2581Peace": 6650,
    "lock": 6651,
    "\u2581tension": 6652,
    "\u2581sp": 6653,
    "\u2581maps": 6654,
    "\u2581assumed": 6655,
    "\u2581exceptions": 6656,
    "\u2581reproduction": 6657,
    "\u2581minimal": 6658,
    "media": 6659,
    "los": 6660,
    "\u2581Line": 6661,
    "\u2581automated": 6662,
    "\u2581filling": 6663,
    "\u2581trail": 6664,
    "\u2581pine": 6665,
    "ose": 6666,
    "\u2581sustained": 6667,
    "\u2581homepage": 6668,
    "\u2581Account": 6669,
    "\u2581Language": 6670,
    "\u2581exchanges": 6671,
    "\u2581Tyrol": 6672,
    "\u2581consistency": 6673,
    "\u25812002,": 6674,
    "\u2581sheets": 6675,
    "\u2581HD": 6676,
    "\u2581quantities": 6677,
    "ub": 6678,
    "\u2581SAP": 6679,
    "\u25812013": 6680,
    "ery": 6681,
    "\u2581stood": 6682,
    "\u2581circulation": 6683,
    "\u2581grants": 6684,
    "\u2581badly": 6685,
    "\u2581Travel": 6686,
    "\u2581Es": 6687,
    "Above": 6688,
    "\u2581della": 6689,
    "\u2581partition": 6690,
    "\u2581Sky": 6691,
    "\u2581neutral": 6692,
    "\u2581mailing": 6693,
    "\u2581develops": 6694,
    "\u2581alliance": 6695,
    "\u2581defending": 6696,
    "cer": 6697,
    "Ba": 6698,
    "\u2581Rock": 6699,
    "tive": 6700,
    "\u2581transformed": 6701,
    "\u2581trails": 6702,
    "\u2581telling": 6703,
    "ata": 6704,
    "\u2581hydro": 6705,
    "\u2581requiring": 6706,
    "matic": 6707,
    "ima": 6708,
    "\u2581Shop": 6709,
    "\u2581Indonesia": 6710,
    "\u2581Golden": 6711,
    "\u2581defense": 6712,
    "\u2581ve": 6713,
    "ige": 6714,
    "century": 6715,
    "\u2581weapon": 6716,
    "world": 6717,
    "....": 6718,
    "\u2581searching": 6719,
    "more": 6720,
    "\u2581News": 6721,
    "wn": 6722,
    "\u2581Gri": 6723,
    "\u2581commission": 6724,
    "\u2581receives": 6725,
    "\u2581officers": 6726,
    "\u258140%": 6727,
    "Bar": 6728,
    "\u2581nicht": 6729,
    "\u2581fears": 6730,
    "Welcome": 6731,
    "TER": 6732,
    "\u2581guitar": 6733,
    "\u2581spots": 6734,
    "ole": 6735,
    "ani": 6736,
    "\u2581bond": 6737,
    "Se": 6738,
    "Naturally": 6739,
    "\u2581combining": 6740,
    "\u2581nu": 6741,
    "\u2581Bridge": 6742,
    "lf": 6743,
    "\u2581Content": 6744,
    "\u2581demonstration": 6745,
    "Ex": 6746,
    "\u2581ensured": 6747,
    "\u2581CE": 6748,
    "\u2581interim": 6749,
    "\u2581exploring": 6750,
    "\u2581distribute": 6751,
    "\u2581listened": 6752,
    "\u201d)": 6753,
    "rum": 6754,
    "press": 6755,
    "\u2581editing": 6756,
    "city": 6757,
    "mmer": 6758,
    "\u2581modes": 6759,
    "\u2581episode": 6760,
    "\u2581recycling": 6761,
    "ction": 6762,
    "\u2581preferences": 6763,
    "\u2581concentrated": 6764,
    "most": 6765,
    "\u2581enemy": 6766,
    "type": 6767,
    "\u2581HTML": 6768,
    "2008": 6769,
    "lia": 6770,
    "mor": 6771,
    "\u2581Vietnam": 6772,
    "\u2581calculated": 6773,
    "\u2581conveniently": 6774,
    "\u2581insert": 6775,
    "\u2581cope": 6776,
    "\u2581perception": 6777,
    "\u2581grass": 6778,
    "ving": 6779,
    "ito": 6780,
    "\u2581pursuing": 6781,
    "\u2581Tibet": 6782,
    "\u2581approx": 6783,
    "[": 6784,
    "\u2581pays": 6785,
    "\u2581macro": 6786,
    "\u2581golden": 6787,
    "\u2581enthusiasm": 6788,
    "\u2581profound": 6789,
    "\u2581alter": 6790,
    "\u2581Industrial": 6791,
    "wer": 6792,
    "\u2581agrees": 6793,
    "Take": 6794,
    "\u2581tells": 6795,
    "Free": 6796,
    "fully": 6797,
    "suite": 6798,
    "\u2581workplace": 6799,
    "idad": 6800,
    "\u2581banned": 6801,
    "pol": 6802,
    "IM": 6803,
    "\u2581Catholic": 6804,
    "bri": 6805,
    "cut": 6806,
    "\u258164": 6807,
    "\u2581jump": 6808,
    "\u2581IV": 6809,
    "\u2581Facilities": 6810,
    "\u2581Nord": 6811,
    "\u2581Cha": 6812,
    "\u2581attach": 6813,
    "\u2581Camp": 6814,
    "\u2581Net": 6815,
    "\u2581deleted": 6816,
    "gro": 6817,
    "\u2581doctors": 6818,
    "\u2581blow": 6819,
    "\u2581seminar": 6820,
    "\u2581accused": 6821,
    "54": 6822,
    "\u2581consolidation": 6823,
    "\u2581culinary": 6824,
    "\u2581implies": 6825,
    "\u2581thoughts": 6826,
    "\u2581symbolic": 6827,
    "\u2581Citizens": 6828,
    "\u2581consisting": 6829,
    "\u2581vicinity": 6830,
    "42": 6831,
    "\u2581daughter": 6832,
    "\u2581stream": 6833,
    "\u2581width": 6834,
    "\u2581observers": 6835,
    "\u2581Small": 6836,
    "SK": 6837,
    "bank": 6838,
    "\u2581cargo": 6839,
    "Check": 6840,
    "\u2581Libya": 6841,
    "\u2581permanently": 6842,
    "\u2581regimes": 6843,
    "\u2581cheaper": 6844,
    "\u2581explicit": 6845,
    "\u2581Anonymous": 6846,
    "\u2581suddenly": 6847,
    "cur": 6848,
    "TC": 6849,
    "\u2581tackling": 6850,
    "ib": 6851,
    "\u2581analyses": 6852,
    "\u2581unprecedented": 6853,
    "range": 6854,
    "\u2581migrants": 6855,
    "cing": 6856,
    "\u2581SP": 6857,
    "\u2581respecting": 6858,
    "\u2581rescue": 6859,
    "\u2581Kirk": 6860,
    "\u2581abolition": 6861,
    "\u2581Nordic": 6862,
    "\u2581newspapers": 6863,
    "\u2581specialised": 6864,
    "Up": 6865,
    "\u2581boxes": 6866,
    "\u2581isolation": 6867,
    "lie": 6868,
    "dor": 6869,
    "\u2581checking": 6870,
    "\u2581optimum": 6871,
    "\u2581landscapes": 6872,
    "\u2581earthquake": 6873,
    "\u2581terror": 6874,
    "NA": 6875,
    "makers": 6876,
    "\u2581securities": 6877,
    "\u2581unlimited": 6878,
    "\u2581inclusive": 6879,
    "\u043d\u043e": 6880,
    "\u2581justification": 6881,
    "\u2581fuels": 6882,
    "\u2581Thailand": 6883,
    "ich": 6884,
    "\u258165": 6885,
    "\u2581ending": 6886,
    "\u2581grew": 6887,
    "UR": 6888,
    "\u2581tangible": 6889,
    "\u2581refined": 6890,
    "\u2581twelve": 6891,
    "\u2581Ber": 6892,
    "\u2581mi": 6893,
    "\u2581furthermore": 6894,
    "\u2581discovery": 6895,
    "\u2581translations": 6896,
    "77": 6897,
    "\u2581clothes": 6898,
    "\u2581Region": 6899,
    "\u2581coalition": 6900,
    "\u2581passes": 6901,
    "\u2581warranty": 6902,
    "Meanwhile": 6903,
    "\u2581trademarks": 6904,
    "\u2581transform": 6905,
    "\u2581announcement": 6906,
    "she": 6907,
    "\u2581Training": 6908,
    "\u2581carrier": 6909,
    "\u2581Visit": 6910,
    "\u2581mining": 6911,
    "\u2581Pla": 6912,
    "\u2581yellow": 6913,
    "\u2581arrested": 6914,
    "ij": 6915,
    "ret": 6916,
    "\u2581Professional": 6917,
    "\u2581endless": 6918,
    "Together": 6919,
    "\u2581obtaining": 6920,
    "\u2581separated": 6921,
    "\u2581cease": 6922,
    "\u2581Ger": 6923,
    "\u258180%": 6924,
    "\u2581rivers": 6925,
    "\u2581upload": 6926,
    "\u2581wise": 6927,
    "\u2581demanded": 6928,
    "\u2581LateRooms": 6929,
    "dal": 6930,
    "\u2581missions": 6931,
    "\u2581congratulations": 6932,
    "\u2581endeavour": 6933,
    "\u2581cre": 6934,
    "\u2581competitors": 6935,
    "\u2581Next": 6936,
    "\u2581connecting": 6937,
    "ening": 6938,
    "rian": 6939,
    "\u2581optional": 6940,
    "\u2581Metro": 6941,
    "lor": 6942,
    "bach": 6943,
    "\u2581booth": 6944,
    "ear": 6945,
    "\u258155": 6946,
    "\u2581Danube": 6947,
    "depth": 6948,
    "\u2581guides": 6949,
    "\u2581clearer": 6950,
    "\u2581distinguished": 6951,
    "\u2581Tom": 6952,
    "\u2581consist": 6953,
    "\u2581weekly": 6954,
    "-20": 6955,
    "RC": 6956,
    "\u2581Korean": 6957,
    "\u2581dominant": 6958,
    "\u2581Stuttgart": 6959,
    "\u2581bo": 6960,
    "ev": 6961,
    "\u2581absurd": 6962,
    "\u2581unstable": 6963,
    "\u2581reductions": 6964,
    "\u2581engagement": 6965,
    "\u2581Coast": 6966,
    "\u2581excess": 6967,
    "\u2581Palma": 6968,
    "\u2581District": 6969,
    "ford": 6970,
    "\u2581trademark": 6971,
    "wel": 6972,
    "\u2581independently": 6973,
    "\u2581Playa": 6974,
    "\u2581deemed": 6975,
    "\u2581codes": 6976,
    "\u2581actor": 6977,
    "\u2581disappear": 6978,
    "\u2581influenced": 6979,
    "\u2581Up": 6980,
    "kov": 6981,
    "ges": 6982,
    "ave": 6983,
    "\u2581adjusted": 6984,
    "\u2581deny": 6985,
    "American": 6986,
    "\u2581History": 6987,
    "\u2581gathered": 6988,
    "\u2581Test": 6989,
    "\u2581loved": 6990,
    "\u2581steep": 6991,
    "\u2581Start": 6992,
    "\u00e4r": 6993,
    "\u2581Bern": 6994,
    "\u2581alive": 6995,
    "mas": 6996,
    "\u2581wire": 6997,
    "\u2581CEO": 6998,
    "\u2581mill": 6999,
    "\u2581suspension": 7000,
    "\u2581commonly": 7001,
    "pri": 7002,
    "\u2581Gro": 7003,
    "\u2581strip": 7004,
    "governmental": 7005,
    "\u2581noticed": 7006,
    "ls": 7007,
    "\u2581preventive": 7008,
    "enberg": 7009,
    "\u2581vessel": 7010,
    "400": 7011,
    "\u2581unlikely": 7012,
    "FF": 7013,
    "wo": 7014,
    "\u2581Prince": 7015,
    "\u2581aggressive": 7016,
    "\u2581capability": 7017,
    "\u2581themes": 7018,
    "\u2581Cam": 7019,
    "\u2581ce": 7020,
    "\u2581ambience": 7021,
    "Are": 7022,
    "ban": 7023,
    "\u2581Ju": 7024,
    "\u2581authorised": 7025,
    "\u2581estimates": 7026,
    "\u2581acquis": 7027,
    "\u2581sightseeing": 7028,
    "ente": 7029,
    "\u2581tight": 7030,
    "\u2581reduces": 7031,
    "Na": 7032,
    "\u00f6r": 7033,
    "\u2581employee": 7034,
    "ography": 7035,
    "\u2581Holy": 7036,
    "\u2581invoice": 7037,
    "\u2581excellence": 7038,
    "tag": 7039,
    "\u2581Millennium": 7040,
    "\u2581subscribe": 7041,
    "\u2581ambitions": 7042,
    "\u2581Ste": 7043,
    "\u2581bonds": 7044,
    "\u2581venue": 7045,
    "\u2581investigations": 7046,
    "\u2581Pack": 7047,
    "\u2581ideological": 7048,
    "pass": 7049,
    "\u2581Romanian": 7050,
    "\u2581cat": 7051,
    "yes": 7052,
    "\u2581verify": 7053,
    "\u2581stakeholders": 7054,
    "78": 7055,
    "\u2581stringent": 7056,
    "\u2581translate": 7057,
    "\u2581AS": 7058,
    "Using": 7059,
    "\u2581transmitted": 7060,
    "\u2581nowadays": 7061,
    "\u2581removing": 7062,
    "\u2581License": 7063,
    "\u2581score": 7064,
    "\u2581Which": 7065,
    "\u2581capacities": 7066,
    "\u2581permits": 7067,
    "aire": 7068,
    "\u2581mild": 7069,
    "\u2581Sub": 7070,
    "\u2581dominated": 7071,
    "\u2581unanimous": 7072,
    "Until": 7073,
    "\u2581backing": 7074,
    "\u2581appreciation": 7075,
    "\u2581conviction": 7076,
    "\u2581vice": 7077,
    "nz": 7078,
    "\u2581kilometers": 7079,
    "\u2581supervisory": 7080,
    "\u2581Ref": 7081,
    "\u2581Rental": 7082,
    "law": 7083,
    "\u2581accepts": 7084,
    "\u2581ni": 7085,
    "\u2581UNESCO": 7086,
    "gate": 7087,
    "\u2581separation": 7088,
    "\u2581disc": 7089,
    "72": 7090,
    "96": 7091,
    "ova": 7092,
    "ional": 7093,
    "\u2581emotional": 7094,
    "kan": 7095,
    "\u2581imperative": 7096,
    "\u2581laboratory": 7097,
    "\u2581monthly": 7098,
    "\u2581keyboard": 7099,
    "\u2581VI": 7100,
    "\u2581boundaries": 7101,
    "\u2581resorts": 7102,
    "NET": 7103,
    "ify": 7104,
    "\u2581hosts": 7105,
    "\u2581responses": 7106,
    "\u2581antique": 7107,
    "ama": 7108,
    "\u2581indigenous": 7109,
    "\u2581struck": 7110,
    "\u2581consulted": 7111,
    "ude": 7112,
    "hor": 7113,
    "\u2581railways": 7114,
    "\u2581plane": 7115,
    "\u2581camping": 7116,
    "\u2581presentations": 7117,
    "\u2581Alpine": 7118,
    "\u2581bold": 7119,
    "\u2581acted": 7120,
    "Lo": 7121,
    "get": 7122,
    "\u2581plate": 7123,
    "\u2581differently": 7124,
    "\u2581Has": 7125,
    "MB": 7126,
    "\u2581Joseph": 7127,
    "\u2581married": 7128,
    "\u2581witness": 7129,
    "ele": 7130,
    "\u2581finds": 7131,
    "\u2581missed": 7132,
    "\u2581countless": 7133,
    "\u2581lens": 7134,
    "\u2581embedded": 7135,
    "56": 7136,
    "pin": 7137,
    "\u2581observations": 7138,
    "Rather": 7139,
    "\u2581districts": 7140,
    "\u2581acid": 7141,
    "\u2581Fo": 7142,
    "\u2581Richard": 7143,
    "\u2581gains": 7144,
    "\u2581nationals": 7145,
    "uc": 7146,
    "Po": 7147,
    "\u2581musicians": 7148,
    "gli": 7149,
    "\u2581Ya": 7150,
    "mu": 7151,
    "fish": 7152,
    "\u2581partially": 7153,
    "\u2581afterwards": 7154,
    "eur": 7155,
    "\u2581Stra": 7156,
    "kon": 7157,
    "zy": 7158,
    "\u2581fires": 7159,
    "ori": 7160,
    "\u2581scenario": 7161,
    "\u2581Michel": 7162,
    "\u2581ran": 7163,
    "\u2581AD": 7164,
    "\u2581invested": 7165,
    "\u2581dictatorship": 7166,
    "\u2581Caribbean": 7167,
    "\u2581Nu": 7168,
    "\u2581younger": 7169,
    "\u2581bases": 7170,
    "Mi": 7171,
    "\u2581vineyards": 7172,
    "ea": 7173,
    "\u2581cycling": 7174,
    "\u2581honor": 7175,
    "\u2581automobile": 7176,
    "real": 7177,
    "\u2581Night": 7178,
    "\u2581sat": 7179,
    "\u2581reconciliation": 7180,
    "\u2581tranquil": 7181,
    "\u2581thick": 7182,
    "\u2581sincerely": 7183,
    "\u2581dossier": 7184,
    "\u2581universe": 7185,
    "\u2581radiation": 7186,
    "\u2581EMU": 7187,
    "\u2581finishing": 7188,
    "\u2581Decision": 7189,
    "\u2581dangers": 7190,
    "rio": 7191,
    "rc": 7192,
    "\u2581admission": 7193,
    "\u2581Reserve": 7194,
    "\u2581labels": 7195,
    "cor": 7196,
    "\u2581Tunisia": 7197,
    "\u00eda": 7198,
    "\u2581constraints": 7199,
    "word": 7200,
    "\u2581winners": 7201,
    "\u2581roughly": 7202,
    "\u2581commend": 7203,
    "\u2581experiment": 7204,
    "\u2581boards": 7205,
    "Nor": 7206,
    "\u2581profession": 7207,
    "\u2581une": 7208,
    "\u2581incident": 7209,
    "\u2581favor": 7210,
    "\u2581investing": 7211,
    "\u2581hectares": 7212,
    "\u2581reaches": 7213,
    "\u258125%": 7214,
    "\u2581ja": 7215,
    "\u2581insight": 7216,
    "\u2581lu": 7217,
    "\u2581silent": 7218,
    "\u2581safely": 7219,
    "\u2581genetically": 7220,
    "\u2581contributes": 7221,
    "\u2581carte": 7222,
    "\u2581designers": 7223,
    "\u2581diet": 7224,
    "cast": 7225,
    "Regarding": 7226,
    "\u2581motivated": 7227,
    "\u2581Comp": 7228,
    "\u2581autonomous": 7229,
    "\u2581warrant": 7230,
    "\u2581palace": 7231,
    "\u2581Class": 7232,
    "\u2581Ol": 7233,
    "\u2581cup": 7234,
    "\u2581catering": 7235,
    "\u2581Technical": 7236,
    "\u2581profiles": 7237,
    "\u2581qualities": 7238,
    "\u2581eligible": 7239,
    "dan": 7240,
    "\u2581j": 7241,
    "\u2581AC": 7242,
    "\u2581PSE": 7243,
    "\u2581motions": 7244,
    "\u2581Well": 7245,
    "\u2581summary": 7246,
    "\u2581household": 7247,
    "88": 7248,
    "\u2581Library": 7249,
    "\u2581damaging": 7250,
    "\u2581advocate": 7251,
    "power": 7252,
    "2,": 7253,
    "\u25812.5": 7254,
    "\u2581IS": 7255,
    "\u2581Min": 7256,
    "\u2581Arts": 7257,
    "Die": 7258,
    "\u2581Jerusalem": 7259,
    "\u2581noble": 7260,
    "\u2581besides": 7261,
    "rea": 7262,
    "\u2581globalization": 7263,
    "\u2581Valencia": 7264,
    "\u2581Chief": 7265,
    "nom": 7266,
    "\u2581revenues": 7267,
    "\u2581utility": 7268,
    "\u2581convey": 7269,
    "\u2581critique": 7270,
    "nch": 7271,
    "\u2581tournament": 7272,
    "\u2581girl": 7273,
    "\u2581sich": 7274,
    "\u2581offset": 7275,
    "\u2581Ed": 7276,
    "\u2581Vista": 7277,
    "FA": 7278,
    "\u2581tiny": 7279,
    "76": 7280,
    "\u2581currencies": 7281,
    "\u2581realised": 7282,
    "\u2581designated": 7283,
    "print": 7284,
    "\u2581styles": 7285,
    "\u2581Warcraft": 7286,
    "\u2581await": 7287,
    "stone": 7288,
    "\u2581teach": 7289,
    "TO": 7290,
    "\u2581intent": 7291,
    "\u2581folk": 7292,
    "\u2581mineral": 7293,
    "\u2581Ph": 7294,
    "\u2581laying": 7295,
    "ration": 7296,
    "\u2581Ac": 7297,
    "\u2581tro": 7298,
    "\u2581grid": 7299,
    "Enterprise": 7300,
    "\u2581albeit": 7301,
    "\u2581indispensable": 7302,
    "\u2581deck": 7303,
    "\u2581attempted": 7304,
    "\u2581Jews": 7305,
    "\u25815%": 7306,
    "\u2581pin": 7307,
    "\u2581smoke": 7308,
    "yo": 7309,
    "\u2581Mat": 7310,
    "put": 7311,
    "une": 7312,
    "\u2581oder": 7313,
    "\u2581minds": 7314,
    "\u2581secured": 7315,
    "\u2581Heritage": 7316,
    "\u2581intimate": 7317,
    "\u2581feelings": 7318,
    "Facilities": 7319,
    "High": 7320,
    "\u2581inevitable": 7321,
    "\u25811950": 7322,
    "2009": 7323,
    "\u2581delayed": 7324,
    "\u2581Queen": 7325,
    "tec": 7326,
    "\u2581CHF": 7327,
    "74": 7328,
    "Unlike": 7329,
    "onic": 7330,
    "\u2581impetus": 7331,
    "\u2581luggage": 7332,
    "\u2581Jesus": 7333,
    "\u2581Rhine": 7334,
    "html": 7335,
    "\u2581routine": 7336,
    "ndo": 7337,
    "\u2581hunger": 7338,
    "town": 7339,
    "\u2581Gre": 7340,
    "\u2581workforce": 7341,
    "\u2581seaside": 7342,
    "\u2581Residence": 7343,
    "\u2581bomb": 7344,
    "\u2581coherence": 7345,
    "\u2581eating": 7346,
    "\u2581Natural": 7347,
    "\u2581panels": 7348,
    "ego": 7349,
    "cle": 7350,
    "\u2581SE": 7351,
    "\u25814.": 7352,
    "\u2581admire": 7353,
    "place": 7354,
    "\u2581walks": 7355,
    "\u2581vis": 7356,
    "\u2581praise": 7357,
    "\u2581bet": 7358,
    "sia": 7359,
    "\u2581entity": 7360,
    "\u2581MB": 7361,
    "\u2581ties": 7362,
    "\u2581Big": 7363,
    "Second": 7364,
    "ates": 7365,
    "Car": 7366,
    "\u2581ka": 7367,
    "\u2581substitute": 7368,
    "\u2581punishment": 7369,
    "\u2581Der": 7370,
    "\u2581earned": 7371,
    "\u2581Four": 7372,
    "\u2581accountability": 7373,
    "tim": 7374,
    "gre": 7375,
    "\u2581controller": 7376,
    "\u2581wedding": 7377,
    "\u2581Forest": 7378,
    "\u2581limitations": 7379,
    "\u2581lawyers": 7380,
    "equipped": 7381,
    "\u2581stays": 7382,
    "\u2581featured": 7383,
    "\u2581Dor": 7384,
    "\u2581avoiding": 7385,
    "\u2581tar": 7386,
    "SL": 7387,
    "\u2581dumping": 7388,
    "AP": 7389,
    "\u2581Village": 7390,
    "\u2581opponents": 7391,
    "\u2581Third": 7392,
    "\u2581assessments": 7393,
    "\u2581flower": 7394,
    "\u2581outlined": 7395,
    "\u2581luck": 7396,
    "\u2581climbing": 7397,
    "\u2581EP": 7398,
    "\u2581extends": 7399,
    "round": 7400,
    "\u2581USS": 7401,
    "\u2581Karl": 7402,
    "\u2581Estonia": 7403,
    "\u2581existed": 7404,
    "read": 7405,
    "ungen": 7406,
    "\u2581promising": 7407,
    "\u2581retirement": 7408,
    "\u2581forums": 7409,
    "\u2581systematically": 7410,
    "\u2581Communication": 7411,
    "\u2581cooperative": 7412,
    "\u2581XP": 7413,
    "\u2581Partner": 7414,
    "\u2581villas": 7415,
    "\u2581hairdryer": 7416,
    "oni": 7417,
    "\u2581hang": 7418,
    "\u2581explanations": 7419,
    "\u2581talent": 7420,
    "\u2581ent": 7421,
    "\u2581cream": 7422,
    "\u2581bears": 7423,
    "\u2581delivering": 7424,
    "\u2581somewhere": 7425,
    "\u2581Statute": 7426,
    "\u2581gaming": 7427,
    "\u2581databases": 7428,
    "\u2581Gallery": 7429,
    "\u2581Suites": 7430,
    "\u2581feels": 7431,
    "\u2581Mountain": 7432,
    "\u2581killing": 7433,
    "ways": 7434,
    "\u2581capitalism": 7435,
    "tten": 7436,
    "ult": 7437,
    "\u2581hole": 7438,
    "mic": 7439,
    "\u2581shoes": 7440,
    "\u2581allies": 7441,
    "\u2581plugin": 7442,
    "\u2581awards": 7443,
    "\u2581inevitably": 7444,
    "\u2581environments": 7445,
    "\u2581spell": 7446,
    "\u2581sequence": 7447,
    "ROM": 7448,
    "\u2581socially": 7449,
    "\u2581Mas": 7450,
    "\u2581Sir": 7451,
    "building": 7452,
    "Obviously": 7453,
    "\u2581inequality": 7454,
    "\u2581loading": 7455,
    "2.": 7456,
    "\u2581compatibility": 7457,
    "reaching": 7458,
    "ois": 7459,
    "\u2581continuation": 7460,
    "ular": 7461,
    "\u2581Captain": 7462,
    "ille": 7463,
    "\u2581fundamentally": 7464,
    "rapporteur": 7465,
    "\u2581Professor": 7466,
    "\u2581complimentary": 7467,
    "\u2581gradual": 7468,
    "\u2581NOT": 7469,
    "\u2581Thanks": 7470,
    "EM": 7471,
    "\u2581alert": 7472,
    "\u2581elegance": 7473,
    "\u2581Out": 7474,
    "band": 7475,
    "\u2581legendary": 7476,
    "\u2581mar": 7477,
    "\u2581refurbished": 7478,
    "\u2581auch": 7479,
    "\u2581Cla": 7480,
    "\u2581carries": 7481,
    "\u2581printer": 7482,
    "\u2581discretion": 7483,
    "r\u00e1": 7484,
    "\u2581COM": 7485,
    "\u2581au": 7486,
    "\u2581Chechnya": 7487,
    "\u2581Country": 7488,
    "\u2581Set": 7489,
    "ulation": 7490,
    "\u2581yield": 7491,
    "\u2581foods": 7492,
    "llen": 7493,
    "\u2581authorized": 7494,
    "\u2581{": 7495,
    "\u2581surplus": 7496,
    "\u2581horses": 7497,
    "\u2581repression": 7498,
    "\u2581cha": 7499,
    "\u2581Further": 7500,
    "\u2581RI": 7501,
    "\u2581calculation": 7502,
    "\u2581reveal": 7503,
    "\u2581criterion": 7504,
    "\u2581vacuum": 7505,
    "\u2581Love": 7506,
    "Pre": 7507,
    "standing": 7508,
    "\u2581pack": 7509,
    "\u2581blocked": 7510,
    "\u2581cooling": 7511,
    "LO": 7512,
    "\u2581scenes": 7513,
    "cz": 7514,
    "\u2581classification": 7515,
    "\u2581Army": 7516,
    "\u2581skilled": 7517,
    "\u2581Ukrainian": 7518,
    "DR": 7519,
    "\u2581continental": 7520,
    "ay": 7521,
    "ase": 7522,
    "\u2581Capital": 7523,
    "\u2581Thus": 7524,
    "\u2581arriving": 7525,
    "\u2581owing": 7526,
    "\u2581shore": 7527,
    "\u2581dreams": 7528,
    "ison": 7529,
    "\u2581aluminium": 7530,
    "\u2581tremendous": 7531,
    "Next": 7532,
    "grad": 7533,
    "\u2581libraries": 7534,
    "\u2581procedural": 7535,
    "cio": 7536,
    "\u2581globally": 7537,
    "58": 7538,
    "\u2581detection": 7539,
    "under": 7540,
    "ym": 7541,
    "\u2581attraction": 7542,
    "\u2581execute": 7543,
    "\u2581Alexander": 7544,
    "93": 7545,
    "ators": 7546,
    "\u2581Bulgarian": 7547,
    "\u2581Fax": 7548,
    "\u2581activate": 7549,
    "Germany": 7550,
    "\u2581Tel": 7551,
    "bert": 7552,
    "ische": 7553,
    "\u2581deeper": 7554,
    "\u2581gathering": 7555,
    "\u2581thirty": 7556,
    "lam": 7557,
    "\u2581solving": 7558,
    "\u2581globe": 7559,
    "\u2581swim": 7560,
    "\u2581Gay": 7561,
    "\u2581interference": 7562,
    "DP": 7563,
    "ule": 7564,
    "\u2581handed": 7565,
    "\u25813.": 7566,
    "\u2581d\u00e9": 7567,
    "\u2581convincing": 7568,
    "\u2581activated": 7569,
    "\u2581configure": 7570,
    "\u2581incorrect": 7571,
    "\u2581absorb": 7572,
    "\u2581washing": 7573,
    "\u2581hi": 7574,
    "\u2581Porto": 7575,
    "Sch": 7576,
    "gg": 7577,
    "\u2581subjected": 7578,
    "\u2581Once": 7579,
    "\u2581installing": 7580,
    "\u2581shock": 7581,
    "\u2581Marco": 7582,
    "\u2581exclude": 7583,
    "\u2581Fu": 7584,
    "\u2581collections": 7585,
    "\u2581Wo": 7586,
    "\u2581abandon": 7587,
    "GB": 7588,
    "\u2581cathedral": 7589,
    "\u2581openly": 7590,
    "igen": 7591,
    "\u2581skill": 7592,
    "\u2581Experience": 7593,
    "\u2581argued": 7594,
    "\u2581rigorous": 7595,
    "\u2581comforts": 7596,
    "\u2581ST": 7597,
    "\u2581kit": 7598,
    "\u2581resumed": 7599,
    "pan": 7600,
    "\u2581judges": 7601,
    "\u2581remedy": 7602,
    "\u2581innocent": 7603,
    "\u2581behold": 7604,
    "\u2581writer": 7605,
    "\u2581Hill": 7606,
    "\u2581shooting": 7607,
    "\u2581enforce": 7608,
    "\u2581Piazza": 7609,
    "\u2581locally": 7610,
    "\u25812-": 7611,
    "\u2581Location": 7612,
    "\u2581racing": 7613,
    "\u2581entities": 7614,
    "\u2581Kra": 7615,
    "CC": 7616,
    "\u2581Criminal": 7617,
    "\u2581bicycle": 7618,
    "\u2581overnight": 7619,
    "\u2581URL": 7620,
    "TION": 7621,
    "57": 7622,
    "\u2581Doha": 7623,
    "gram": 7624,
    "\u2581infrastructures": 7625,
    "\u2581hopefully": 7626,
    "met": 7627,
    "69": 7628,
    "\u2581Prof": 7629,
    "\u2581dans": 7630,
    "\u2581demo": 7631,
    "\u2018": 7632,
    "\u2581borne": 7633,
    "\u2581abstained": 7634,
    "\u2581simplified": 7635,
    "\u2581fruits": 7636,
    "Otherwise": 7637,
    "dem": 7638,
    "lands": 7639,
    "6-0": 7640,
    "\u2581chamber": 7641,
    "\u2581indirectly": 7642,
    "bor": 7643,
    "\u2581guard": 7644,
    "2005": 7645,
    "dent": 7646,
    "\u2581painful": 7647,
    "\u2581Objective": 7648,
    "\u2581serial": 7649,
    "gas": 7650,
    "\u2581dogs": 7651,
    "\u2581Annual": 7652,
    "hold": 7653,
    "\u2581gases": 7654,
    "\u2581personality": 7655,
    "\u2581detention": 7656,
    "mission": 7657,
    "\u2581reinforced": 7658,
    "\u2581Allah": 7659,
    "gin": 7660,
    "\u2581analyse": 7661,
    "\u2581invites": 7662,
    "sel": 7663,
    "\u2581desert": 7664,
    "nar": 7665,
    "ack": 7666,
    "\u2581envisaged": 7667,
    "\u2581construct": 7668,
    "vision": 7669,
    "\u2581exquisite": 7670,
    "\u2581Ur": 7671,
    "\u2581decoration": 7672,
    "\u25812008.": 7673,
    "\u2581coastline": 7674,
    "\u2581Three": 7675,
    "fall": 7676,
    "\u2581Christians": 7677,
    "\u2581complaint": 7678,
    "\u2581marking": 7679,
    "\u2581Sant": 7680,
    "\u2581dependence": 7681,
    "east": 7682,
    "]].": 7683,
    "\u2581donors": 7684,
    "\u2581Railway": 7685,
    "\u2581dei": 7686,
    "CI": 7687,
    "\u2581lights": 7688,
    "tru": 7689,
    "itz": 7690,
    "\u258144": 7691,
    "Mediterranean": 7692,
    "Linux": 7693,
    "\u258101": 7694,
    "\u2581waves": 7695,
    "\u2581pose": 7696,
    "\u2581panorama": 7697,
    "\u2581Exhibition": 7698,
    "600": 7699,
    "\u2581attempting": 7700,
    "\u2581successor": 7701,
    "\u2581HIV": 7702,
    "nk": 7703,
    "\u2581Cat": 7704,
    "izer": 7705,
    "\u2581reviewed": 7706,
    "\u2581possession": 7707,
    "\u2581margin": 7708,
    "ox": 7709,
    "\u2581council": 7710,
    "\u2581confidential": 7711,
    "\u2581filters": 7712,
    "\u2581decor": 7713,
    "\u2581restrictive": 7714,
    "\u2581stating": 7715,
    "\u2581clinical": 7716,
    "\u2581disastrous": 7717,
    "\u2581va": 7718,
    "\u2581assign": 7719,
    "\u2581interpreted": 7720,
    "\u2581mood": 7721,
    "\u2581promotes": 7722,
    "\u2581Easy": 7723,
    "ario": 7724,
    "\u2581limitation": 7725,
    "\u2581Corporation": 7726,
    "\u2581adverse": 7727,
    "\u2581patch": 7728,
    "\u2581founder": 7729,
    "\u2581Dresden": 7730,
    "Fa": 7731,
    "\u2581determining": 7732,
    "\u2581Nero": 7733,
    "\u2581aus": 7734,
    "\u2581Han": 7735,
    "\u2581consolidate": 7736,
    "\u2581sincere": 7737,
    "\u2581IGC": 7738,
    "ux": 7739,
    "\u2581selecting": 7740,
    "\u2581ruled": 7741,
    "\u2581speaks": 7742,
    "\u2581Administration": 7743,
    "\u2581settle": 7744,
    "\u2581conscience": 7745,
    "\u2581Double": 7746,
    "\u2581harmonised": 7747,
    "\u2581Finance": 7748,
    "\u2581landing": 7749,
    "\u2581Singapore": 7750,
    "\u2581resolving": 7751,
    "\u2581entrepreneurs": 7752,
    "bas": 7753,
    "lot": 7754,
    "\u2581thereof": 7755,
    "\u2581Kal": 7756,
    "\u2581Saddam": 7757,
    "ela": 7758,
    "800": 7759,
    "\u2581validity": 7760,
    "PP": 7761,
    "leg": 7762,
    "\u2581colonial": 7763,
    "\u2581bid": 7764,
    "\u2581Helsinki": 7765,
    "\u2581ceremony": 7766,
    "\u2581refusal": 7767,
    "\u2581instability": 7768,
    "\u2581backed": 7769,
    "\u2581adequately": 7770,
    "LI": 7771,
    "\u2581abuses": 7772,
    "\u2581enjoyable": 7773,
    "\u258195": 7774,
    "PE": 7775,
    "\u2581Riviera": 7776,
    "\u2581rarely": 7777,
    "\u2581conservative": 7778,
    "\u2581technically": 7779,
    "\u2581ferry": 7780,
    "\u2581Sand": 7781,
    "\u2581distant": 7782,
    "\u2581pu": 7783,
    "\u2581distinct": 7784,
    "\u2581wishing": 7785,
    "vor": 7786,
    "\u00e9s": 7787,
    "\u2581Round": 7788,
    "fu": 7789,
    "\u2581Sar": 7790,
    "China": 7791,
    "ais": 7792,
    "NO": 7793,
    "\u2581scan": 7794,
    "\u2581brilliant": 7795,
    "even": 7796,
    "\u2581altitude": 7797,
    "AG": 7798,
    "\u2581Micro": 7799,
    "Is": 7800,
    "aj": 7801,
    "una": 7802,
    "lis": 7803,
    "\u2581psychological": 7804,
    "\u2581hazardous": 7805,
    "\u2581Terrace": 7806,
    "\u2581GPS": 7807,
    "\u2581tailor": 7808,
    "\u2581Tibetan": 7809,
    "t\u00e9": 7810,
    "meter": 7811,
    "\u2581highway": 7812,
    "\u2581Theatre": 7813,
    "bs": 7814,
    "inger": 7815,
    "EP": 7816,
    "\u2581forming": 7817,
    "tr": 7818,
    "\u2581(3": 7819,
    "\u2581parent": 7820,
    "\u2581distinctive": 7821,
    "\u2581distributors": 7822,
    "92": 7823,
    "\u2581Egyptian": 7824,
    "\u2581rank": 7825,
    "\u2581newest": 7826,
    "\u2581tune": 7827,
    "\u2581exceptionally": 7828,
    "\u2581mount": 7829,
    "\u2581Fra": 7830,
    "\u2581architect": 7831,
    "OL": 7832,
    "Ta": 7833,
    "\u2581preference": 7834,
    "\u2581congratulating": 7835,
    "\u2581arises": 7836,
    "Ka": 7837,
    "\u2581Cala": 7838,
    "\u258139": 7839,
    "Her": 7840,
    "\u2581Cold": 7841,
    "\u2581grain": 7842,
    "\u2581bottle": 7843,
    "\u2581graphical": 7844,
    "\u2581scrutiny": 7845,
    "\u2581delivers": 7846,
    "\u2581reader": 7847,
    "\u2581Basel": 7848,
    "\u2581pump": 7849,
    "\u2581dear": 7850,
    "\u2581correspond": 7851,
    "\u2581matches": 7852,
    "\u2581abilities": 7853,
    "ville": 7854,
    "\u2581theoretical": 7855,
    "hal": 7856,
    "tus": 7857,
    "Unless": 7858,
    "\u2581instant": 7859,
    "53": 7860,
    "\u2581examining": 7861,
    "din": 7862,
    "\u2581Friendly": 7863,
    "\u2581Explorer": 7864,
    ":00": 7865,
    "\u2581symbols": 7866,
    "san": 7867,
    "\u2581unanimity": 7868,
    "\u2581cruise": 7869,
    "\u2581Wellness": 7870,
    "sive": 7871,
    "\u2581loan": 7872,
    "\u2581carriers": 7873,
    "iva": 7874,
    "\u2581Petitions": 7875,
    "\u2581cotton": 7876,
    "\u2581courtyard": 7877,
    "\u2581$1": 7878,
    "!!": 7879,
    "\u2581shell": 7880,
    "\u2581solo": 7881,
    "\u2581interfaces": 7882,
    "\u2581conform": 7883,
    "\u2581Call": 7884,
    "\u2581sensitivity": 7885,
    "TH": 7886,
    "\u2581Ter": 7887,
    "pt": 7888,
    "\u2581rid": 7889,
    "rin": 7890,
    "\u2581birthday": 7891,
    "\u2581healing": 7892,
    "\u2581backup": 7893,
    "\u2581Je": 7894,
    "Li": 7895,
    "\u2581breaking": 7896,
    "app": 7897,
    "\u2581pet": 7898,
    "Whilst": 7899,
    "\u2581preservation": 7900,
    "og": 7901,
    "\u2581customized": 7902,
    "\u2581qua": 7903,
    "click": 7904,
    "\u2581refugee": 7905,
    "\u2581wa": 7906,
    "\u2581catalog": 7907,
    "\u2581het": 7908,
    "PM": 7909,
    "\u2581adjustments": 7910,
    "\u2581civilians": 7911,
    "\u2581viewing": 7912,
    "Though": 7913,
    "tig": 7914,
    "ALE": 7915,
    "\u2581heaven": 7916,
    "\u2581coins": 7917,
    "People": 7918,
    "\u258143": 7919,
    "\u2581safeguarding": 7920,
    "\u2581Berg": 7921,
    "\u2581consolidated": 7922,
    "\u2581professor": 7923,
    "yl": 7924,
    "\u2581Nature": 7925,
    "\u2581cure": 7926,
    "national": 7927,
    "See": 7928,
    "\u2581immense": 7929,
    "\u2581gr": 7930,
    "AD": 7931,
    "rac": 7932,
    "\u2581Nigeria": 7933,
    "\u2581Latvia": 7934,
    "\u2581prejudice": 7935,
    "\u2581advances": 7936,
    "\u2581formally": 7937,
    "\u2581beautifully": 7938,
    "\u2581shame": 7939,
    "only": 7940,
    "\u2581Edinburgh": 7941,
    "\u2581audiovisual": 7942,
    "\u2581hosting": 7943,
    "ime": 7944,
    "\u2581Long": 7945,
    "\u2581kg": 7946,
    "\u2581civilisation": 7947,
    "\u2581tries": 7948,
    "52": 7949,
    "\u2581admitted": 7950,
    "2000": 7951,
    "ident": 7952,
    "\u2581herself": 7953,
    "\u2581securing": 7954,
    "size": 7955,
    "\u2581SO": 7956,
    "\u2581Son": 7957,
    "\u2581tube": 7958,
    "-3": 7959,
    "author": 7960,
    "\u2581Gen": 7961,
    "3%": 7962,
    "\u2581ageing": 7963,
    "\u2581Th": 7964,
    "\u2581voices": 7965,
    "\u2581Corporate": 7966,
    "\u2581ou": 7967,
    "\u2581Mountains": 7968,
    "\u2581DI": 7969,
    "\u2581orchestra": 7970,
    "-4": 7971,
    "94": 7972,
    "page": 7973,
    "GE": 7974,
    "\u2581Sierra": 7975,
    "\u2581devote": 7976,
    "61": 7977,
    "\u2581integrating": 7978,
    "\u2581energies": 7979,
    "\u2581VIP": 7980,
    "\u2581poly": 7981,
    "RS": 7982,
    "Mrs": 7983,
    "\u2581Hol": 7984,
    "\u2581commerce": 7985,
    "\u2581Muslims": 7986,
    "\u2581boom": 7987,
    "source": 7988,
    "\u2581towels": 7989,
    "ect": 7990,
    "\u2581buyer": 7991,
    "\u2581Ten": 7992,
    "\u2581grey": 7993,
    "dar": 7994,
    "-8": 7995,
    "\u2581diameter": 7996,
    "\u2581classified": 7997,
    "\u2581Come": 7998,
    "\u2581Wireless": 7999,
    "\u2581nearest": 8000,
    "\u2581Furthermore": 8001,
    "\u2581congress": 8002,
    "\u2581pillars": 8003,
    "\u2581invasion": 8004,
    "\u2581Chile": 8005,
    "\u2581Mallorca": 8006,
    "Upon": 8007,
    "\u2581irrespective": 8008,
    "ci\u00f3n": 8009,
    "rn": 8010,
    "\u2581monopoly": 8011,
    "\u2581Im": 8012,
    "\u2581ear": 8013,
    "\u2581sin": 8014,
    "\u2581iPod": 8015,
    "\u2581AIDS": 8016,
    "ias": 8017,
    "\u2581maintains": 8018,
    "\u2581breeding": 8019,
    "\u2581Daniel": 8020,
    "flow": 8021,
    "\u2581supporters": 8022,
    "icht": 8023,
    "\u2581DC": 8024,
    "\u2581sympathy": 8025,
    "play": 8026,
    "nce": 8027,
    "\u2581Aus": 8028,
    "63": 8029,
    "\u2581overwhelming": 8030,
    "CD": 8031,
    "active": 8032,
    "\u2581Congo": 8033,
    "\u2581democracies": 8034,
    "\u2581Age": 8035,
    "performance": 8036,
    "\u2581halt": 8037,
    "\u2581Mil": 8038,
    "ense": 8039,
    "dri": 8040,
    "\u2581elite": 8041,
    "\u2581transported": 8042,
    "\u2581protective": 8043,
    "\u2581attentive": 8044,
    "87": 8045,
    "\u2581posed": 8046,
    "\u2581advised": 8047,
    "\u2581cattle": 8048,
    "\u2581smell": 8049,
    "dom": 8050,
    "int": 8051,
    "\u2581Division": 8052,
    "\u2581criminals": 8053,
    "ffe": 8054,
    "\u2581Arena": 8055,
    "\u2581menus": 8056,
    "\u2581accompanying": 8057,
    "Great": 8058,
    "nis": 8059,
    "\u2581origins": 8060,
    "Vi": 8061,
    "\u2581protests": 8062,
    "\u2581Saudi": 8063,
    "\u2581reactions": 8064,
    "\u2581SQL": 8065,
    "\u2581Privacy": 8066,
    "udgetary": 8067,
    "\u2581Leipzig": 8068,
    "\u2581beside": 8069,
    "\u2581stones": 8070,
    "\u2581cater": 8071,
    "\u2581corporations": 8072,
    "\u2581immunity": 8073,
    "\u2581unilateral": 8074,
    "\u2581surgery": 8075,
    "\u2581annually": 8076,
    "inter": 8077,
    "\u2581harsh": 8078,
    "atic": 8079,
    "\u2581Plus": 8080,
    "hm": 8081,
    "imo": 8082,
    "\u2581wisdom": 8083,
    "\u2581vertical": 8084,
    "sum": 8085,
    "\u2581bags": 8086,
    "\u2581obstacle": 8087,
    "\u2581pas": 8088,
    "\u2581employ": 8089,
    "\u2581ages": 8090,
    "\u2581pursuit": 8091,
    "\u2581linen": 8092,
    "\u2581LCD": 8093,
    "\u2581distinguish": 8094,
    "\u2581medicinal": 8095,
    "\u2581Slovak": 8096,
    "\u2581samples": 8097,
    "\u2581portion": 8098,
    "\u2581reasonably": 8099,
    "aci\u00f3n": 8100,
    "text": 8101,
    "\u2581fe": 8102,
    "\u2581fossil": 8103,
    "\u2581galleries": 8104,
    "Additionally": 8105,
    "\u2581Classic": 8106,
    "\u2581modification": 8107,
    "\u2581Cy": 8108,
    "\u2581Frank": 8109,
    "\u2581KDE": 8110,
    "phy": 8111,
    "\u2581Bur": 8112,
    "Neither": 8113,
    "bal": 8114,
    "\u2581coin": 8115,
    "system": 8116,
    "\u2581flood": 8117,
    "nica": 8118,
    "\u2581Update": 8119,
    "\u2581marble": 8120,
    "\u2581tonight": 8121,
    "\u2581communist": 8122,
    "wan": 8123,
    "\u2581Disabled": 8124,
    "\u2581inappropriate": 8125,
    "\u2581memories": 8126,
    "\u2581furnishings": 8127,
[...]
